{"token2id": {" ": 0, "ꦤ꧀": 1, "ꦏ": 2, "ꦲ": 3, "ꦱ": 4, "ꦭ": 5, "ꦤ": 6, "ꦫ": 7, "ꦠ": 8, "ꦢꦶ": 9, "ꦆꦁ": 10, "ꦈ": 11, "ꦩ": 12, "ꦥ": 13, "ꦆ": 14, "ꦱꦶ": 15, "ꦒ": 16, "ꦱ꧀": 17, "ꦧ": 18, "ꦏꦸ": 19, "ꦏꦁ": 20, "ꦠ꧀": 21, "ꦮ": 22, "ꦤꦶ": 23, "\n": 24, "ꦏ꧀": 25, "ꦭꦶ": 26, "ꦏꦼ": 27, "ꦭ꧀": 28, "ꦥꦸ": 29, "ꦢ": 30, "ꦪ": 31, "ꦔ": 32, "ꦮꦶ": 33, "ꦱꦼ": 34, "ꦏꦶ": 35, "ꦎ": 36, "ꦫꦶ": 37, "ꦤꦼ": 38, "ꦠꦼ": 39, "ꦤꦺ": 40, "ꦩꦶ": 41, "ꦲꦼ": 42, "꧐": 43, "ꦏꦺ": 44, "ꦠꦶ": 45, "꧑": 46, "ꦩ꧀": 47, "ꦥꦼ": 48, "ꦩꦼ": 49, "ꦒꦺꦴ": 50, "ꦗ": 51, "ꦧꦸ": 52, "ꦥꦶ": 53, "ꦱꦶꦁ": 54, "ꦱꦸ": 55, "ꦧꦶ": 56, "ꦠꦸ": 57, "ꦏꦺꦴ": 58, "ꦫꦺꦴ": 59, "ꦒꦼ": 60, "ꦢꦸ": 61, "ꦕ": 62, "꧒": 63, "ꦤꦶꦁ": 64, "ꦫꦼ": 65, "ꦩꦸ": 66, "ꦭꦼ": 67, "ꦫꦸ": 68, "ꦮꦺ": 69, "ꦭꦸ": 70, "ꦮꦼ": 71, "ꦗꦶ": 72, "ꦢꦼ": 73, "ꦧꦼ": 74, "ꦥ꧀": 75, "ꦭꦺꦴ": 76, "ꦒꦶ": 77, "ꦒꦸ": 78, "ꦥ꦳ꦶ": 79, "꧙": 80, "ꦢꦺꦴ": 81, "ꦗꦼ": 82, "ꦢ꧀": 83, "ꦢꦺ": 84, "ꦠꦺꦴ": 85, "ꦗꦸ": 86, "ꦤꦁ": 87, "ꦩ꧀ꦧ": 88, "ꦔꦼ": 89, "ꦤ꧀ꦛꦶ": 90, "ꦫꦁ": 91, "ꦝ": 92, "ꦤꦺꦴ": 93, "ꦔꦶ": 94, "꧕": 95, "ꦤ꧀ꦠꦼ": 96, "ꦧꦺꦴ": 97, "ꦝꦺ": 98, "ꦤꦸ": 99, "ꦩꦺꦴ": 100, "꧓": 101, "ꦥꦺꦴ": 102, "꧘": 103, "ꦤ꧀ꦠꦶ": 104, "꧔": 105, "ꦮꦺꦴ": 106, "ꦲꦶ": 107, "ꦥꦼꦂ": 108, "ꦱꦺ": 109, "ꦫꦺ": 110, "꧖": 111, "ꦭꦃ": 112, "ꦌ": 113, "꧗": 114, "ꦤ꧀ꦠ": 115, "ꦚ": 116, "ꦕꦼ": 117, "ꦕꦶ": 118, "ꦩꦂ": 119, "ꦮꦸ": 120, "ꦠꦺ": 121, "ꦔꦸ": 122, "ꦔꦶꦁ": 123, "ꦤ꧀ꦢꦸ": 124, "ꦥ꧀ꦫꦺꦴ": 125, "ꦝꦼ": 126, "ꦤ꧀ꦢ": 127, "ꦲꦁ": 128, "ꦮꦺꦴꦁ": 129, "ꦱꦺꦴ": 130, "ꦛ": 131, "ꦥ꦳": 132, "ꦪꦻ": 133, "ꦩꦺ": 134, "ꦭꦶꦁ": 135, "ꦥ꧀ꦫ": 136, "ꦤ꧀ꦠꦸ": 137, "ꦧ꧀": 138, "ꦔꦺ": 139, "ꦕꦺꦴ": 140, "ꦝꦸ": 141, "ꦪꦸ": 142, "ꦥ꦳꧀": 143, "ꦲꦂ": 144, "ꦏꦂ": 145, "ꦱ꧀ꦠ": 146, "ꦒꦺ": 147, "ꦩ꧀ꦥꦸ": 148, "ꦤꦸꦁ": 149, "ꦮꦂ": 150, "ꦥꦁ": 151, "ꦠ꧀ꦫ": 152, "ꦩꦁ": 153, "ꦒ꧀": 154, "ꦭꦺ": 155, "ꦮꦶꦃ": 156, "ꦥ꦳ꦼ": 157, "ꦏꦶꦁ": 158, "ꦥꦺ": 159, "ꦏ꧀ꦱꦶ": 160, "ꦤ꧀ꦢꦶ": 161, "ꦫꦃ": 162, "ꦠꦼꦂ": 163, "ꦩ꧀ꦧꦸ": 164, "ꦤ꧀ꦢꦺꦴ": 165, "ꦱꦂ": 166, "ꦚꦼ": 167, "ꦤ꧀ꦗꦸꦂ": 168, "ꦲꦸ": 169, "ꦤ꧀ꦝ": 170, "ꦤꦼꦁ": 171, "ꦩꦸꦁ": 172, "ꦱꦶꦃ": 173, "ꦱ꧀ꦠꦶ": 174, "ꦭꦁ": 175, "ꦕꦸ": 176, "ꦝꦶ": 177, "ꦔꦁ": 178, "ꦠꦁ": 179, "ꦭꦶꦃ": 180, "ꦩ꧀ꦧꦁ": 181, "ꦪ꧀": 182, "ꦲꦺ": 183, "ꦪꦺ": 184, "ꦤ꧀ꦱꦶ": 185, "ꦤ꧀ꦗ": 186, "ꦱꦻ": 187, "ꦮꦸꦂ": 188, "ꦒ꧀ꦫ": 189, "ꦥ꦳ꦺꦴ": 190, "ꦗꦺꦴ": 191, "ꦪꦺꦴ": 192, "ꦚꦸ": 193, "ꦔ꧀ꦒ": 194, "ꦤ꧀ꦕ": 195, "ꦩ꧀ꦥ": 196, "ꦠꦸꦁ": 197, "ꦧꦼꦂ": 198, "ꦪꦁ": 199, "ꦩꦃ": 200, "ꦒꦶꦃ": 201, "ꦥꦶꦁ": 202, "ꦏ꧀ꦱ": 203, "ꦏꦺꦃ": 204, "ꦧꦺ": 205, "ꦱ꧀ꦠꦼ": 206, "ꦩꦻ": 207, "ꦗ꧀ꦫꦺꦴ": 208, "ꦤ꧀ꦠꦺꦴ": 209, "ꦥ꦳ꦼꦂ": 210, "ꦎꦂ": 211, "ꦤ꧀ꦗꦼ": 212, "ꦤ꧀ꦢꦼ": 213, "ꦩ꧀ꦥꦶ": 214, "ꦤ꧀ꦝꦸ": 215, "ꦕ꧀": 216, "ꦪꦼ": 217, "ꦩꦼꦂ": 218, "ꦥꦸꦁ": 219, "ꦩ꧀ꦧꦸꦁ": 220, "ꦧꦁ": 221, "ꦩ꧀ꦧꦼ": 222, "ꦔꦺꦴ": 223, "ꦥ꧀ꦫꦶ": 224, "ꦤ꧀ꦕꦶ": 225, "ꦤ꧀ꦗꦸ": 226, "ꦠ꧀ꦫꦶ": 227, "ꦫꦶꦁ": 228, "ꦤ꧀ꦝꦶ": 229, "ꦭ꧀ꦩ꧀": 230, "ꦪꦃ": 231, "ꦩ꧀ꦧꦼꦂ": 232, "ꦛꦼ": 233, "ꦲꦺꦴ": 234, "ꦏ꧀ꦠꦸ": 235, "ꦏ꧀ꦫ": 236, "ꦠꦼꦁ": 237, "ꦕꦃ": 238, "ꦏ꧀ꦭ": 239, "ꦱ꧀ꦮ": 240, "ꦱꦁ": 241, "ꦚꦁ": 242, "ꦏ꧀ꦠꦶ": 243, "ꦧꦂ": 244, "ꦤ꧀ꦠꦼꦂ": 245, "ꦚꦶ": 246, "ꦯ": 247, "ꦤ꧀ꦢ꧀": 248, "ꦔꦃ": 249, "ꦒꦸꦁ": 250, "ꦲꦃ": 251, "ꦩ꧀ꦫ": 252, "ꦠꦶꦁ": 253, "ꦥꦂ": 254, "ꦔ꧀ꦭ": 255, "ꦫꦼꦁ": 256, "ꦭꦸꦁ": 257, "ꦱ꧀ꦠ꧀ꦫ": 258, "ꦠꦸꦂ": 259, "ꦥ꧀ꦫꦼ": 260, "ꦠꦶꦃ": 261, "ꦩ꧀ꦥꦼ": 262, "ꦩ꧀ꦧꦺꦴ": 263, "ꦩ꧀ꦧꦶ": 264, "ꦠ꧀ꦭ": 265, "ꦠ꧀ꦫꦺꦴ": 266, "ꦮꦼꦂ": 267, "ꦒ꧀ꦫꦶ": 268, "ꦩꦸꦂ": 269, "ꦤꦺꦃ": 270, "ꦝꦃ": 271, "ꦏ꧀ꦫꦶ": 272, "ꦫꦸꦁ": 273, "ꦤ꧀ꦠꦁ": 274, "ꦏꦼꦂ": 275, "ꦩ꧀ꦥꦺꦴ": 276, "ꦏꦸꦁ": 277, "ꦝꦺꦴ": 278, "ꦱ꧀ꦠ꧀ꦫꦶ": 279, "ꦩ꧀ꦧꦂ": 280, "ꦭꦂ": 281, "ꦮꦁ": 282, "ꦠꦃ": 283, "ꦫꦺꦴꦁ": 284, "ꦲꦼꦂ": 285, "ꦒꦁ": 286, "ꦗꦼꦁ": 287, "ꦧꦺꦃ": 288, "ꦩ꧀ꦧꦃ": 289, "ꦱ꧀ꦭ": 290, "ꦤ꧀ꦝꦼ": 291, "ꦗ꦳": 292, "ꦛꦶ": 293, "ꦔꦼꦂ": 294, "ꦱ꧀ꦩ": 295, "ꦤꦼꦂ": 296, "ꦤ꧀ꦥ": 297, "ꦧ꧀ꦫ": 298, "ꦱꦶꦂ": 299, "ꦌꦁ": 300, "ꦱ꧀ꦫꦶꦁ": 301, "ꦥ꧀ꦭ": 302, "ꦏꦻ": 303, "ꦤ꧀ꦕꦼ": 304, "ꦢ꧀ꦪ": 305, "ꦏꦼꦃ": 306, "ꦠꦂ": 307, "ꦮ꧀": 308, "ꦥꦸꦂ": 309, "ꦭꦻ": 310, "ꦏ꧀ꦩ꧀": 311, "ꦤ꧀ꦠꦃ": 312, "ꦯꦶ": 313, "ꦱꦺꦴꦂ": 314, "ꦭꦺꦴꦂ": 315, "ꦮꦃ": 316, "ꦱ꧀ꦠꦸ": 317, "ꦭ꧀ꦩꦸ": 318, "ꦤ꧀ꦝꦁ": 319, "ꦩ꧀ꦭꦼ": 320, "ꦚꦂ": 321, "ꦏ꧀ꦭꦸ": 322, "ꦥ꦳ꦺ": 323, "ꦧ꧀ꦫꦶ": 324, "ꦏꦴ": 325, "ꦏꦸꦂ": 326, "ꦱ꧀ꦭꦶ": 327, "ꦗꦼꦂ": 328, "ꦢ꧀ꦫ": 329, "ꦲꦶꦁ": 330, "ꦤ꧀ꦱꦼ": 331, "ꦤ꧀ꦠ꧀": 332, "ꦤ꧀ꦱ꧀": 333, "ꦮꦼꦁ": 334, "ꦤ꧀ꦠꦺ": 335, "ꦒꦂ": 336, "ꦢꦁ": 337, "ꦝꦁ": 338, "ꦤꦃ": 339, "ꦤ꧀ꦝꦺꦴ": 340, "ꦒꦶꦁ": 341, "ꦭꦸꦂ": 342, "ꦧꦸꦂ": 343, "ꦭꦼꦁ": 344, "ꦱ꧀ꦩꦼ": 345, "ꦒꦼꦂ": 346, "ꦏ꦳": 347, "ꦱ꧀ꦠ꧀": 348, "ꦱ꧀ꦠꦺꦴ": 349, "ꦩ꧀ꦥꦁ": 350, "ꦥꦼꦁ": 351, "ꦲꦼꦁ": 352, "ꦥ꦳ꦺꦴꦂ": 353, "ꦭ꧀ꦭ꧀": 354, "ꦱꦸꦁ": 355, "ꦱ꧀ꦥꦼ": 356, "ꦕ꧀ꦫꦶ": 357, "ꦏ꧀ꦱ꧀": 358, "ꦒꦃ": 359, "ꦧꦸꦁ": 360, "ꦠꦺꦴꦂ": 361, "ꦕꦂ": 362, "ꦝꦺꦴꦁ": 363, "ꦭ꧀ꦭ": 364, "ꦱ꧀ꦩꦶ": 365, "ꦩ꧀ꦧꦺ": 366, "ꦤ꧀ꦠꦂ": 367, "ꦚꦺꦴ": 368, "ꦏꦃ": 369, "ꦒꦼꦁ": 370, "ꦱꦼꦂ": 371, "ꦔ꧀ꦫꦼ": 372, "ꦔ꧀ꦒꦸ": 373, "ꦛꦃ": 374, "ꦪꦶ": 375, "ꦏ꧀ꦠꦸꦂ": 376, "ꦢꦼꦂ": 377, "ꦗꦁ": 378, "ꦕ꧀ꦏ꧀": 379, "ꦠ꧀ꦫꦼ": 380, "ꦭ꧀ꦧꦸ": 381, "ꦭ꧀ꦭꦼ": 382, "ꦭ꧀ꦠ": 383, "ꦏ꧀ꦫꦼ": 384, "ꦭꦻꦂ": 385, "ꦢꦃ": 386, "ꦛꦺꦴ": 387, "ꦧ꧀ꦭꦶ": 388, "ꦔ꧀ꦫ": 389, "ꦆꦷ": 390, "ꦠꦻ": 391, "ꦩ꧀ꦥꦸꦁ": 392, "ꦈꦂ": 393, "ꦤ꧀ꦠꦸꦁ": 394, "ꦧꦃ": 395, "ꦤꦂ": 396, "ꦤ꧀ꦢꦼꦂ": 397, "ꦏ꧀ꦭꦺꦴ": 398, "ꦱ꧀ꦫ": 399, "ꦗ꦳ꦶ": 400, "ꦯ꧀": 401, "ꦤ꧀ꦠ꧀ꦫ": 402, "ꦥ꦳ꦸ": 403, "ꦩꦶꦁ": 404, "ꦏ꧀ꦱꦼ": 405, "ꦏ꧀ꦭꦶ": 406, "ꦮꦸꦃ": 407, "ꦐꦸ": 408, "ꦥ꧀ꦠ": 409, "ꦱꦃ": 410, "ꦥ꦳꧀ꦫ": 411, "ꦱꦸꦂ": 412, "ꦱ꧀ꦱ꧀": 413, "ꦤ꧀ꦱ": 414, "ꦩ꧀ꦭ": 415, "ꦏ꧀ꦠꦺꦴꦂ": 416, "ꦤ꧀ꦠ꧀ꦫꦶ": 417, "ꦩ꧀ꦥꦸꦂ": 418, "ꦫꦻ": 419, "ꦥ꧀ꦫꦺ": 420, "ꦤ꧀ꦝꦺ": 421, "ꦱ꧀ꦏ": 422, "ꦏ꧀ꦫꦺꦴ": 423, "ꦲꦴ": 424, "ꦤꦴ": 425, "ꦩꦼꦁ": 426, "ꦭꦼꦂ": 427, "ꦭꦺꦴꦁ": 428, "ꦤ꧀ꦢꦁ": 429, "ꦧ꧀ꦫꦸ": 430, "ꦎꦁ": 431, "ꦭ꧀ꦭꦶ": 432, "ꦏ꧀ꦠꦺꦴ": 433, "ꦱ꧀ꦤ": 434, "ꦭꦺꦃ": 435, "ꦕꦁ": 436, "ꦱ꧀ꦥ": 437, "ꦫꦸꦃ": 438, "ꦱ꧀ꦱ": 439, "ꦪꦂ": 440, "ꦱ꧀ꦫꦼ": 441, "ꦒ꧀ꦫꦸ": 442, "ꦱ꧀ꦗꦶ": 443, "ꦗ꦳ꦺꦴ": 444, "ꦠ꧀ꦪ꧀": 445, "ꦢꦷ": 446, "ꦩ꧀ꦭꦶ": 447, "ꦤ꧀ꦢ꧀ꦫ": 448, "ꦮꦺꦴꦃ": 449, "ꦤ꧀ꦱꦸ": 450, "ꦏ꧀ꦢ": 451, "ꦒ꧀ꦫꦺ": 452, "ꦭ꧀ꦭꦃ": 453, "ꦏꦶꦂ": 454, "ꦤꦼꦃ": 455, "ꦱ꧀ꦠꦼꦂ": 456, "ꦛ꧀": 457, "ꦛꦸ": 458, "ꦢꦂ": 459, "ꦩ꧀ꦫꦶ": 460, "ꦤ꧀ꦕꦸ": 461, "ꦏ꧀ꦭꦼ": 462, "ꦏ꧀ꦪ": 463, "ꦕ꧀ꦩ꧀": 464, "ꦩ꧀ꦩ꧀": 465, "ꦏ꧀ꦠꦼ": 466, "ꦥꦺꦴꦂ": 467, "ꦤ꧀ꦗꦶ": 468, "ꦥ꦳ꦸꦁ": 469, "ꦩꦺꦴꦂ": 470, "ꦥ꧀ꦱꦶ": 471, "ꦒ꧀ꦪ": 472, "ꦏꦺꦴꦃ": 473, "ꦤ꧀ꦢꦸꦂ": 474, "ꦏ꧀ꦤꦶ": 475, "ꦤ꧀ꦢꦂ": 476, "ꦭ꧀ꦢ꧀": 477, "ꦥꦃ": 478, "ꦥ꦳꧀ꦫꦶ": 479, "ꦱ꧀ꦫꦶ": 480, "ꦧꦼꦃ": 481, "ꦤꦺꦴꦂ": 482, "ꦈꦁ": 483, "ꦧ꧀ꦫꦺꦴ": 484, "ꦤ꧀ꦠꦺꦴꦂ": 485, "ꦤ꧀ꦢꦃ": 486, "ꦤ꧀ꦤꦼ": 487, "ꦗ꦳꧀": 488, "ꦒ꧀ꦫꦼ": 489, "ꦥ꧀ꦠꦼ": 490, "ꦍꦂ": 491, "ꦢ꧀ꦫꦶ": 492, "ꦗ꦳ꦼ": 493, "ꦗꦂ": 494, "ꦏ꦳ꦸ": 495, "ꦂ": 496, "ꦩ꧀ꦩ": 497, "ꦭꦸꦃ": 498, "ꦱ꧀ꦠ꧀ꦫꦸ": 499, "ꦱ꧀ꦥꦺ": 500, "ꦗꦃ": 501, "ꦏ꧀ꦤ": 502, "ꦤ꧀ꦱꦸꦂ": 503, "ꦏ꧀ꦱꦶꦃ": 504, "ꦱ꧀ꦠ꧀ꦫꦺꦴ": 505, "ꦩ꧀ꦥꦃ": 506, "ꦧ꧀ꦭ": 507, "ꦫꦴ": 508, "ꦗꦺ": 509, "ꦤ꧀ꦠ꧀ꦫꦺꦴ": 510, "ꦱ꧀ꦕꦺꦴ": 511, "ꦗꦴ": 512, "ꦱ꧀ꦢ꧀": 513, "ꦩ꧀ꦠꦸ": 514, "ꦤ꧀ꦢꦺ": 515, "ꦥ꧀ꦠꦶ": 516, "ꦏ꧀ꦠꦼꦂ": 517, "ꦍ": 518, "ꦔ꧀ꦫꦸ": 519, "ꦏꦺꦴꦂ": 520, "ꦱꦴ": 521, "ꦱ꧀ꦥꦺꦴ": 522, "ꦱ꧀ꦥꦶ": 523, "ꦒꦸꦂ": 524, "ꦔ꧀ꦭꦶ": 525, "ꦤ꧀ꦥ꦳ꦼ": 526, "ꦤ꧀ꦏ꧀": 527, "ꦱ꧀ꦏꦺꦴ": 528, "ꦠ꧀ꦱ꧀": 529, "ꦤ꧀ꦕꦁ": 530, "ꦠ꧀ꦫꦺ": 531, "ꦒ꧀ꦫꦺꦴ": 532, "ꦤ꧀ꦝꦃ": 533, "ꦏ꧀ꦱꦸ": 534, "ꦤ꧀ꦥ꦳ꦺꦴꦂ": 535, "ꦤ꧀ꦱꦃ": 536, "ꦱ꧀ꦛꦶ": 537, "ꦠ꧀ꦱꦸ": 538, "ꦭ꧀ꦭꦺꦴ": 539, "ꦏ꧀ꦠ꧀ꦫꦺꦴ": 540, "ꦱ꧀ꦱꦶ": 541, "ꦤ꧀ꦠꦶꦁ": 542, "ꦲ꧀": 543, "ꦧ꧀ꦭꦺꦴ": 544, "ꦥꦻ": 545, "ꦱ꧀ꦏꦸ": 546, "ꦢ꧀ꦫꦺꦴ": 547, "ꦤ꧀ꦤ": 548, "ꦧ꧀ꦭꦼ": 549, "ꦧꦺꦴꦁ": 550, "ꦩꦶꦂ": 551, "ꦩ꧀ꦥꦼꦂ": 552, "ꦒ꧀ꦭꦺꦴ": 553, "ꦤꦸꦂ": 554, "ꦱ꧀ꦩ꧀": 555, "ꦗ꧀": 556, "ꦭ꧀ꦥꦺꦴ": 557, "ꦤ꧀ꦱ꧀ꦠꦶ": 558, "ꦠ꧀ꦥ꦳꧀": 559, "ꦯꦼ": 560, "ꦱ꧀ꦱꦼ": 561, "ꦕꦼꦂ": 562, "ꦧꦻ": 563, "ꦱ꧀ꦮꦶ": 564, "ꦭ꧀ꦠꦶ": 565, "ꦤ꧀ꦗꦁ": 566, "ꦱꦸꦃ": 567, "ꦗ꦳ꦸ": 568, "ꦤ꧀ꦠꦻ": 569, "ꦪꦸꦁ": 570, "ꦤ꧀ꦏ": 571, "ꦫꦶꦂ": 572, "꧈": 573, "ꦚ꧀": 574, "ꦏ꧀ꦤꦺꦴ": 575, "ꦱ꧀ꦤꦶ": 576, "ꦤ꧀ꦭ": 577, "ꦗꦸꦂ": 578, "ꦒꦶꦂ": 579, "ꦤ꧀ꦢꦸꦁ": 580, "ꦭ꧀ꦩꦶ": 581, "ꦔ꧀ꦒꦺꦴ": 582, "ꦔ꧀ꦭꦼ": 583, "ꦢ꧀ꦱ꧀": 584, "ꦯꦺꦴ": 585, "ꦥ꦳꧀ꦭ": 586, "ꦗꦺꦴꦃ": 587, "ꦢꦺꦴꦃ": 588, "ꦕꦶꦁ": 589, "ꦤ꧀ꦢ꧀ꦧ꧀": 590, "ꦥ꦳꧀ꦫꦼ": 591, "ꦏꦺꦴꦁ": 592, "ꦏ꧀ꦠ": 593, "ꦠꦺꦂ": 594, "ꦭꦼꦃ": 595, "ꦲꦸꦂ": 596, "ꦱꦼꦁ": 597, "ꦮꦺꦴꦂ": 598, "ꦤ꧀ꦱ꧀ꦠ꧀": 599, "ꦩꦺꦃ": 600, "ꦕꦺꦴꦂ": 601, "ꦠ꧀ꦫꦸ": 602, "ꦥ꧀ꦭꦼ": 603, "ꦤ꧀ꦗꦸꦁ": 604, "ꦩ꧀ꦥ꧀": 605, "ꦧ꧀ꦭꦸ": 606, "ꦏ꦳ꦶ": 607, "ꦫ꧀": 608, "ꦯꦸ": 609, "ꦠ꧀ꦤ": 610, "ꦢ꧀ꦩꦶ": 611, "ꦫꦺꦁ": 612, "ꦢꦶꦁ": 613, "ꦕꦺ": 614, "ꦥ꧀ꦭꦶ": 615, "ꦠꦶꦂ": 616, "ꦠ꧀ꦠ": 617, "ꦕ꧀ꦫꦺꦴ": 618, "ꦔ꧀ꦭꦸ": 619, "ꦧꦺꦴꦂ": 620, "ꦩ꧀ꦠꦺꦴ": 621, "ꦏ꧀ꦠꦂ": 622, "ꦏ꧀ꦫꦸ": 623, "ꦠ꧀ꦪ": 624, "ꦤ꧀ꦤꦶ": 625, "ꦤ꧀ꦱꦺꦴ": 626, "ꦧ꧀ꦫꦼ": 627, "ꦒ꧀ꦭꦼ": 628, "ꦥ꦳ꦂ": 629, "ꦪꦴ": 630, "ꦠ꧀ꦤꦶ": 631, "ꦒ꧀ꦭ": 632, "ꦤ꧀ꦠ꧀ꦫꦼ": 633, "ꦪꦸꦃ": 634, "ꦱ꧀ꦏꦶ": 635, "ꦔ꧀ꦒꦶ": 636, "ꦢꦸꦂ": 637, "ꦏ꧀ꦮꦶ": 638, "ꦤ꧀ꦮ": 639, "ꦏ꧀ꦱꦺ": 640, "ꦩꦺꦴꦁ": 641, "ꦏ꧀ꦠꦶꦁ": 642, "ꦤ꧀ꦧ": 643, "ꦏ꦳ꦶꦂ": 644, "ꦩ꧀ꦭꦃ": 645, "ꦪꦺꦴꦂ": 646, "ꦥꦸꦃ": 647, "ꦥ꧀ꦭꦺꦴ": 648, "ꦢꦻ": 649, "ꦠ꧀ꦠꦼ": 650, "ꦤ꧀ꦏꦼ": 651, "ꦭꦺꦂ": 652, "ꦮ꧀ꦫꦸꦃ": 653, "ꦢꦸꦁ": 654, "ꦤ꧀ꦕꦺ": 655, "ꦱ꧀ꦕ": 656, "ꦱ꧀ꦏꦃ": 657, "ꦤ꧀ꦩ": 658, "ꦒꦴ": 659, "ꦤ꧀ꦱꦺ": 660, "ꦠ꧀ꦠ꧀": 661, "ꦔꦸꦁ": 662, "ꦠꦺꦴꦁ": 663, "ꦩ꧀ꦱꦶ": 664, "ꦤ꧀ꦕꦺꦴ": 665, "ꦭ꧀ꦏ": 666, "ꦆꦂ": 667, "ꦩ꧀ꦥꦺ": 668, "ꦒꦸꦃ": 669, "ꦥ꧀ꦠ꧀": 670, "ꦩꦼꦃ": 671, "ꦢ꧀ꦪ꧀": 672, "ꦔ꧀ꦫꦶ": 673, "ꦤ꧀ꦫꦼ": 674, "ꦥ꦳꧀ꦥ꦳꧀": 675, "ꦩ꧀ꦥꦸꦃ": 676, "ꦝꦂ": 677, "ꦱ꧀ꦏꦼ": 678, "ꦏ꧀ꦠꦺ": 679, "ꦧꦸꦃ": 680, "ꦤꦻ": 681, "ꦤ꧀ꦗꦺꦴ": 682, "ꦐ": 683, "ꦭꦶꦂ": 684, "ꦏ꧀ꦱꦺꦴ": 685, "ꦥ꦳ꦺꦂ": 686, "ꦔ꧀ꦒꦼ": 687, "ꦥ꦳ꦶꦂ": 688, "ꦕꦻ": 689, "ꦤ꧀ꦭꦶ": 690, "ꦩ꧀ꦪ꧀": 691, "ꦐ꧀": 692, "ꦱ꧀ꦠꦂ": 693, "ꦲꦺꦴꦂ": 694, "ꦠ꧀ꦠꦺꦴ": 695, "ꦭ꧀ꦥ꦳": 696, "ꦠ꧀ꦗ꦳꧀": 697, "ꦭ꧀ꦩ": 698, "ꦏ꧀ꦩ": 699, "ꦠ꧀ꦠꦼꦂ": 700, "ꦥ꧀ꦱ꧀": 701, "ꦠꦴ": 702, "ꦤ꧀ꦗꦂ": 703, "ꦥ꦳꧀ꦥ꦳ꦶ": 704, "ꦭ꧀ꦭ꧀ꦪ꧀": 705, "ꦒꦺꦴꦂ": 706, "ꦢ꧀ꦗ": 707, "ꦤ꧀ꦚ꧀": 708, "ꦤ꧀ꦱ꧀ꦠ": 709, "ꦪ꧀ꦱꦶ": 710, "ꦮꦻ": 711, "ꦒ꦳꧀": 712, "ꦕ꧀ꦠꦶ": 713, "ꦤ꧀ꦗ꦳": 714, "ꦤ꧀ꦝꦶꦁ": 715, "ꦥ꦳꧀ꦠꦂ": 716, "ꦩ꧀ꦥ꧀ꦭꦼ": 717, "ꦭ꧀ꦱ꧀": 718, "ꦠꦸꦃ": 719, "ꦩꦴ": 720, "ꦭ꧀ꦪ": 721, "ꦠ꧀ꦱꦶ": 722, "ꦢ꧀ꦢꦶ": 723, "ꦥ꦳꧀ꦭꦺꦴ": 724, "ꦭ꧀ꦢꦼ": 725, "ꦩ꧀ꦧ꧀ꦫ": 726, "ꦤ꧀ꦢꦶꦁ": 727, "ꦤ꧀ꦛꦼ": 728, "ꦤ꧀ꦥ꦳ꦺ": 729, "ꦭ꧀ꦱ": 730, "ꦗꦸꦁ": 731, "ꦗꦶꦁ": 732, "ꦤ꧀ꦏꦼꦂ": 733, "ꦤ꧀ꦤ꧀": 734, "ꦩ꧀ꦫꦼ": 735, "ꦢ꧀ꦫꦸ": 736, "ꦱ꧀ꦏꦺ": 737, "ꦩ꧀ꦫꦺꦴ": 738, "ꦏ꧀ꦠ꧀ꦫꦶ": 739, "ꦢ꧀ꦤ": 740, "ꦤ꧀ꦢ꧀ꦫꦺꦴ": 741, "ꦄꦴ": 742, "ꦤ꧀ꦥꦶ": 743, "ꦥ꧀ꦭꦸ": 744, "ꦤꦺꦂ": 745, "ꦧ꧀ꦢꦸ": 746, "ꦒ꧀ꦤꦼ": 747, "ꦢꦸꦃ": 748, "ꦢ꧀ꦮ": 749, "ꦕ꧀ꦭ": 750, "ꦢꦺꦴꦂ": 751, "ꦤ꧀ꦫꦶ": 752, "ꦩ꧀ꦱ꧀": 753, "ꦭ꧀ꦏꦺꦴ": 754, "ꦭ꧀ꦠ꧀": 755, "ꦒ꦳꧀ꦠ꧀": 756, "ꦒꦻ": 757, "ꦱ꧀ꦠ꧀ꦫꦼ": 758, "ꦏ꦳꧀": 759, "ꦤ꧀ꦝꦼꦂ": 760, "ꦤ꧀ꦱ꧀ꦥꦺꦴꦂ": 761, "ꦱꦺꦴꦁ": 762, "ꦚꦼꦁ": 763, "ꦭ꧀ꦒ": 764, "ꦮ꧀ꦫ": 765, "ꦱ꧀ꦕꦶ": 766, "ꦏ꧀ꦫꦺ": 767, "ꦛꦻ": 768, "ꦩ꧀ꦫꦃ": 769, "ꦫ꧀ꦥ꧀": 770, "ꦕ꧀ꦭꦼ": 771, "ꦧ꧀ꦗꦼ": 772, "ꦭ꧀ꦪ꧀": 773, "ꦲꦻ": 774, "ꦱ꧀ꦩ꧀ꦥ꧀": 775, "ꦱ꧀ꦱꦺꦴ": 776, "ꦥ꧀ꦫꦸ": 777, "ꦱ꧀ꦠꦺ": 778, "ꦒ꧀ꦭꦶ": 779, "ꦤ꧀ꦢ꧀ꦪ꧀": 780, "ꦱ꧀ꦏ꧀ꦫꦶ": 781, "ꦤ꧀ꦩꦼ": 782, "ꦕ꧀ꦠ꧀": 783, "ꦥꦶꦂ": 784, "ꦠꦺꦃ": 785, "ꦠ꧀ꦠꦶ": 786, "ꦤ꧀ꦕꦼꦂ": 787, "ꦝꦸꦁ": 788, "ꦤ꧀ꦥ꦳ꦴ": 789, "ꦢ꧀ꦮꦶ": 790, "ꦥ꦳꧀ꦠ꧀": 791, "ꦧꦶꦂ": 792, "ꦒ꧀ꦤꦶ": 793, "ꦤ꧀ꦠꦼꦁ": 794, "ꦢꦺꦴꦁ": 795, "ꦤ꧀ꦱꦼꦂ": 796, "ꦤ꧀ꦫ": 797, "ꦛꦺ": 798, "ꦏ꧀ꦪꦺꦴ": 799, "ꦧꦼꦁ": 800, "ꦭ꧀ꦠꦼꦂ": 801, "ꦠ꧀ꦩ": 802, "ꦤ꧀ꦢ꧀ꦫꦶ": 803, "ꦪꦼꦂ": 804, "ꦏ꧀ꦱ꧀ꦠ꧀": 805, "ꦏ꧀ꦱ꧀ꦥ꧀": 806, "ꦤ꧀ꦧꦼ": 807, "ꦮ꧀ꦤ꧀": 808, "ꦤ꧀ꦗ꦳ꦶ": 809, "ꦥ꧀ꦠꦺꦴ": 810, "ꦏ꧀ꦮ": 811, "ꦒꦺꦴꦁ": 812, "ꦤ꧀ꦏꦶ": 813, "ꦧ꧀ꦢꦶ": 814, "ꦧ꧀ꦪ꧀": 815, "ꦏꦸꦃ": 816, "ꦛꦼꦂ": 817, "ꦮꦶꦁ": 818, "ꦢ꧀ꦫꦼ": 819, "ꦏ꧀ꦒ꧀": 820, "ꦭ꧀ꦏꦶ": 821, "ꦲꦶꦂ": 822, "ꦕ꧀ꦏꦼ": 823, "ꦤ꧀ꦏꦸ": 824, "ꦤ꧀ꦲ": 825, "ꦩ꧀ꦧꦸꦃ": 826, "ꦕ꧀ꦫꦼ": 827, "ꦢ꧀ꦝ": 828, "ꦭ꧀ꦧ": 829, "ꦥ꦳꧀ꦫꦺꦴ": 830, "ꦏ꧀ꦏ": 831, "ꦚ꧀ꦫꦶ": 832, "ꦤ꧀ꦗꦼꦂ": 833, "ꦢ꧀ꦒꦼ": 834, "ꦏ꧀ꦪꦻ": 835, "ꦕ꧀ꦫ": 836, "ꦱ꧀ꦕꦼ": 837, "ꦱ꧀ꦩꦺꦴ": 838, "ꦱ꧀ꦭꦼ": 839, "ꦤꦶꦂ": 840, "ꦢ꧀ꦫ꧀": 841, "ꦩ꧀ꦥꦶꦁ": 842, "ꦫꦶꦃ": 843, "ꦤ꧀ꦢ꧀ꦫꦼ": 844, "ꦭ꧀ꦱꦶ": 845, "ꦠ꧀ꦭꦼ": 846, "ꦚꦺ": 847, "ꦲꦺꦴꦁ": 848, "ꦥ꦳꧀ꦭꦸ": 849, "ꦩ꧀ꦥ꧀ꦭꦺ": 850, "ꦏ꧀ꦏꦼ": 851, "ꦱ꧀ꦠꦺꦴꦂ": 852, "ꦤꦸꦃ": 853, "ꦥ꦳꧀ꦕ꧀": 854, "ꦤ꧀ꦥꦼ": 855, "ꦠ꧀ꦩꦺꦴ": 856, "ꦤ꧀ꦮꦶ": 857, "ꦥ꦳꧀ꦭꦼ": 858, "ꦥ꧀ꦫꦶꦁ": 859, "ꦏ꧀ꦮꦂ": 860, "ꦐꦶ": 861, "ꦤ꧀ꦏꦺꦴ": 862, "ꦱ꧀ꦐꦸ": 863, "ꦢ꧀ꦗꦺꦴ": 864, "ꦭ꧀ꦭꦸ": 865, "ꦕ꧀ꦠꦺꦴ": 866, "ꦤ꧀ꦥ꦳ꦶ": 867, "ꦭ꧀ꦏꦸ": 868, "ꦭ꧀ꦥ꦳ꦶ": 869, "ꦏ꧀ꦢꦸ": 870, "ꦧꦶꦁ": 871, "ꦕ꧀ꦠꦺꦴꦂ": 872, "ꦥ꧀ꦠꦂ": 873, "ꦏꦴꦁ": 874, "ꦝꦺꦂ": 875, "ꦠꦼꦃ": 876, "ꦭ꧀ꦥ꦳꧀": 877, "ꦢ꧀ꦮꦂ": 878, "ꦪꦺꦴꦁ": 879, "ꦱ꧀ꦏ꧀": 880, "ꦤ꧀ꦥ꦳": 881, "ꦗ꦳ꦻ": 882, "ꦤ꧀ꦥ꦳꧀ꦭꦸ": 883, "ꦕꦼꦁ": 884, "ꦤ꧀ꦢ꧀ꦱ꧀": 885, "ꦮ꧀ꦲꦶ": 886, "ꦔꦂ": 887, "ꦤ꧀ꦕꦂ": 888, "ꦒ꧀ꦤ": 889, "ꦫꦺꦴꦃ": 890, "ꦱ꧀ꦥꦼꦂ": 891, "ꦒ꧀ꦤꦺꦴ": 892, "ꦢꦶꦂ": 893, "ꦕ꧀ꦏ꧀ꦱ꧀": 894, "ꦕ꧀ꦠꦸ": 895, "ꦥ꦳ꦃ": 896, "ꦮꦸꦁ": 897, "ꦕ꧀ꦱ꧀": 898, "ꦠ꧀ꦭꦼꦂ": 899, "ꦧ꧀ꦫꦃ": 900, "ꦩ꧀ꦤ": 901, "ꦒ꦳": 902, "ꦕꦸꦂ": 903, "ꦭ꧀ꦱꦼ": 904, "ꦏ꧀ꦤꦺ": 905, "ꦤ꧀ꦕꦶꦁ": 906, "ꦥ꧀ꦧ꧀ꦧ꧀": 907, "ꦱ꧀ꦭꦺꦴ": 908, "ꦠ꧀ꦏ": 909, "ꦩ꧀ꦧ꧀ꦭꦼ": 910, "ꦩ꧀ꦧ꧀ꦫꦺꦴ": 911, "ꦒ꧀ꦩꦼ": 912, "ꦥ꦳ꦷ": 913, "ꦗꦻ": 914, "ꦭ꧀ꦧꦼꦂ": 915, "ꦭ꧀ꦭꦼꦂ": 916, "ꦤ꧀ꦠ꧀ꦫꦺ": 917, "ꦏ꧀ꦏ꧀ꦱ꧀": 918, "ꦒ꧀ꦗ": 919, "ꦤ꧀ꦝꦸꦁ": 920, "ꦤ꧀ꦝꦼꦁ": 921, "ꦱ꧀ꦤꦼ": 922, "ꦏ꧀ꦱ꧀ꦠꦸꦂ": 923, "ꦕ꧀ꦭꦺꦴ": 924, "ꦧ꧀ꦧ": 925, "ꦧ꧀ꦪꦼ": 926, "ꦢ꧀ꦥ꧀ꦫ꧀": 927, "ꦤ꧀ꦛꦼꦁ": 928, "ꦤ꧀ꦫ꧀ꦪ꧀": 929, "ꦥ꦳꧀ꦥ꦳ꦼ": 930, "ꦲ꧀ꦪꦁ": 931, "ꦏ꧀ꦩꦼ": 932, "ꦤ꧀ꦱ꧀ꦥꦶ": 933, "ꦩ꧀ꦥ꧀ꦫꦺꦴ": 934, "ꦫꦼꦂ": 935, "ꦤ꧀ꦗꦺ": 936, "ꦤ꧀ꦤꦺꦴ": 937, "ꦩ꧀ꦏ꧀ꦱ꧀": 938, "ꦪ꧀ꦱ꧀": 939, "ꦮ꧀ꦱ꧀": 940, "ꦏ꦳꧀ꦭꦸ": 941, "ꦤ꧀ꦕ꧀": 942, "ꦤ꧀ꦥ꦳꧀ꦭꦶ": 943, "ꦭ꧀ꦱꦸ": 944, "ꦏ꧀ꦏꦺ": 945, "ꦥ꧀ꦠꦺ": 946, "ꦧ꧀ꦗꦺ": 947, "ꦩ꧀ꦥꦼꦁ": 948, "ꦤ꧀ꦠ꧀ꦪ꧀": 949, "ꦕꦺꦃ": 950, "ꦠ꧀ꦮꦶ": 951, "ꦥ꧀ꦥꦼ": 952, "ꦤ꧀ꦏ꧀ꦱ꧀": 953, "ꦧ꧀ꦤꦸ": 954, "ꦭ꧀ꦏꦼ": 955, "ꦯꦃ": 956, "ꦗ꦳꧀ꦗ꦳": 957, "ꦧꦺꦂ": 958, "ꦠ꧀ꦭꦶ": 959, "ꦩ꧀ꦧ꧀ꦫꦶ": 960, "ꦤ꧀ꦭꦼ": 961, "ꦤ꧀ꦛꦺꦴ": 962, "ꦧꦶꦃ": 963, "ꦕ꧀ꦭꦸ": 964, "ꦒ꧀ꦭꦸ": 965, "ꦭ꧀ꦠꦺꦴ": 966, "ꦏ꦳ꦺꦴ": 967, "ꦏ꧀ꦪꦸ": 968, "ꦕ꧀ꦏ꧀ꦪ꧀": 969, "ꦭ꧀ꦥꦶ": 970, "ꦐꦸꦂ": 971, "ꦤ꧀ꦱ꧀ꦥ꦳ꦼꦂ": 972, "ꦭ꧀ꦥ": 973, "ꦭ꧀ꦪꦂ": 974, "ꦭ꧀ꦲ": 975, "ꦔ꧀": 976, "ꦭ꧀ꦏ꧀ꦱ꧀": 977, "ꦏ꧀ꦤꦼ": 978, "ꦢꦴ": 979, "ꦱ꧀ꦥ꦳ꦼꦂ": 980, "ꦏ꧀ꦭꦶꦂ": 981, "ꦫꦂ": 982, "ꦠ꧀ꦏ꧀ꦱ꧀": 983, "ꦏ꧀ꦩꦸ": 984, "ꦕꦼꦃ": 985, "ꦤ꧀ꦗꦶꦂ": 986, "ꦥ꧀ꦠꦸ": 987, "ꦭ꧀ꦢꦼꦂ": 988, "ꦏ꧀ꦱ꧀ꦥꦼ": 989, "ꦭ꧀ꦒꦶ": 990, "ꦱ꧀ꦤꦺꦴ": 991, "ꦕ꧀ꦭꦶ": 992, "ꦗ꦳ꦼꦂ": 993, "ꦤ꧀ꦧꦶ": 994, "ꦗ꧀ꦭ꧀": 995, "ꦤ꧀ꦗ꦳꧀": 996, "ꦤ꧀ꦠ꧀ꦱ꧀": 997, "ꦭ꧀ꦗꦸ": 998, "ꦭ꧀ꦱ꧀ꦥ꧀": 999, "ꦤ꧀ꦗꦶꦁ": 1000, "ꦤ꧀ꦚ": 1001, "ꦤ꧀ꦛꦺꦴꦁ": 1002, "ꦩ꧀ꦧꦶꦁ": 1003, "ꦭꦴ": 1004, "ꦱ꧀ꦏꦺꦴꦂ": 1005, "ꦤ꧀ꦤꦺ": 1006, "ꦥ꧀ꦥ": 1007, "ꦧ꧀ꦭ꧀": 1008, "ꦠ꧀ꦤꦺꦴ": 1009, "ꦭ꧀ꦭ꧀ꦱ꧀": 1010, "ꦏ꧀ꦱ꧀ꦏ꧀": 1011, "ꦤ꧀ꦢꦻ": 1012, "ꦩ꧀ꦩꦼꦂ": 1013, "ꦔ꧀ꦭꦻ": 1014, "ꦠ꧀ꦥ꦳ꦺꦴꦂ": 1015, "ꦎꦃ": 1016, "ꦏ꧀ꦭꦻ": 1017, "ꦏ꧀ꦱ꧀ꦥꦺꦴꦂ": 1018, "ꦥ꧀ꦫꦁ": 1019, "ꦧ꧀ꦫꦁ": 1020, "ꦱ꧀ꦥꦺꦴꦂ": 1021, "ꦤ꧀ꦕꦼꦁ": 1022, "ꦤ꧀ꦥꦸ": 1023, "ꦩ꧀ꦥꦶꦂ": 1024, "ꦩ꧀ꦧꦸꦂ": 1025, "ꦱ꧀ꦕꦂ": 1026, "ꦱ꧀ꦠ꧀ꦪ꧀": 1027, "ꦤ꧀ꦧꦸ": 1028, "ꦤ꧀ꦮꦺꦴ": 1029, "ꦩ꧀ꦫꦺ": 1030, "ꦭ꧀ꦏ꧀": 1031, "ꦱ꧀ꦏ꧀ꦱ꧀": 1032, "ꦱ꧀ꦮꦼ": 1033, "ꦧ꧀ꦪꦺ": 1034, "ꦕ꧀ꦕꦶ": 1035, "ꦤ꧀ꦛꦺꦁ": 1036, "ꦱ꧀ꦕ꧀": 1037, "ꦔꦸꦂ": 1038, "ꦤ꧀ꦝꦺꦁ": 1039, "ꦤ꧀ꦱꦺꦴꦂ": 1040, "ꦤ꧀ꦗꦼꦁ": 1041, "ꦤ꧀ꦧꦸꦂ": 1042, "ꦩ꧀ꦥ꧀ꦭꦶ": 1043, "ꦱ꧀ꦕꦸ": 1044, "ꦠ꧀ꦕ꧀": 1045, "ꦩ꧀ꦥꦺꦴꦂ": 1046, "ꦢ꧀ꦭ": 1047, "ꦱ꧀ꦱꦸ": 1048, "ꦔ꧀ꦒꦁ": 1049, "ꦕꦺꦴꦁ": 1050, "ꦩ꧀ꦩꦼ": 1051, "ꦫꦺꦴꦂ": 1052, "ꦤ꧀ꦛ": 1053, "ꦥ꦳꧀ꦏ": 1054, "ꦭ꧀ꦱꦺꦴ": 1055, "ꦮ꧀ꦫꦼ": 1056, "ꦯꦂ": 1057, "ꦒ꧀ꦩ": 1058, "ꦤ꧀ꦕꦺꦴꦁ": 1059, "ꦧꦴ": 1060, "ꦭ꧀ꦪꦺꦴ": 1061, "ꦭ꧀ꦭꦂ": 1062, "ꦠꦺꦁ": 1063, "ꦩ꧀ꦩꦺꦴ": 1064, "ꦭ꧀ꦢꦸ": 1065, "ꦔꦺꦴꦂ": 1066, "ꦔꦻ": 1067, "ꦧ꧀ꦱ꧀ꦠ꧀": 1068, "ꦩ꧀ꦱ": 1069, "ꦏ꧀ꦮꦺ": 1070, "ꦕꦻꦂ": 1071, "ꦠ꧀ꦱ": 1072, "ꦤ꧀ꦲ꧀": 1073, "ꦭ꧀ꦠꦸ": 1074, "ꦏ꧀ꦪ꧀": 1075, "ꦠ꧀ꦩꦸ": 1076, "ꦱ꧀ꦮꦂ": 1077, "ꦱ꧀ꦮꦺ": 1078, "ꦒ꧀ꦤꦺ": 1079, "ꦗꦺꦴꦁ": 1080, "ꦤ꧀ꦯꦶ": 1081, "ꦥ꧀ꦪ꧀": 1082, "ꦱ꧀ꦛ": 1083, "ꦱ꧀ꦤꦸ": 1084, "ꦒ꧀ꦏ꧀ꦱ꧀": 1085, "ꦔ꧀ꦫꦁ": 1086, "ꦚꦼꦂ": 1087, "ꦢ꧀ꦗꦶ": 1088, "ꦥ꧀ꦥꦺꦴ": 1089, "ꦩ꧀ꦩ꧀ꦪ꧀": 1090, "ꦮ꧀ꦫꦸ": 1091, "ꦤ꧀ꦤꦼꦂ": 1092, "ꦤ꧀ꦥꦁ": 1093, "ꦥ꧀ꦥꦶ": 1094, "ꦧ꧀ꦪ": 1095, "ꦭꦺꦁ": 1096, "ꦈꦹ": 1097, "ꦏ꧀ꦧ꧀": 1098, "ꦕ꧀ꦪ꧀": 1099, "ꦚ꧀ꦭ": 1100, "ꦠ꧀ꦱꦼꦂ": 1101, "ꦥ꧀ꦪ": 1102, "ꦭ꧀ꦥ꦳ꦼ": 1103, "ꦤ꧀ꦕꦸꦂ": 1104, "ꦤ꧀ꦗꦺꦴꦁ": 1105, "ꦤ꧀ꦠꦺꦁ": 1106, "ꦥ꦳꧀ꦥ꦳": 1107, "ꦱ꧀ꦥ꦳": 1108, "ꦱ꧀ꦥ꧀": 1109, "ꦏ꧀ꦱ꧀ꦤ꧀": 1110, "ꦒ꧀ꦒꦶ": 1111, "ꦕ꧀ꦫꦸ": 1112, "ꦤ꧀ꦠꦺꦴꦁ": 1113, "ꦤ꧀ꦱ꧀ꦠꦼ": 1114, "ꦤ꧀ꦕ꧀ꦪ꧀": 1115, "ꦥꦺꦂ": 1116, "ꦩ꧀ꦒ꧀": 1117, "ꦭ꧀ꦢꦶ": 1118, "ꦯꦶꦁ": 1119, "ꦏ꧀ꦏꦶ": 1120, "ꦗ꦳꧀ꦲꦸ": 1121, "ꦤ꧀ꦧꦼꦂ": 1122, "ꦤ꧀ꦲꦺꦴ": 1123, "ꦧ꧀ꦱ꧀": 1124, "ꦩ꧀ꦩꦸ": 1125, "ꦤꦺꦁ": 1126, "ꦥ꦳꧀ꦪ꧀": 1127, "ꦭ꧀ꦗ": 1128, "ꦕ꧀ꦕ꧀": 1129, "ꦤ꧀ꦛꦸ": 1130, "ꦔ꧀ꦫꦺꦴ": 1131, "ꦤ꧀ꦏꦺ": 1132, "ꦩ꧀ꦥꦂ": 1133, "ꦮꦶꦂ": 1134, "ꦒ꧀ꦥ꧀": 1135, "ꦕ꧀ꦏꦼꦂ": 1136, "ꦕ꧀ꦩ": 1137, "ꦩ꧀ꦥ꧀ꦫ": 1138, "ꦠ꧀ꦥ꦳꧀ꦠ꧀": 1139, "ꦤ꧀ꦮꦼ": 1140, "ꦭ꧀ꦏꦺ": 1141, "ꦭ꧀ꦩꦺꦴ": 1142, "ꦥꦺꦴꦁ": 1143, "ꦥ꧀ꦥꦶꦁ": 1144, "ꦧ꧀ꦧ꧀ꦕ꧀": 1145, "ꦩꦺꦂ": 1146, "ꦭ꧀ꦢꦺꦴ": 1147, "ꦭ꧀ꦥꦼ": 1148, "ꦚꦻꦂ": 1149, "ꦤ꧀ꦥ꦳ꦼꦂ": 1150, "ꦧ꧀ꦏ꧀ꦱ꧀": 1151, "ꦭ꧀ꦭꦶꦁ": 1152, "ꦗ꦳ꦃ": 1153, "ꦥ꧀ꦥ꧀": 1154, "ꦒ꧀ꦪ꧀": 1155, "ꦢ꧀ꦪꦃ": 1156, "ꦤꦺꦴꦁ": 1157, "ꦧ꧀ꦱꦼꦂ": 1158, "ꦭ꧀ꦥꦸ": 1159, "ꦠ꧀ꦠ꧀ꦭꦼ": 1160, "ꦭ꧀ꦕꦶ": 1161, "ꦯꦻ": 1162, "ꦠ꧀ꦏꦼ": 1163, "ꦥ꧀ꦱꦸ": 1164, "ꦧ꧀ꦧ꧀ꦪ꧀": 1165, "ꦪꦸꦂ": 1166, "ꦭ꧀ꦱ꧀ꦏꦶ": 1167, "ꦤ꧀ꦱ꧀ꦩꦶ": 1168, "ꦥ꧀ꦠꦺꦴꦂ": 1169, "ꦔ꧀ꦫꦺ": 1170, "ꦗ꦳ꦂ": 1171, "ꦝꦼꦁ": 1172, "ꦠ꧀ꦏꦺ": 1173, "ꦠ꧀ꦫꦻ": 1174, "ꦤ꧀ꦩꦂ": 1175, "ꦥ꧀ꦥꦼꦂ": 1176, "ꦱꦺꦂ": 1177, "ꦢ꧀ꦢ꧀ꦪ꧀": 1178, "ꦤ꧀ꦠꦸꦂ": 1179, "ꦥ꧀ꦏꦶ": 1180, "ꦮꦺꦃ": 1181, "ꦱ꧀ꦏ꧀ꦪ꧀": 1182, "ꦒ꦳ꦶ": 1183, "ꦧ꧀ꦱꦶ": 1184, "ꦩ꧀ꦥ꧀ꦫꦼ": 1185, "ꦮ꧀ꦲꦺꦴ": 1186, "ꦒ꧀ꦩꦺ": 1187, "ꦔ꧀ꦭꦁ": 1188, "ꦩꦴꦃ": 1189, "ꦭ꧀ꦫꦶ": 1190, "ꦱꦻꦁ": 1191, "ꦱ꧀ꦠꦶꦁ": 1192, "ꦗ꦳꧀ꦲ": 1193, "ꦗ꦳꧀ꦲꦁ": 1194, "ꦥ꦳ꦻ": 1195, "ꦱ꧀ꦱꦂ": 1196, "ꦗꦺꦴꦂ": 1197, "ꦩ꧀ꦠ": 1198, "ꦩ꧀ꦱꦸ": 1199, "ꦱ꧀ꦭꦸ": 1200, "꧄": 1201, "ꦆꦃ": 1202, "ꦒ꧀ꦒꦺꦴ": 1203, "ꦚꦸꦂ": 1204, "ꦠ꧀ꦮ": 1205, "ꦤ꧀ꦝꦸꦃ": 1206, "ꦥ꧀ꦠꦴ": 1207, "ꦩ꧀ꦭꦸ": 1208, "ꦭ꧀ꦢ": 1209, "ꦯ꧀ꦱ꧀ꦠꦼ": 1210, "ꦱ꧀ꦩꦺ": 1211, "ꦏ꧀ꦧ": 1212, "ꦚꦻ": 1213, "ꦤ꧀ꦗ꦳ꦼ": 1214, "ꦱ꧀ꦏꦂ": 1215, "ꦏ꧀ꦗꦼ": 1216, "ꦕꦶꦂ": 1217, "ꦕ꧀ꦕ": 1218, "ꦕ꧀ꦠ": 1219, "ꦚꦶꦁ": 1220, "ꦤ꧀ꦲꦶ": 1221, "ꦫ꧀ꦲꦶ": 1222, "ꦱ꧀ꦩꦻ": 1223, "ꦒ꦳ꦼ": 1224, "ꦩ꧀ꦤꦶ": 1225, "ꦩ꧀ꦫꦶꦃ": 1226, "ꦭ꧀ꦥ꧀": 1227, "ꦮ꧀ꦪ": 1228, "ꦱ꧀ꦫꦁ": 1229, "ꦛꦶꦁ": 1230, "ꦠ꧀ꦧ": 1231, "ꦭ꧀ꦠꦸꦂ": 1232, "ꦕꦸꦁ": 1233, "ꦠ꧀ꦠꦶꦁ": 1234, "ꦤ꧀ꦗ꦳ꦺꦴ": 1235, "ꦥ꦳꧀ꦏ꧀ꦱ꧀": 1236, "ꦥ꦳꧀ꦫꦸ": 1237, "ꦧ꧀ꦢ": 1238, "ꦩ꧀ꦥꦻ": 1239, "ꦱ꧀ꦧ꧀ꦤ꧀": 1240, "ꦏ꧀ꦔ꧀": 1241, "ꦠ꧀ꦠ꧀ꦪ꧀": 1242, "ꦢ꧀ꦥ꧀ꦭ꧀": 1243, "ꦤ꧀ꦏ꧀ꦠꦺꦴ": 1244, "ꦥ꦳ꦶꦁ": 1245, "ꦥꦺꦁ": 1246, "ꦧ꧀ꦢꦺꦴ": 1247, "ꦯꦼꦂ": 1248, "ꦱ꧀ꦏ꧀ꦫꦼ": 1249, "ꦱ꧀ꦭꦺ": 1250, "ꦏ꧀ꦧꦼ": 1251, "ꦐꦶꦁ": 1252, "ꦔꦼꦁ": 1253, "ꦤꦶꦃ": 1254, "ꦤ꧀ꦥ꦳꧀ꦫ": 1255, "ꦯ꧀ꦫꦶ": 1256, "ꦏ꧀ꦫꦻ": 1257, "ꦒ꧀ꦢ": 1258, "ꦕ꧀ꦢ꧀": 1259, "ꦤ꧀ꦗ꧀ꦭꦼ": 1260, "ꦥ꦳꧀ꦭꦶ": 1261, "ꦥ꧀ꦠꦼꦂ": 1262, "ꦭ꧀ꦩꦼ": 1263, "ꦮꦴ": 1264, "ꦱ꧀ꦢ": 1265, "ꦈꦃ": 1266, "ꦏ꧀ꦭꦺ": 1267, "ꦤ꧀ꦢ꧀ꦠ꧀": 1268, "ꦏ꧀ꦏꦃ": 1269, "ꦏ꧀ꦮꦼ": 1270, "ꦤ꧀ꦝꦂ": 1271, "ꦤ꧀ꦢꦺꦴꦁ": 1272, "ꦤ꧀ꦲꦼ": 1273, "ꦧ꧀ꦗ": 1274, "ꦩ꧀ꦧꦻ": 1275, "ꦱ꧀ꦱꦼꦂ": 1276, "ꦏ꧀ꦥ": 1277, "ꦏ꧀ꦭꦸꦁ": 1278, "ꦏ꧀ꦱ꧀ꦠꦶ": 1279, "ꦕ꧀ꦏꦶ": 1280, "ꦗ꧀ꦏ꧀": 1281, "ꦝ꧀": 1282, "ꦤ꧀ꦛꦺ": 1283, "ꦧ꧀ꦠ꧀": 1284, "ꦩ꧀ꦧꦺꦴꦁ": 1285, "ꦏ꧀ꦗ꧀ꦫꦺꦴ": 1286, "ꦒ꧀ꦒ": 1287, "ꦝꦶꦁ": 1288, "ꦤ꧀ꦧꦺꦴ": 1289, "ꦤ꧀ꦩꦸ": 1290, "ꦥ꦳꧀ꦪꦺ": 1291, "ꦧ꧀ꦧꦶ": 1292, "ꦩ꧀ꦩꦶ": 1293, "ꦭ꧀ꦪ꧀ꦤ꧀": 1294, "ꦏ꦳ꦼ": 1295, "ꦠ꧀ꦩꦼ": 1296, "ꦤ꧀ꦗ꧀ꦭꦺ": 1297, "ꦥꦴ": 1298, "ꦩ꧀ꦏ": 1299, "ꦪ꧀ꦪꦃ": 1300, "ꦪ꧀ꦭ": 1301, "ꦱ꧀ꦠ꧀ꦭꦼ": 1302, "ꦱ꧀ꦥꦂ": 1303, "ꦏ꧀ꦱꦴ": 1304, "ꦔ꧀ꦭꦺꦴ": 1305, "ꦲ꧀ꦪꦸ": 1306, "ꦗ꦳꧀ꦢ": 1307, "ꦛꦸꦂ": 1308, "ꦠ꧀ꦗ꦳ꦼ": 1309, "ꦤ꧀ꦥ꦳꧀ꦭ": 1310, "ꦩ꧀ꦫ꧀": 1311, "ꦭ꧀ꦧꦶ": 1312, "ꦱ꧀ꦠ꧀ꦫ꧀": 1313, "ꦏꦶꦃ": 1314, "ꦏ꧀ꦱ꧀ꦥꦺ": 1315, "ꦗ꧀ꦏ꧀ꦠ꧀": 1316, "ꦢ꧀ꦠ꧀": 1317, "ꦩ꧀ꦤꦼ": 1318, "ꦩ꧀ꦧꦺꦴꦂ": 1319, "ꦩ꧀ꦧ꧀ꦫꦸ": 1320, "ꦭ꧀ꦧꦺꦴ": 1321, "ꦗ꦳꧀ꦲꦺꦴ": 1322, "ꦗꦺꦁ": 1323, "ꦢ꧀ꦢ": 1324, "ꦱ꧀ꦩꦸ": 1325, "ꦢ꧀ꦥ꦳꧀ꦢ꧀": 1326, "ꦤ꧀ꦢꦼꦁ": 1327, "ꦭ꧀ꦪ꧀ꦩ꧀": 1328, "ꦮꦺꦂ": 1329, "ꦢꦺꦂ": 1330, "ꦢ꧀ꦗꦸ": 1331, "ꦥ꦳꧀ꦠ꧀ꦥ꦳꧀": 1332, "ꦌꦂ": 1333, "ꦔꦺꦁ": 1334, "ꦠ꧀ꦠ꧀ꦱ꧀": 1335, "ꦠ꧀ꦭꦺꦴ": 1336, "ꦤ꧀ꦢ꧀ꦮꦶ": 1337, "ꦩ꧀ꦭꦼꦁ": 1338, "ꦫꦺꦃ": 1339, "ꦭ꧀ꦲꦼ": 1340, "ꦠ꧀ꦱꦺꦴ": 1341, "ꦤ꧀ꦱꦻ": 1342, "ꦤ꧀ꦱ꧀ꦏ꧀": 1343, "ꦮ꧀ꦫꦶ": 1344, "ꦱ꧀ꦫꦸ": 1345, "ꦱ꧀ꦱꦺꦴꦂ": 1346, "ꦕ꧀ꦫ꧀ꦪ꧀": 1347, "ꦤ꧀ꦛꦁ": 1348, "ꦤ꧀ꦥ꧀ꦫ": 1349, "ꦥ꧀ꦏ꧀ꦱ꧀": 1350, "ꦩ꧀ꦢ꧀": 1351, "ꦱꦺꦁ": 1352, "ꦕ꧀ꦠꦼ": 1353, "ꦕ꧀ꦱ꧀ꦱꦺꦴ": 1354, "ꦗ꦳꧀ꦗ꦳꧀": 1355, "ꦗ꧀ꦏ꧀ꦱ꧀": 1356, "ꦗ꧀ꦫꦶ": 1357, "ꦢ꦳ꦶ": 1358, "ꦤ꧀ꦱ꧀ꦠꦼꦂ": 1359, "ꦧ꧀ꦭꦁ": 1360, "ꦧ꧀ꦱꦺꦴ": 1361, "ꦱ꧀ꦫ꧀": 1362, "ꦱ꧀ꦯ꧀": 1363, "ꦲ꧀ꦪ꧀ꦢ꧀": 1364, "ꦠ꧀ꦏ꧀": 1365, "ꦠ꧀ꦫꦃ": 1366, "ꦢꦼꦁ": 1367, "ꦢ꧀ꦕ꧀": 1368, "ꦢ꧀ꦩ": 1369, "ꦤ꧀ꦏ꧀ꦪ꧀": 1370, "ꦤ꧀ꦭꦸ": 1371, "ꦧ꧀ꦥ꧀": 1372, "ꦩ꧀ꦥ꧀ꦫ꧀": 1373, "ꦩ꧀ꦧ꧀": 1374, "ꦭ꧀ꦕꦺꦴ": 1375, "ꦤ꧀ꦏ꧀ꦱꦺꦴ": 1376, "ꦤ꧀ꦢ꧀ꦫꦸꦁ": 1377, "ꦤ꧀ꦤꦶꦁ": 1378, "ꦤ꧀ꦥꦺꦴ": 1379, "ꦧ꧀ꦤ꧀": 1380, "ꦭ꧀ꦠ꧀ꦫ": 1381, "ꦱ꧀ꦧꦺꦴ": 1382, "ꦏ꧀ꦩꦸꦂ": 1383, "ꦏ꧀ꦮꦃ": 1384, "ꦔ꧀ꦒꦶꦃ": 1385, "ꦠ꧀ꦤꦼ": 1386, "ꦥ꧀ꦥ꧀ꦭꦼ": 1387, "ꦧ꧀ꦫꦺ": 1388, "ꦫ꧀ꦲꦺꦴ": 1389, "ꦮꦼꦃ": 1390, "ꦒ꧀ꦤ꧀": 1391, "ꦒ꧀ꦪꦼ": 1392, "ꦕ꧀ꦕꦺꦴ": 1393, "ꦠ꧀ꦭꦸ": 1394, "ꦤ꧀ꦢꦺꦴꦂ": 1395, "ꦤ꧀ꦩꦶ": 1396, "ꦤ꧀ꦱ꧀ꦥ꦳ꦺꦴꦂ": 1397, "ꦩ꧀ꦪ": 1398, "ꦫ꧀ꦏ꧀ꦱ꧀": 1399, "ꦭ꧀ꦮ": 1400, "ꦤ꧀ꦠꦺꦂ": 1401, "ꦤ꧀ꦥꦺ": 1402, "ꦤ꧀ꦥ꧀ꦫꦺꦴ": 1403, "ꦤ꧀ꦱꦺꦂ": 1404, "ꦥ꦳꧀ꦥ꦳ꦺꦴꦂ": 1405, "ꦪ꧀ꦭꦼ": 1406, "ꦏ꧀ꦠ꧀ꦫꦸ": 1407, "ꦛ꧀ꦫꦼ": 1408, "ꦝꦼꦂ": 1409, "ꦢ꦳꧀": 1410, "ꦤ꧀ꦕꦃ": 1411, "ꦤ꧀ꦠ꧀ꦫ꧀": 1412, "ꦤ꧀ꦥꦼꦂ": 1413, "ꦤ꧀ꦮꦂ": 1414, "ꦥꦶꦃ": 1415, "ꦭ꧀ꦥ꦳ꦼꦂ": 1416, "ꦭ꧀ꦥ꦳꧀ꦫꦼ": 1417, "ꦮ꧀ꦏ꧀ꦱ꧀": 1418, "ꦯꦁ": 1419, "ꦒ꧀ꦩ꧀": 1420, "ꦗ꦳ꦺ": 1421, "ꦪ꧀ꦭꦺꦴꦂ": 1422, "ꦲꦸꦁ": 1423, "ꦏ꧀ꦥꦶ": 1424, "ꦏ꧀ꦱ꧀ꦠꦼꦂ": 1425, "ꦔ꧀ꦕ꧀": 1426, "ꦕ꧀ꦠꦼꦂ": 1427, "ꦕ꧀ꦫ꧀ꦗ꧀": 1428, "ꦠ꧀ꦭꦺ": 1429, "ꦢ꧀ꦭꦸ": 1430, "ꦤ꧀ꦤꦃ": 1431, "ꦥ꦳꧀ꦠ": 1432, "ꦥ꧀ꦏꦺ": 1433, "ꦥ꧀ꦥ꧀ꦪ꧀": 1434, "ꦩꦺꦁ": 1435, "ꦩ꧀ꦱ꧀ꦠꦼꦂ": 1436, "ꦫꦷ": 1437, "ꦫ꧀ꦕ꧀ꦠꦶ": 1438, "ꦭꦺꦴꦃ": 1439, "ꦭ꧀ꦠꦼ": 1440, "ꦮ꧀ꦠꦺꦴ": 1441, "ꦲ꧀ꦪꦼ": 1442, "ꦗ꧀ꦫ": 1443, "ꦗ꧀ꦫ꧀": 1444, "ꦚꦃ": 1445, "ꦢ꧀ꦭꦼ": 1446, "ꦩꦶꦃ": 1447, "ꦫ꧀ꦠ꧀": 1448, "ꦱ꧀ꦥ꦳ꦺꦂ": 1449, "ꦏ꧀ꦱ꧀ꦩ": 1450, "ꦕ꧀ꦕꦼ": 1451, "ꦗ꦳ꦻꦂ": 1452, "ꦢ꧀ꦏꦶ": 1453, "ꦥ꦳꧀ꦱꦶ": 1454, "ꦥ꧀ꦒ꧀": 1455, "ꦥ꧀ꦥꦸ": 1456, "ꦥ꧀ꦪ꧀ꦠ": 1457, "ꦭ꧀ꦒꦺꦴ": 1458, "ꦏ꦳꧀ꦭ": 1459, "ꦏ꧀ꦧꦺꦴ": 1460, "ꦕ꧀ꦐꦸ": 1461, "ꦗ꦳꧀ꦏ꧀ꦪ꧀": 1462, "ꦠ꧀ꦠꦸ": 1463, "ꦢ꧀ꦫ꧀ꦱ꧀": 1464, "ꦤ꧀ꦠꦸꦃ": 1465, "ꦥ꧀ꦭꦺ": 1466, "ꦧ꧀ꦏ": 1467, "ꦧ꧀ꦥ꧀ꦱ꧀": 1468, "ꦩꦺꦴꦃ": 1469, "ꦩ꧀ꦒ꧀ꦫ꧀": 1470, "ꦫ꧀ꦲꦼ": 1471, "ꦭ꧀ꦲꦶ": 1472, "ꦱ꧀ꦕ꧀ꦫꦼ": 1473, "ꦏ꧀ꦗ": 1474, "ꦔ꧀ꦭꦼꦁ": 1475, "ꦕ꧀ꦏ꧀ꦱꦺꦴ": 1476, "ꦥ꧀ꦱꦼ": 1477, "ꦫ꧀ꦤ": 1478, "ꦭ꧀ꦤ꧀": 1479, "ꦯ꧀ꦢ꧀ꦤꦼ": 1480, "ꦱ꧀ꦧ": 1481, "ꦠ꧀ꦧꦃ": 1482, "ꦢ꧀ꦏ꧀ꦱ꧀": 1483, "ꦤ꧀ꦏ꧀ꦭꦶ": 1484, "ꦤ꧀ꦥ꦳ꦶꦂ": 1485, "ꦥ꦳꧀ꦥ꦳꧀ꦭꦼ": 1486, "ꦧ꧀ꦱ꧀ꦥꦼ": 1487, "ꦩ꧀ꦲ꧀": 1488, "ꦫꦼꦃ": 1489, "ꦱ꧀ꦮ꧀": 1490, "ꦲꦼꦃ": 1491, "ꦏ꧀ꦏꦺꦴ": 1492, "ꦏ꧀ꦩꦶ": 1493, "ꦒ꧀ꦒ꧀ꦪ꧀": 1494, "ꦕ꧀ꦱ꧀ꦕ꧀": 1495, "ꦗ꦳꧀ꦏ꧀ꦱ꧀": 1496, "ꦛ꧀ꦫꦺꦴ": 1497, "ꦠ꧀ꦚ": 1498, "ꦢ꧀ꦝꦶ": 1499, "ꦤ꧀ꦐꦸ": 1500, "ꦥ꦳ꦸꦂ": 1501, "ꦧ꧀ꦧꦼ": 1502, "ꦩ꧀ꦥ꦳ꦺꦴ": 1503, "ꦩ꧀ꦥ꧀ꦭ": 1504, "ꦮ꧀ꦲꦼ": 1505, "ꦱ꧀ꦥ꧀ꦭ": 1506, "ꦒ꧀ꦏ": 1507, "ꦠ꧀ꦪ꧀ꦭꦼꦂ": 1508, "ꦢꦶꦃ": 1509, "ꦤ꧀ꦫꦺꦴ": 1510, "ꦥ꧀ꦏꦼ": 1511, "ꦧ꧀ꦏꦼ": 1512, "ꦧ꧀ꦧ꧀": 1513, "ꦩ꧀ꦥ꦳ꦶ": 1514, "ꦫꦻꦃ": 1515, "ꦮ꧀ꦤꦶ": 1516, "ꦯꦻꦂ": 1517, "ꦏ꧀ꦱ꧀ꦠꦼ": 1518, "ꦒ꦳ꦺꦴ": 1519, "ꦒ꧀ꦒꦼ": 1520, "ꦔꦺꦴꦁ": 1521, "ꦕ꧀ꦤꦺꦴ": 1522, "ꦕ꧀ꦤ꧀": 1523, "ꦠ꧀ꦗ": 1524, "ꦢ꧀ꦥ꦳ꦼ": 1525, "ꦢ꧀ꦭꦶ": 1526, "ꦤ꧀ꦏꦂ": 1527, "ꦥ꦳꧀ꦥ꦳ꦺꦴ": 1528, "ꦧ꧀ꦢꦸꦂ": 1529, "ꦭ꧀ꦩꦂ": 1530, "ꦱ꧀ꦠꦸꦂ": 1531, "꧇": 1532, "ꦐꦺꦴ": 1533, "ꦒ꧀ꦒ꧀": 1534, "ꦗꦺꦂ": 1535, "ꦠ꧀ꦥ꧀": 1536, "ꦤ꧀ꦱ꧀ꦥ": 1537, "ꦥ꦳꧀ꦠ꧀ꦮ": 1538, "ꦩ꧀ꦕ": 1539, "ꦩ꧀ꦥ꧀ꦭꦸꦁ": 1540, "ꦩ꧀ꦪꦼ": 1541, "ꦩ꧀ꦭꦺꦴ": 1542, "ꦪ꧀ꦧꦺꦴ": 1543, "ꦭ꧀ꦕ": 1544, "ꦭ꧀ꦩ꧀ꦱ꧀": 1545, "ꦮ꧀ꦮꦼ": 1546, "ꦱ꧀ꦛꦺ": 1547, "ꦏ꧀ꦢꦼ": 1548, "ꦒꦺꦁ": 1549, "ꦕ꧀ꦠ꧀ꦫꦺꦴ": 1550, "ꦠ꧀ꦫꦼꦁ": 1551, "ꦤ꧀ꦗ꧀ꦭ": 1552, "ꦤ꧀ꦥ꦳ꦸ": 1553, "ꦤ꧀ꦲꦸ": 1554, "ꦥ꧀ꦢꦶ": 1555, "ꦫ꧀ꦪ": 1556, "ꦭ꧀ꦥ꦳ꦺꦴ": 1557, "ꦭ꧀ꦩꦺ": 1558, "ꦱꦺꦴꦃ": 1559, "ꦠ꧀ꦗꦺꦴ": 1560, "ꦢ꧀ꦢ꧀ꦭꦼ": 1561, "ꦤ꧀ꦗꦻ": 1562, "ꦤ꧀ꦠ꧀ꦪ": 1563, "ꦥ꧀ꦱꦶꦂ": 1564, "ꦧ꧀ꦱ꧀ꦠ": 1565, "ꦩ꧀ꦱꦺꦴ": 1566, "ꦪ꧀ꦩ": 1567, "ꦱ꧀ꦥ꦳ꦺꦴ": 1568, "ꦒ꦳ꦸꦂ": 1569, "ꦕ꧀ꦏ꦳": 1570, "ꦛꦁ": 1571, "ꦝꦶꦃ": 1572, "ꦠ꧀ꦒ": 1573, "ꦤ꧀ꦥ꦳ꦺꦴ": 1574, "ꦧꦺꦁ": 1575, "ꦧ꧀ꦠ꧀ꦫꦺꦴ": 1576, "ꦩ꧀ꦢ": 1577, "ꦪ꧀ꦕꦼ": 1578, "ꦪ꧀ꦤ꧀": 1579, "ꦏ꧀ꦏꦸ": 1580, "ꦏ꧀ꦚ": 1581, "ꦏ꧀ꦱ꧀ꦠꦸ": 1582, "ꦕ꧀ꦤꦶ": 1583, "ꦤ꧀ꦛꦶꦁ": 1584, "ꦤ꧀ꦱꦶꦁ": 1585, "ꦤ꧀ꦱ꧀ꦭ": 1586, "ꦥ꦳ꦻꦂ": 1587, "ꦥ꦳꧀ꦒ": 1588, "ꦥ꧀ꦤꦼ": 1589, "ꦩ꧀ꦫꦶꦁ": 1590, "ꦭ꧀ꦠꦂ": 1591, "ꦱ꧀ꦤ꧀": 1592, "ꦲ꧀ꦮ": 1593, "ꦏ꧀ꦥꦸ": 1594, "ꦔ꧀ꦭꦺ": 1595, "ꦕ꧀ꦕꦸ": 1596, "ꦗ꦳꧀ꦪ꧀": 1597, "ꦗ꦳꧀ꦲꦼꦁ": 1598, "ꦠ꧀ꦫ꧀": 1599, "ꦤ꧀ꦝꦸꦂ": 1600, "ꦤ꧀ꦢꦶꦂ": 1601, "ꦤ꧀ꦯꦃ": 1602, "ꦧ꧀ꦭꦺ": 1603, "ꦩ꧀ꦏꦼ": 1604, "ꦩ꧀ꦤ꧀": 1605, "ꦩ꧀ꦫꦸ": 1606, "ꦱ꧀ꦠ꧀ꦪ": 1607, "ꦱ꧀ꦠ꧀ꦱ꧀": 1608, "ꦱ꧀ꦢꦼ": 1609, "ꦱ꧀ꦥ꧀ꦪ꧀": 1610, "ꦱ꧀ꦩꦂ": 1611, "ꦱ꧀ꦩ꧀ꦏ꧀": 1612, "ꦲ꧀ꦭ꧀ꦩ꧀": 1613, "ꦃ": 1614, "ꦒ꧀ꦫꦃ": 1615, "ꦠ꧀ꦮꦼ": 1616, "ꦤ꧀ꦮꦸ": 1617, "ꦧ꧀ꦫ꧀ꦏ꧀": 1618, "ꦩ꧀ꦭ꧀": 1619, "ꦫ꧀ꦮ꧀": 1620, "ꦱ꧀ꦢꦶ": 1621, "ꦱ꧀ꦧꦸꦂ": 1622, "ꦏ꧀ꦱ꧀ꦥ": 1623, "ꦒꦺꦂ": 1624, "ꦒ꧀ꦪ꧀ꦩ꧀": 1625, "ꦗ꧀ꦫꦶꦃ": 1626, "ꦠꦺꦴꦃ": 1627, "ꦠ꧀ꦗꦼ": 1628, "ꦢ꧀ꦢꦼ": 1629, "ꦢ꧀ꦱꦺꦴ": 1630, "ꦤ꧀ꦝꦺꦴꦁ": 1631, "ꦤ꧀ꦱꦁ": 1632, "ꦥ꦳꧀ꦩ꧀": 1633, "ꦥ꧀ꦩ꧀": 1634, "ꦩ꧀ꦥ꧀ꦫꦶ": 1635, "ꦩ꧀ꦪ꧀ꦕꦺꦴ": 1636, "ꦭ꧀ꦒꦼ": 1637, "ꦭ꧀ꦢꦶꦁ": 1638, "ꦭ꧀ꦪ꧀ꦢꦶ": 1639, "ꦱ꧀ꦧꦶ": 1640, "ꦱ꧀ꦮꦺꦴ": 1641, "ꦒ꧀ꦤꦸ": 1642, "ꦕ꧀ꦏ꧀ꦭꦼ": 1643, "ꦗ꧀ꦫꦃ": 1644, "ꦚꦺꦴꦁ": 1645, "ꦠ꧀ꦪ꧀ꦥꦼ": 1646, "ꦠ꧀ꦱ꧀ꦕꦼ": 1647, "ꦤ꧀ꦛ꧀": 1648, "ꦤ꧀ꦫꦸ": 1649, "ꦩ꧀ꦧꦶꦂ": 1650, "ꦩ꧀ꦪꦺꦴ": 1651, "ꦭ꧀ꦤ": 1652, "ꦏ꧀ꦮꦺꦴ": 1653, "ꦏ꧀ꦱ꧀ꦮ꧀": 1654, "ꦒ꧀ꦒꦼꦂ": 1655, "ꦕ꧀ꦪ꧀ꦤ꧀": 1656, "ꦗ꦳꧀ꦗ꦳ꦺꦴ": 1657, "ꦗ꦳꧀ꦩꦸꦂ": 1658, "ꦛ꧀ꦫꦶ": 1659, "ꦝꦸꦂ": 1660, "ꦠ꧀ꦗꦶ": 1661, "ꦠ꧀ꦧ꧀": 1662, "ꦠ꧀ꦪ꧀ꦠꦺꦴ": 1663, "ꦤ꧀ꦕ꧀ꦠ꧀": 1664, "ꦤ꧀ꦝꦺꦂ": 1665, "ꦤ꧀ꦥꦶꦂ": 1666, "ꦩ꧀ꦲ": 1667, "ꦪ꧀ꦤꦼ": 1668, "ꦪ꧀ꦧ": 1669, "ꦱ꧀ꦕ꧀ꦭꦼ": 1670, "ꦲ꧀ꦥ꧀": 1671, "꧉": 1672, "ꦒ꧀ꦥ꦳": 1673, "ꦕ꧀ꦭꦂ": 1674, "ꦛ꧀ꦪ꧀": 1675, "ꦠ꧀ꦕꦼ": 1676, "ꦠ꧀ꦤꦼꦂ": 1677, "ꦠ꧀ꦩꦶ": 1678, "ꦤ꧀ꦤꦸ": 1679, "ꦥ꧀ꦱ꧀ꦱꦶ": 1680, "ꦩ꧀ꦥꦺꦁ": 1681, "ꦩ꧀ꦥꦺꦴꦁ": 1682, "ꦩ꧀ꦥ꧀ꦠꦺꦴ": 1683, "ꦩ꧀ꦥ꧀ꦭꦺꦴ": 1684, "ꦩ꧀ꦧ꧀ꦭꦺꦴ": 1685, "ꦭ꧀ꦠꦻ": 1686, "ꦭ꧀ꦲꦺꦴ": 1687, "ꦱ꧀ꦥ꦳ꦺꦴꦂ": 1688, "ꦱ꧀ꦥ꧀ꦧꦼꦂ": 1689, "ꦱ꧀ꦭ꧀": 1690, "ꦲꦶꦃ": 1691, "ꦏ꧀ꦝꦸ": 1692, "ꦒ꦳ꦸ": 1693, "ꦒ꧀ꦱ꧀": 1694, "ꦕꦴ": 1695, "ꦕ꧀ꦥ꦳꧀": 1696, "ꦗ꦳꧀ꦲꦼ": 1697, "ꦠ꧀ꦥꦸ": 1698, "ꦠ꧀ꦫ꧀ꦪ꧀": 1699, "ꦤ꧀ꦕꦺꦴꦂ": 1700, "ꦥ꦳꧀ꦭ꧀ꦪ꧀": 1701, "ꦥ꦳꧀ꦱꦸ": 1702, "ꦥ꧀ꦧ꧀": 1703, "ꦥ꧀ꦭꦼꦂ": 1704, "ꦫ꧀ꦪꦸ": 1705, "ꦭ꧀ꦕ꧀ꦏꦼ": 1706, "ꦭ꧀ꦛ꧀": 1707, "ꦮ꧀ꦕ": 1708, "ꦮ꧀ꦤꦼꦂ": 1709, "ꦮ꧀ꦭꦼ": 1710, "ꦱ꧀ꦛꦼ": 1711, "ꦏ꧀ꦗ꧀": 1712, "ꦒ꧀ꦪ꧀ꦥ꧀": 1713, "ꦕ꧀ꦏꦺꦴ": 1714, "ꦕ꧀ꦭꦻ": 1715, "ꦠ꧀ꦫꦴ": 1716, "ꦢ꧀ꦗꦂ": 1717, "ꦤ꧀ꦱꦼꦁ": 1718, "ꦥ꧀ꦏ": 1719, "ꦧ꧀ꦤꦶ": 1720, "ꦮ꧀ꦭ": 1721, "ꦯꦺꦴꦂ": 1722, "ꦱ꧀ꦕ꧀ꦫꦺꦴ": 1723, "ꦲ꧀ꦏ꧀ꦱ꧀": 1724, "ꦲ꧀ꦪ꧀ꦥꦺꦴ": 1725, "ꦏ꧀ꦧꦂ": 1726, "ꦏ꧀ꦮ꧀": 1727, "ꦗꦸꦃ": 1728, "ꦠ꧀ꦤ꧀": 1729, "ꦢ꧀ꦗ꧀": 1730, "ꦢ꧀ꦤꦼ": 1731, "ꦤ꧀ꦕꦺꦂ": 1732, "ꦤ꧀ꦗ꦳ꦻ": 1733, "ꦤ꧀ꦢꦴ": 1734, "ꦤ꧀ꦩꦺꦴ": 1735, "ꦤ꧀ꦩ꧀": 1736, "ꦥ꧀ꦫꦃ": 1737, "ꦩ꧀ꦚ": 1738, "ꦩ꧀ꦲꦺꦴ": 1739, "ꦭ꧀ꦭ꧀ꦧꦺꦴ": 1740, "ꦱ꧀ꦏꦼꦂ": 1741, "ꦐꦶꦃ": 1742, "ꦔ꧀ꦫꦼꦁ": 1743, "ꦢ꧀ꦩꦺꦴ": 1744, "ꦤ꧀ꦔ꧀": 1745, "ꦤ꧀ꦢꦸꦃ": 1746, "ꦤ꧀ꦤ꧀ꦯ꧀": 1747, "ꦥ꦳꧀ꦱ꧀": 1748, "ꦥ꧀ꦱ": 1749, "ꦩ꧀ꦕꦶ": 1750, "ꦩ꧀ꦥ꦳": 1751, "ꦩ꧀ꦥ꧀ꦭꦸ": 1752, "ꦩ꧀ꦧ꧀ꦪꦺꦴꦁ": 1753, "ꦪꦼꦁ": 1754, "ꦭ꧀ꦢ꧀ꦱ꧀": 1755, "ꦱ꧀ꦕ꧀ꦫꦶ": 1756, "ꦱ꧀ꦩ꧀ꦱ꧀": 1757, "ꦱ꧀ꦫꦃ": 1758, "ꦱ꧀ꦮ꧀ꦠ꧀": 1759, "ꦱ꧀ꦱꦶꦁ": 1760, "ꦏ꧀ꦏ꧀": 1761, "ꦔ꧀ꦮ": 1762, "ꦕ꧀ꦏ": 1763, "ꦕ꧀ꦠ꧀ꦫꦶ": 1764, "ꦗ꧀ꦤ꧀": 1765, "ꦠ꧀ꦛꦼ": 1766, "ꦠ꧀ꦥꦶ": 1767, "ꦢ꦳": 1768, "ꦤ꧀ꦢꦺꦂ": 1769, "ꦥ꦳꧀ꦱ꧀ꦏ꧀": 1770, "ꦥ꧀ꦢ꧀": 1771, "ꦥ꧀ꦪ꧀ꦱꦶ": 1772, "ꦧ꧀ꦒ꧀": 1773, "ꦧ꧀ꦠꦶ": 1774, "ꦧ꧀ꦱꦼ": 1775, "ꦩ꧀ꦠ꧀ꦥ꦳꧀": 1776, "ꦮ꧀ꦱ꧀ꦏꦶ": 1777, "ꦯ꧀ꦤ": 1778, "ꦱ꧀ꦥ꦳ꦸꦁ": 1779, "ꦏ꧀ꦧꦸ": 1780, "ꦏ꧀ꦱꦺꦴꦂ": 1781, "ꦒ꧀ꦫꦺꦴꦁ": 1782, "ꦔ꧀ꦪ": 1783, "ꦕ꧀ꦗ꦳꧀": 1784, "ꦗꦶꦃ": 1785, "ꦠ꧀ꦕꦶ": 1786, "ꦢ꧀ꦢ꧀": 1787, "ꦤ꧀ꦠꦺꦴꦃ": 1788, "ꦥ꦳꧀ꦒ꦳": 1789, "ꦥ꧀ꦤꦺꦴ": 1790, "ꦧ꧀ꦪꦺꦴ": 1791, "ꦧ꧀ꦪ꧀ꦯꦶ": 1792, "ꦩ꧀ꦕ꧀ꦭ": 1793, "ꦩ꧀ꦭꦺ": 1794, "ꦪ꧀ꦪ": 1795, "ꦪ꧀ꦪꦶ": 1796, "ꦫ꧀ꦥ꧀ꦩ꧀": 1797, "ꦫ꧀ꦪꦼ": 1798, "ꦭ꧀ꦏꦂ": 1799, "ꦭ꧀ꦫꦺꦴ": 1800, "ꦮ꧀ꦪ꧀": 1801, "ꦱ꧀ꦥ꧀ꦫꦶ": 1802, "ꦱ꧀ꦧ꧀ꦪ꧀": 1803, "ꦏ꦳ꦻ": 1804, "ꦏ꧀ꦢꦶꦂ": 1805, "ꦏ꧀ꦭ꧀ꦪ꧀": 1806, "ꦐꦃ": 1807, "ꦒ꧀ꦫꦻ": 1808, "ꦗ꦳ꦶꦂ": 1809, "ꦗ꧀ꦭꦺ": 1810, "ꦝꦸꦃ": 1811, "ꦢ꦳ꦸ": 1812, "ꦢ꧀ꦭ꧀ꦪ꧀": 1813, "ꦤ꧀ꦏ꧀ꦫꦶ": 1814, "ꦤ꧀ꦕ꧀ꦏ꧀": 1815, "ꦤ꧀ꦠꦶꦂ": 1816, "ꦤ꧀ꦢ꧀ꦫꦺ": 1817, "ꦤ꧀ꦱ꧀ꦕ꧀": 1818, "ꦥ꦳꧀ꦫ꧀": 1819, "ꦥ꧀ꦫꦸꦁ": 1820, "ꦥ꧀ꦭꦻ": 1821, "ꦧꦺꦴꦃ": 1822, "ꦧ꧀ꦕ꧀": 1823, "ꦧ꧀ꦧ꧀ꦭꦼ": 1824, "ꦩ꧀ꦕ꧀": 1825, "ꦩ꧀ꦮ": 1826, "ꦫ꧀ꦭꦶ": 1827, "ꦫ꧀ꦱ꧀": 1828, "ꦱ꧀ꦥ꧀ꦫꦶꦁ": 1829, "ꦲ꧀ꦪꦺꦴ": 1830, "ꦗ꦳꧀ꦲꦂ": 1831, "ꦝ꧀ꦪ": 1832, "ꦠ꧀ꦮꦺꦴ": 1833, "ꦠ꧀ꦮꦺꦴꦂ": 1834, "ꦢ꧀ꦥ꦳꧀ꦧ꧀": 1835, "ꦢ꧀ꦥ꧀ꦢ꧀": 1836, "ꦢ꧀ꦭ꧀": 1837, "ꦤ꧀ꦏꦶꦁ": 1838, "ꦤ꧀ꦢ꧀ꦫꦸ": 1839, "ꦤ꧀ꦭꦁ": 1840, "ꦥ꦳꧀ꦱꦶꦂ": 1841, "ꦧ꧀ꦠꦸ": 1842, "ꦩꦸꦃ": 1843, "ꦩ꧀ꦥ꦳ꦺꦴꦂ": 1844, "ꦩ꧀ꦧꦺꦂ": 1845, "ꦭ꧀ꦧꦼ": 1846, "ꦭ꧀ꦪ꧀ꦱ꧀": 1847, "ꦱ꧀ꦕꦺꦴꦂ": 1848, "ꦱ꧀ꦕ꧀ꦠ꧀": 1849, "ꦁ": 1850, "ꦏꦼꦁ": 1851, "ꦔ꧀ꦒꦂ": 1852, "ꦔ꧀ꦫꦻꦃ": 1853, "ꦕ꧀ꦠꦂ": 1854, "ꦕ꧀ꦪ": 1855, "ꦗ꧀ꦗ": 1856, "ꦛꦺꦴꦂ": 1857, "ꦠ꧀ꦥ꦳ꦶ": 1858, "ꦤ꧀ꦏ꧀ꦫꦼ": 1859, "ꦤ꧀ꦱ꧀ꦥ꧀": 1860, "ꦥ꧀ꦪꦼ": 1861, "ꦥ꧀ꦪ꧀ꦭ꧀": 1862, "ꦧ꧀ꦭꦺꦴꦁ": 1863, "ꦩ꧀ꦧ꧀ꦭꦺ": 1864, "ꦪꦺꦴꦃ": 1865, "ꦭ꧀ꦥ꧀ꦱ꧀": 1866, "ꦮ꧀ꦤꦼ": 1867, "ꦱ꧀ꦠꦻ": 1868, "ꦱ꧀ꦠ꧀ꦫꦴ": 1869, "ꦱ꧀ꦥꦸ": 1870, "ꦱ꧀ꦥ꧀ꦥ꧀": 1871, "ꦲ꧀ꦧ꧀": 1872, "ꦏ꧀ꦫꦶꦁ": 1873, "ꦒ꧀ꦤ꧀ꦩꦼ": 1874, "ꦕ꧀ꦪ꧀ꦥ꧀": 1875, "ꦠ꧀ꦏꦺꦴ": 1876, "ꦠ꧀ꦠꦂ": 1877, "ꦠ꧀ꦪꦺꦴ": 1878, "ꦤ꧀ꦠꦴ": 1879, "ꦤ꧀ꦥꦸꦁ": 1880, "ꦤ꧀ꦫꦺ": 1881, "ꦤ꧀ꦲ꧀ꦪꦁ": 1882, "ꦥ꦳ꦴ": 1883, "ꦥ꧀ꦥ꧀ꦥ꧀": 1884, "ꦥ꧀ꦪꦂ": 1885, "ꦩ꧀ꦏꦺ": 1886, "ꦩ꧀ꦧ꧀ꦭꦁ": 1887, "ꦩ꧀ꦪ꧀ꦱ꧀": 1888, "ꦭ꧀ꦕꦼ": 1889, "ꦭ꧀ꦮꦶ": 1890, "ꦱꦷ": 1891, "ꦱꦼꦃ": 1892, "ꦲ꧀ꦠ꧀ꦩ꧀": 1893, "ꦏ꦳꧀ꦠ": 1894, "ꦏ꧀ꦱ꧀ꦗ": 1895, "ꦒ꧀ꦩꦶ": 1896, "ꦒ꧀ꦪꦸ": 1897, "ꦕ꧀ꦏꦶꦁ": 1898, "ꦕ꧀ꦪ꧀ꦕ꧀": 1899, "ꦕ꧀ꦭ꧀": 1900, "ꦛꦺꦴꦁ": 1901, "ꦠ꧀ꦏꦶ": 1902, "ꦠ꧀ꦱꦂ": 1903, "ꦢ꧀ꦗꦃ": 1904, "ꦤꦷ": 1905, "ꦤ꧀ꦭꦺꦴ": 1906, "ꦥꦷ": 1907, "ꦥ꧀ꦕ꧀": 1908, "ꦧ꧀ꦧꦺꦴ": 1909, "ꦧ꧀ꦧꦼꦂ": 1910, "ꦧ꧀ꦱ": 1911, "ꦩ꧀ꦒ꧀ꦩ꧀": 1912, "ꦩ꧀ꦕꦼ": 1913, "ꦩ꧀ꦠ꧀ꦱ꧀": 1914, "ꦩ꧀ꦥ꧀ꦫꦺ": 1915, "ꦩ꧀ꦥ꧀ꦱꦺꦴ": 1916, "ꦩ꧀ꦥ꧀ꦱ꧀": 1917, "ꦩ꧀ꦧꦼꦁ": 1918, "ꦪꦶꦁ": 1919, "ꦪ꧀ꦏ꧀ꦱ꧀": 1920, "ꦭ꧀ꦢ꧀ꦠ꧀": 1921, "ꦭ꧀ꦯ꧀": 1922, "ꦱ꧀ꦧ꧀ꦫꦺꦴ": 1923, "ꦲ꧀ꦗ꧀": 1924, "ꦲ꧀ꦧ꧀ꦱ꧀": 1925, "ꦏ꧀ꦏ꧀ꦪ꧀": 1926, "ꦏ꧀ꦢꦶ": 1927, "ꦏ꧀ꦯꦶ": 1928, "ꦒꦼꦃ": 1929, "ꦔꦴ": 1930, "ꦕ꧀ꦱꦼ": 1931, "ꦕ꧀ꦱ꧀ꦠ꧀": 1932, "ꦛ꧀ꦭꦼ": 1933, "ꦠꦷ": 1934, "ꦠ꧀ꦱꦼ": 1935, "ꦢ꧀ꦥ꦳": 1936, "ꦢ꧀ꦥ꧀": 1937, "ꦢ꧀ꦩꦼ": 1938, "ꦤ꧀ꦏ꧀ꦥ꦳ꦸꦂ": 1939, "ꦤ꧀ꦩꦶꦁ": 1940, "ꦤ꧀ꦱ꧀ꦏꦶ": 1941, "ꦥ꦳꧀ꦥ꦳꧀ꦫꦼ": 1942, "ꦥ꧀ꦥꦺꦴꦂ": 1943, "ꦧ꧀ꦤꦺꦴꦂ": 1944, "ꦩ꧀ꦕ꧀ꦢꦺꦴ": 1945, "ꦩ꧀ꦗ꦳ꦃ": 1946, "ꦭ꧀ꦒꦸ": 1947, "ꦭ꧀ꦕ꧀ꦢ꧀": 1948, "ꦭ꧀ꦲ꧀": 1949, "ꦯꦶꦂ": 1950, "ꦯ꧀ꦩ": 1951, "ꦱ꧀ꦗ꦳ꦼ": 1952, "ꦱ꧀ꦚ": 1953, "ꦱ꧀ꦠ꧀ꦫꦶꦁ": 1954, "ꦱ꧀ꦥ꦳꧀": 1955, "ꦏ꦳꧀ꦫꦶ": 1956, "ꦏ꧀ꦫ꧀ꦪ": 1957, "ꦐ꧀ꦱ": 1958, "ꦕ꧀ꦏꦂ": 1959, "ꦕ꧀ꦗ꦳ꦼ": 1960, "ꦕ꧀ꦪ꧀ꦧꦼꦂ": 1961, "ꦕ꧀ꦫ꧀": 1962, "ꦗ꧀ꦭ": 1963, "ꦚꦶꦂ": 1964, "ꦛ꧀ꦏ꧀ꦱ꧀": 1965, "ꦠ꧀ꦗ꦳ꦼꦂ": 1966, "ꦠ꧀ꦱ꧀ꦏ꧀": 1967, "ꦠ꧀ꦱ꧀ꦕ꧀": 1968, "ꦠ꧀ꦱ꧀ꦥꦺꦴ": 1969, "ꦠ꧀ꦱ꧀ꦩ": 1970, "ꦢꦼꦃ": 1971, "ꦢ꧀ꦪ꧀ꦤ": 1972, "ꦢ꧀ꦭꦼꦂ": 1973, "ꦤ꧀ꦏ꧀ꦭ": 1974, "ꦤ꧀ꦠ꧀ꦫꦸ": 1975, "ꦤ꧀ꦱ꧀ꦏ": 1976, "ꦤ꧀ꦱ꧀ꦭꦶ": 1977, "ꦤ꧀ꦲꦂ": 1978, "ꦥ꦳꧀ꦭꦺ": 1979, "ꦥ꦳꧀ꦭ꧀ꦪꦶꦁ": 1980, "ꦥ꧀ꦤ꧀ꦱ꧀": 1981, "ꦥ꧀ꦩꦼ": 1982, "ꦥ꧀ꦫ꧀": 1983, "ꦧ꧀ꦱ꧀ꦠꦶ": 1984, "ꦧ꧀ꦱ꧀ꦠꦼꦂ": 1985, "ꦩ꧀ꦢꦼ": 1986, "ꦩ꧀ꦥꦺꦂ": 1987, "ꦩ꧀ꦥ꧀ꦭꦂ": 1988, "ꦩ꧀ꦪ꧀ꦕꦼ": 1989, "ꦫꦹ": 1990, "ꦫꦺꦂ": 1991, "ꦭꦴꦂ": 1992, "ꦭ꧀ꦏꦼꦂ": 1993, "ꦭ꧀ꦕ꧀": 1994, "ꦮ꧀ꦭ꧀": 1995, "ꦱ꧀ꦗ꦳꧀": 1996, "ꦱ꧀ꦥ꦳ꦶ": 1997, "ꦱ꧀ꦥ꦳ꦼ": 1998, "ꦏ꧀ꦤꦸ": 1999, "ꦏ꧀ꦩꦺꦴ": 2000, "ꦏ꧀ꦱ꧀ꦭ꧀": 2001, "ꦒ꧀ꦫꦶꦁ": 2002, "ꦒ꧀ꦮ": 2003, "ꦕ꧀ꦫꦻ": 2004, "ꦗ꦳꧀ꦗ꦳ꦶ": 2005, "ꦗ꧀ꦗꦃ": 2006, "ꦗ꧀ꦗꦶ": 2007, "ꦠ꧀ꦪ꧀ꦫ": 2008, "ꦢ꧀ꦥ꦳ꦶ": 2009, "ꦢ꧀ꦫꦺ": 2010, "ꦢ꧀ꦫꦻ": 2011, "ꦤ꧀ꦕ꧀ꦫ": 2012, "ꦥ꦳ꦼꦁ": 2013, "ꦥ꦳꧀ꦫꦺ": 2014, "ꦥ꧀ꦢ꧀ꦧ꧀": 2015, "ꦥ꧀ꦱꦺꦴ": 2016, "ꦩ꧀ꦠꦼ": 2017, "ꦩ꧀ꦥ꦳ꦼ": 2018, "ꦩ꧀ꦭ꧀ꦱ꧀": 2019, "ꦩ꧀ꦯꦶ": 2020, "ꦪ꧀ꦩꦺꦴ": 2021, "ꦪ꧀ꦭꦶ": 2022, "ꦪ꧀ꦭ꧀": 2023, "ꦮꦷ": 2024, "ꦯꦷ": 2025, "ꦱ꧀ꦏ꧀ꦮ": 2026, "ꦲꦺꦂ": 2027, "ꦏ꧀ꦒꦸ": 2028, "ꦏ꧀ꦤ꧀": 2029, "ꦏ꧀ꦧꦶ": 2030, "ꦏ꧀ꦫ꧀": 2031, "ꦏ꧀ꦱ꧀ꦭꦼ": 2032, "ꦒ꦳꧀ꦠꦼꦂ": 2033, "ꦔꦶꦂ": 2034, "ꦕ꧀ꦛ꧀ꦪꦺꦴ": 2035, "ꦗ꦳꧀ꦧꦸ": 2036, "ꦗ꧀ꦭꦼ": 2037, "ꦚꦸꦁ": 2038, "ꦢ꧀ꦤꦶ": 2039, "ꦤ꧀ꦧꦺ": 2040, "ꦤ꧀ꦱ꧀ꦏꦼꦂ": 2041, "ꦤ꧀ꦱ꧀ꦒꦺ": 2042, "ꦥ꦳꧀ꦥ꦳ꦼꦂ": 2043, "ꦥ꦳꧀ꦭ꧀": 2044, "ꦥ꧀ꦢ": 2045, "ꦥ꧀ꦭꦁ": 2046, "ꦩ꧀ꦱꦼ": 2047, "ꦪ꧀ꦪꦸ": 2048, "ꦫ꧀ꦫꦶ": 2049, "ꦭꦷ": 2050, "ꦭ꧀ꦧ꧀": 2051, "ꦮ꧀ꦠ": 2052, "ꦮ꧀ꦭꦶꦁ": 2053, "ꦱꦺꦃ": 2054, "ꦱ꧀ꦕ꧀ꦏ꧀": 2055, "ꦱ꧀ꦠ꧀ꦏ꧀": 2056, "ꦱ꧀ꦠ꧀ꦩ": 2057, "ꦱ꧀ꦧꦺꦴꦂ": 2058, "ꦱ꧀ꦧ꧀ꦱ꧀": 2059, "ꦱ꧀ꦫꦺꦴ": 2060, "ꦄꦴꦁ": 2061, "ꦏ꦳꧀ꦩꦼꦂ": 2062, "ꦏ꧀ꦥꦼ": 2063, "ꦏ꧀ꦱ꧀ꦥꦺꦴ": 2064, "ꦒ꦳꧀ꦠ꧀ꦱ꧀": 2065, "ꦒ꧀ꦫ꧀": 2066, "ꦔ꧀ꦒ꧀ꦭ": 2067, "ꦕ꧀ꦠ꧀ꦱ꧀": 2068, "ꦛꦼꦁ": 2069, "ꦠ꧀ꦥ꦳꧀ꦫꦶ": 2070, "ꦢ꧀ꦥꦸ": 2071, "ꦤ꧀ꦕꦶꦂ": 2072, "ꦤ꧀ꦢ꧀ꦭꦼꦂ": 2073, "ꦤ꧀ꦤꦻ": 2074, "ꦤ꧀ꦯ꧀": 2075, "ꦫ꧀ꦮ": 2076, "ꦭ꧀ꦗ꦳": 2077, "ꦭ꧀ꦫꦼ": 2078, "ꦭ꧀ꦮꦼ": 2079, "ꦮ꧀ꦮ": 2080, "ꦯ꧀ꦏꦼ": 2081, "ꦱ꧀ꦏ꧀ꦱꦺꦴ": 2082, "ꦱ꧀ꦒꦺꦴ": 2083, "ꦱ꧀ꦕꦼꦂ": 2084, "ꦱ꧀ꦗ꦳꧀ꦕ꧀": 2085, "ꦏꦺꦂ": 2086, "ꦏ꧀ꦕꦼ": 2087, "ꦏ꧀ꦗꦶ": 2088, "ꦏ꧀ꦭ꧀": 2089, "ꦏ꧀ꦱ꧀ꦢ꧀": 2090, "ꦒ꦳ꦻ": 2091, "ꦒ꧀ꦧ": 2092, "ꦕ꧀ꦏ꧀ꦧꦼꦂ": 2093, "ꦕ꧀ꦠ꧀ꦫꦼ": 2094, "ꦗ꧀ꦪ꧀ꦥ꧀": 2095, "ꦠ꧀ꦕ": 2096, "ꦠ꧀ꦧꦺꦴ": 2097, "ꦠ꧀ꦧ꧀ꦏ꧀": 2098, "ꦠ꧀ꦱꦶꦂ": 2099, "ꦢ꧀ꦢꦶꦁ": 2100, "ꦢ꧀ꦧ": 2101, "ꦤ꧀ꦗ꧀ꦭꦶ": 2102, "ꦤ꧀ꦛꦼꦂ": 2103, "ꦤ꧀ꦛ꧀ꦫꦺꦴ": 2104, "ꦤ꧀ꦠ꧀ꦏ꧀": 2105, "ꦤ꧀ꦱ꧀ꦥꦼ": 2106, "ꦤ꧀ꦱ꧀ꦧꦸꦂ": 2107, "ꦥ꦳꧀ꦗ꧀": 2108, "ꦥꦿ": 2109, "ꦧ꧀ꦏꦂ": 2110, "ꦧ꧀ꦢꦼ": 2111, "ꦧ꧀ꦢ꧀": 2112, "ꦧ꧀ꦪꦂ": 2113, "ꦩ꧀ꦧ꧀ꦫꦼ": 2114, "ꦩ꧀ꦧ꧀ꦭꦸꦁ": 2115, "ꦩ꧀ꦩꦂ": 2116, "ꦭ꧀ꦏ꧀ꦩꦼ": 2117, "ꦭ꧀ꦧꦸꦂ": 2118, "ꦭ꧀ꦪꦸ": 2119, "ꦮ꧀ꦫꦺꦴ": 2120, "ꦱꦁꦃ": 2121, "ꦱ꧀ꦗ꦳꧀ꦏ꧀": 2122, "ꦱ꧀ꦢꦺ": 2123, "ꦱ꧀ꦤꦺꦴꦂ": 2124, "ꦱ꧀ꦫꦼꦁ": 2125, "‌": 2126, "ꦏ꧀ꦏꦼꦂ": 2127, "ꦏ꧀ꦫꦺꦴꦁ": 2128, "ꦏ꧀ꦯꦺꦴ": 2129, "ꦏ꧀ꦱ꧀ꦫ꧀": 2130, "ꦏ꧀ꦱ꧀ꦱ꧀": 2131, "ꦒꦺꦴꦃ": 2132, "ꦒ꧀ꦫ꧀ꦏ꧀": 2133, "ꦒ꧀ꦮꦁ": 2134, "ꦒ꧀ꦱ": 2135, "ꦒ꧀ꦱ꧀ꦧꦼꦂ": 2136, "ꦔ꧀ꦒꦺ": 2137, "ꦔ꧀ꦒ꧀ꦫꦺꦴ": 2138, "ꦕꦶꦃ": 2139, "ꦕ꧀ꦤ": 2140, "ꦕ꧀ꦥ꦳꧀ꦕ꧀": 2141, "ꦕ꧀ꦧꦼ": 2142, "ꦕ꧀ꦧ꧀": 2143, "ꦗ꦳꧀ꦤ": 2144, "ꦗ꦳꧀ꦪ꧀ꦒꦺꦴ": 2145, "ꦠ꧀ꦠ꧀ꦒꦂ": 2146, "ꦠ꧀ꦱ꧀ꦥꦸꦂ": 2147, "ꦠ꧀ꦱ꧀ꦮ": 2148, "ꦢ꧀ꦏ": 2149, "ꦢ꧀ꦗꦼ": 2150, "ꦢ꧀ꦥ꦳ꦺꦴ": 2151, "ꦢ꧀ꦪ꧀ꦭ": 2152, "ꦤ꧀ꦔ": 2153, "ꦤ꧀ꦕ꧀ꦫꦼ": 2154, "ꦤ꧀ꦗ꧀": 2155, "ꦤ꧀ꦠ꧀ꦥ꦳꧀": 2156, "ꦤ꧀ꦥ꦳꧀": 2157, "ꦤ꧀ꦲꦶꦂ": 2158, "ꦥꦹ": 2159, "ꦥ꧀ꦗ꦳ꦶ": 2160, "ꦥ꧀ꦤ꧀": 2161, "ꦥ꧀ꦧꦸ": 2162, "ꦥ꧀ꦪ꧀ꦫꦶ": 2163, "ꦥ꧀ꦱꦷ": 2164, "ꦩ꧀ꦕ꧀ꦒ꧀": 2165, "ꦩ꧀ꦤꦺꦴ": 2166, "ꦩ꧀ꦧꦴ": 2167, "ꦩ꧀ꦭꦸꦁ": 2168, "ꦪ꧀ꦢꦼ": 2169, "ꦪ꧀ꦤꦺꦴ": 2170, "ꦫ꧀ꦩ꧀": 2171, "ꦭ꧀ꦠ꧀ꦢ꧀": 2172, "ꦭ꧀ꦤꦸ": 2173, "ꦭ꧀ꦥ꦳ꦸꦂ": 2174, "ꦭ꧀ꦩꦼꦂ": 2175, "ꦭ꧀ꦱ꧀ꦠꦺꦴ": 2176, "ꦮ꧀ꦲ": 2177, "ꦱ꧀ꦏ꧀ꦭꦼ": 2178, "ꦱ꧀ꦗ": 2179, "ꦱ꧀ꦥ꧀ꦫꦼ": 2180, "ꦱ꧀ꦥ꧀ꦭꦶ": 2181, "ꦱ꧀ꦧ꧀": 2182, "ꦲ꧀ꦮꦁ": 2183, "ꦏ꧀ꦥ꧀": 2184, "ꦏ꧀ꦩꦃ": 2185, "ꦏ꧀ꦱ꧀ꦗ꧀": 2186, "ꦐ꧀ꦫꦶ": 2187, "ꦒ꧀ꦒ꧀ꦭꦸ": 2188, "ꦔ꧀ꦲ": 2189, "ꦕ꧀ꦠ꧀ꦪ꧀": 2190, "ꦕ꧀ꦫꦺ": 2191, "ꦗ꦳꧀ꦧꦺ": 2192, "ꦗ꦳꧀ꦧꦼ": 2193, "ꦗ꦳꧀ꦩꦶ": 2194, "ꦗ꦳꧀ꦮꦶꦁ": 2195, "ꦗ꧀ꦩ": 2196, "ꦠ꧀ꦧꦼ": 2197, "ꦠ꧀ꦩꦷ": 2198, "ꦢ꧀ꦥ꦳꧀": 2199, "ꦤ꧀ꦏ꧀ꦱꦶ": 2200, "ꦤ꧀ꦕꦸꦁ": 2201, "ꦤ꧀ꦛꦃ": 2202, "ꦤ꧀ꦝꦶꦃ": 2203, "ꦤ꧀ꦢ꧀ꦫ꧀": 2204, "ꦤ꧀ꦯ": 2205, "ꦥ꦳꧀ꦪ": 2206, "ꦥ꦳꧀ꦫ꧀ꦏ꧀": 2207, "ꦥ꧀ꦏ꧀": 2208, "ꦥ꧀ꦪ꧀ꦠꦺꦴ": 2209, "ꦧ꧀ꦤꦼꦂ": 2210, "ꦧ꧀ꦪ꧀ꦗ꦳": 2211, "ꦩ꧀ꦤꦸ": 2212, "ꦩ꧀ꦥ꦳꧀": 2213, "ꦩ꧀ꦥ꧀ꦧꦼ": 2214, "ꦩ꧀ꦧ꧀ꦭꦸ": 2215, "ꦪ꧀ꦒꦼ": 2216, "ꦭ꧀ꦤꦺꦴ": 2217, "ꦭ꧀ꦧꦂ": 2218, "ꦭ꧀ꦱ꧀ꦩ꧀": 2219, "ꦯ꧀ꦕ": 2220, "ꦯ꧀ꦫꦼ": 2221, "ꦱ꧀ꦒ": 2222, "ꦱ꧀ꦕ꧀ꦩꦶ": 2223, "ꦱ꧀ꦕ꧀ꦮꦶ": 2224, "ꦲ꧀ꦕ꧀ꦭ꧀": 2225, "ꦏ꧀ꦫꦁ": 2226, "ꦐ꧀ꦮ": 2227, "ꦐ꧀ꦲ꧀": 2228, "ꦒ꧀ꦢꦼ": 2229, "ꦒ꧀ꦧ꧀": 2230, "ꦒ꧀ꦮꦂ": 2231, "ꦔ꧀ꦭꦸꦁ": 2232, "ꦕꦺꦁ": 2233, "ꦗ꦳꧀ꦲꦺꦴꦁ": 2234, "ꦚ꧀ꦭꦼ": 2235, "ꦛꦂ": 2236, "ꦛ꧀ꦒ": 2237, "ꦠꦴꦂ": 2238, "ꦢ꧀ꦕ": 2239, "ꦢ꧀ꦢꦸ": 2240, "ꦤ꧀ꦗꦺꦴꦂ": 2241, "ꦤ꧀ꦢ꧀ꦗꦶ": 2242, "ꦤ꧀ꦱ꧀ꦠꦺꦴ": 2243, "ꦥ꦳꧀ꦥ꦳꧀ꦫꦺꦴ": 2244, "ꦥ꧀ꦕ꧀ꦕ꧀": 2245, "ꦥ꧀ꦤ": 2246, "ꦥ꧀ꦤꦶ": 2247, "ꦥ꧀ꦥ꧀ꦫꦼ": 2248, "ꦥ꧀ꦪꦺꦴ": 2249, "ꦩ꧀ꦠ꧀": 2250, "ꦩ꧀ꦢ꧀ꦥ꧀": 2251, "ꦩ꧀ꦫꦁ": 2252, "ꦪ꧀ꦠꦺꦴ": 2253, "ꦪ꧀ꦢ꧀": 2254, "ꦪ꧀ꦭꦺꦴ": 2255, "ꦭ꧀ꦚ": 2256, "ꦭ꧀ꦠ꧀ꦱ꧀": 2257, "ꦭ꧀ꦢ꧀ꦮꦶ": 2258, "ꦭ꧀ꦩ꧀ꦪ꧀": 2259, "ꦭ꧀ꦭ꧀ꦭ꧀": 2260, "ꦮ꧀ꦏꦼ": 2261, "ꦮ꧀ꦫꦁ": 2262, "ꦯꦼꦃ": 2263, "ꦯ꧀ꦏ": 2264, "ꦯ꧀ꦥ꦳ꦶ": 2265, "ꦯ꧀ꦫ": 2266, "ꦯ꧀ꦱ꧀": 2267, "ꦱ꧀ꦗꦸ": 2268, "ꦱ꧀ꦠ꧀ꦩ꧀": 2269, "ꦱ꧀ꦥ꧀ꦫ": 2270, "ꦱ꧀ꦧꦼ": 2271, "ꦲ꧀ꦢ꧀": 2272, "꧅": 2273, "ꦏꦺꦁ": 2274, "ꦏ꧀ꦪ꧀ꦭꦼ": 2275, "ꦒ꦳꧀ꦢ": 2276, "ꦒ꧀ꦤꦼꦂ": 2277, "ꦒ꧀ꦪꦴ": 2278, "ꦔꦺꦂ": 2279, "ꦕ꧀ꦏ꧀ꦧꦸꦂ": 2280, "ꦕ꧀ꦭꦼꦂ": 2281, "ꦗ꦳꧀ꦲꦶ": 2282, "ꦗ꦳꧀ꦲ꧀": 2283, "ꦗ꧀ꦭꦶ": 2284, "ꦗ꧀ꦱ꧀": 2285, "ꦚ꧀ꦮ": 2286, "ꦛ꧀ꦤꦶ": 2287, "ꦠ꧀ꦏ꧀ꦫ꧀": 2288, "ꦠ꧀ꦤꦃ": 2289, "ꦠ꧀ꦥ꦳": 2290, "ꦠ꧀ꦩ꧀": 2291, "ꦠ꧀ꦫ꧀ꦏ꧀": 2292, "ꦠ꧀ꦭ꧀": 2293, "ꦢ꦳꧀ꦲ": 2294, "ꦢꦹ": 2295, "ꦢ꧀ꦚ": 2296, "ꦢ꧀ꦢꦂ": 2297, "ꦢ꧀ꦪ꧀ꦱ꧀": 2298, "ꦤ꧀ꦕ꧀ꦭꦺꦴ": 2299, "ꦤ꧀ꦠ꧀ꦗ꦳꧀": 2300, "ꦤ꧀ꦠ꧀ꦭꦶ": 2301, "ꦤ꧀ꦠ꧀ꦭꦼ": 2302, "ꦤ꧀ꦢꦶꦃ": 2303, "ꦤ꧀ꦧ꧀ꦕ꧀": 2304, "ꦥ꧀ꦭ꧀": 2305, "ꦥ꧀ꦯ꧀": 2306, "ꦧ꧀ꦥ꦳꧀": 2307, "ꦧ꧀ꦩ꧀": 2308, "ꦧ꧀ꦭꦼꦁ": 2309, "ꦧ꧀ꦮ": 2310, "ꦩ꧀ꦠꦶ": 2311, "ꦩ꧀ꦥ꧀ꦭꦺꦴꦁ": 2312, "ꦫ꧀ꦪ꧀": 2313, "ꦫ꧀ꦲ": 2314, "ꦭ꧀ꦥ꦳꧀ꦱ꧀": 2315, "ꦮ꧀ꦢꦺꦴ": 2316, "ꦮ꧀ꦱꦺꦴ": 2317, "ꦯ꧀ꦤ꧀ꦢ꧀": 2318, "ꦱ꧀ꦔ꧀": 2319, "ꦱ꧀ꦕ꧀ꦮꦂ": 2320, "ꦱ꧀ꦗ꦳": 2321, "ꦱ꧀ꦗ꦳꧀ꦪ꧀": 2322, "ꦱ꧀ꦗꦼ": 2323, "ꦱ꧀ꦠ꧀ꦩꦶ": 2324, "ꦱ꧀ꦠ꧀ꦫꦺ": 2325, "ꦱ꧀ꦠ꧀ꦫꦻ": 2326, "ꦱ꧀ꦭ꧀ꦪ꧀": 2327, "ꦱ꧀ꦱ꧀ꦕ꧀": 2328, "ꦲ꧀ꦏ꧀ꦠ꧀": 2329, "ꦲ꧀ꦱꦸ": 2330, "ꦏ꦳꧀ꦱ꧀ꦠ": 2331, "ꦏ꧀ꦔꦶ": 2332, "ꦏ꧀ꦢꦺꦴ": 2333, "ꦏ꧀ꦥ꧀ꦏ꧀": 2334, "ꦏ꧀ꦪꦸꦁ": 2335, "ꦏ꧀ꦱ꧀ꦭꦸ": 2336, "ꦒ꧀ꦠ꧀": 2337, "ꦔ꧀ꦭꦶꦁ": 2338, "ꦕꦹ": 2339, "ꦕ꧀ꦕꦼꦂ": 2340, "ꦗ꧀ꦤ": 2341, "ꦗ꧀ꦱ꧀ꦱꦼ": 2342, "ꦠ꧀ꦕꦸ": 2343, "ꦠ꧀ꦱꦸꦃ": 2344, "ꦠ꧀ꦱ꧀ꦕ": 2345, "ꦢ꧀ꦒꦼꦂ": 2346, "ꦢ꧀ꦗꦺꦴꦂ": 2347, "ꦢ꧀ꦮꦼ": 2348, "ꦤ꧀ꦝꦴ": 2349, "ꦤ꧀ꦝꦶꦂ": 2350, "ꦤ꧀ꦥ꦳ꦺꦂ": 2351, "ꦤ꧀ꦯꦺꦴ": 2352, "ꦤ꧀ꦱ꧀ꦕꦼ": 2353, "ꦤ꧀ꦱ꧀ꦥ꦳ꦸ": 2354, "ꦥ꦳꧀ꦠꦼ": 2355, "ꦥ꦳꧀ꦠꦼꦂ": 2356, "ꦥ꦳꧀ꦪꦼ": 2357, "ꦥꦺꦴꦃ": 2358, "ꦥ꧀ꦏ꧀ꦧ꧀": 2359, "ꦥ꧀ꦥ꧀ꦏꦶ": 2360, "ꦥ꧀ꦩ": 2361, "ꦥ꧀ꦩꦶ": 2362, "ꦧ꧀ꦗ꧀": 2363, "ꦧ꧀ꦠꦺꦴ": 2364, "ꦧ꧀ꦫꦂ": 2365, "ꦧ꧀ꦭꦻꦂ": 2366, "ꦩ꧀ꦧ꧀ꦪꦸꦂ": 2367, "ꦪ꧀ꦠꦶ": 2368, "ꦪ꧀ꦮ": 2369, "ꦫꦸꦂ": 2370, "ꦫ꧀ꦫ꧀ꦕ꧀": 2371, "ꦭ꧀ꦕꦸ": 2372, "ꦭ꧀ꦗ꦳꧀": 2373, "ꦭ꧀ꦪꦼ": 2374, "ꦭ꧀ꦪ꧀ꦕꦺꦴ": 2375, "ꦯ꧀ꦩꦶ": 2376, "ꦰ": 2377, "ꦱ꧀ꦒ꧀": 2378, "ꦱ꧀ꦗꦃ": 2379, "ꦱ꧀ꦭ꧀ꦠ꧀": 2380, "ꦲ꧀ꦪ": 2381, "ꦉ": 2382, "ꦏ꧀ꦠꦻ": 2383, "ꦏ꧀ꦠ꧀ꦠ꧀": 2384, "ꦏ꧀ꦤ꧀ꦏ꧀": 2385, "ꦏ꧀ꦭꦂ": 2386, "ꦏ꧀ꦮꦁ": 2387, "ꦏ꧀ꦮꦸ": 2388, "ꦐꦼ": 2389, "ꦒ꦳꧀ꦠꦶ": 2390, "ꦒ꧀ꦒꦂ": 2391, "ꦒ꧀ꦮ꧀ꦏ꧀": 2392, "ꦕ꧀ꦏ꦳ꦺꦴ": 2393, "ꦕ꧀ꦪ꧀ꦫꦶ": 2394, "ꦕ꧀ꦭ꧀ꦪ꧀": 2395, "ꦗ꦳꧀ꦢ꧀ꦫ꧀": 2396, "ꦚ꧀ꦭꦶ": 2397, "ꦠ꧀ꦒꦼ": 2398, "ꦠ꧀ꦗ꦳": 2399, "ꦠ꧀ꦱꦁ": 2400, "ꦠ꧀ꦱ꧀ꦤ": 2401, "ꦢ꧀ꦏ꧀ꦏ꧀": 2402, "ꦢ꧀ꦥ꧀ꦥ꧀": 2403, "ꦢ꧀ꦩꦸ": 2404, "ꦤ꧀ꦏꦁ": 2405, "ꦤ꧀ꦗ꧀ꦭꦺꦴ": 2406, "ꦤ꧀ꦝꦺꦴꦃ": 2407, "ꦤ꧀ꦠ꧀ꦥꦼ": 2408, "ꦤ꧀ꦢ꧀ꦩꦂ": 2409, "ꦤ꧀ꦢ꧀ꦭꦼ": 2410, "ꦤ꧀ꦥ꦳꧀ꦫꦼ": 2411, "ꦤ꧀ꦥꦸꦂ": 2412, "ꦤ꧀ꦱ꧀ꦕ": 2413, "ꦥ꧀ꦥ꦳": 2414, "ꦥ꧀ꦪ꧀ꦕꦼ": 2415, "ꦥ꧀ꦪ꧀ꦭꦺꦴ": 2416, "ꦧꦻꦂ": 2417, "ꦧ꧀ꦩꦶ": 2418, "ꦧ꧀ꦫꦻ": 2419, "ꦧ꧀ꦫ꧀ꦪ": 2420, "ꦩ꧀ꦏꦺꦴ": 2421, "ꦩ꧀ꦫ꧀ꦤ": 2422, "ꦪ꧀ꦏ꧀ꦗ": 2423, "ꦪ꧀ꦥ꦳ꦼ": 2424, "ꦭ꧀ꦪ꧀ꦤꦼ": 2425, "ꦭ꧀ꦫ": 2426, "ꦭ꧀ꦱꦶꦁ": 2427, "ꦮ꧀ꦩ": 2428, "ꦮ꧀ꦫ꧀": 2429, "ꦯꦴ": 2430, "ꦯ꧀ꦭꦼ": 2431, "ꦱ꧀ꦕ꧀ꦤꦼ": 2432, "ꦱ꧀ꦕ꧀ꦮꦼ": 2433, "ꦱ꧀ꦠꦴ": 2434, "ꦱ꧀ꦠ꧀ꦭꦶꦁ": 2435, "ꦱ꧀ꦢ꧀ꦩ꧀": 2436, "ꦱ꧀ꦧꦶꦃ": 2437, "ꦲꦺꦁ": 2438, "ꦲ꧀ꦏ꧀": 2439, "ꦲ꧀ꦪ꧀ꦥꦼꦂ": 2440, "ꦏ꦳꧀ꦫꦃ": 2441, "ꦏꦷ": 2442, "ꦏ꧀ꦝꦼ": 2443, "ꦏ꧀ꦭ꧀ꦩ꧀": 2444, "ꦏ꧀ꦱ꧀ꦠ": 2445, "ꦒ꦳꧀ꦫꦶ": 2446, "ꦒ꧀ꦚ꧀": 2447, "ꦒ꧀ꦢ꧀ꦥ꧀": 2448, "ꦒ꧀ꦥ꧀ꦱ꧀": 2449, "ꦒ꧀ꦪꦺꦴ": 2450, "ꦒ꧀ꦭ꧀": 2451, "ꦒ꧀ꦱ꧀ꦩ꧀": 2452, "ꦕ꧀ꦏ꧀ꦭꦶ": 2453, "ꦗ꦳꧀ꦗ꦳ꦸ": 2454, "ꦗ꦳꧀ꦤꦶ": 2455, "ꦗ꦳꧀ꦤꦼ": 2456, "ꦗ꦳꧀ꦭ": 2457, "ꦚ꧀ꦫ": 2458, "ꦛꦶꦂ": 2459, "ꦛ꧀ꦤꦺꦴ": 2460, "ꦝꦻ": 2461, "ꦠꦻꦂ": 2462, "ꦢ꧀ꦝꦂ": 2463, "ꦢ꧀ꦢꦃ": 2464, "ꦢ꧀ꦢꦺꦴ": 2465, "ꦢ꧀ꦢꦻ": 2466, "ꦤ꧀ꦏ꧀ꦱꦻ": 2467, "ꦤ꧀ꦔꦼ": 2468, "ꦤ꧀ꦢ꧀ꦭ": 2469, "ꦤ꧀ꦤꦻꦂ": 2470, "ꦤ꧀ꦥ꦳ꦂ": 2471, "ꦤ꧀ꦥ꦳꧀ꦭꦺꦴ": 2472, "ꦤ꧀ꦧꦁ": 2473, "ꦤ꧀ꦭꦻ": 2474, "ꦤ꧀ꦱ꧀ꦥ꦳ꦶ": 2475, "ꦥ꦳꧀ꦏꦶ": 2476, "ꦥ꦳꧀ꦒ꧀": 2477, "ꦥ꦳꧀ꦛ": 2478, "ꦥ꦳꧀ꦥ꦳꧀ꦠ꧀": 2479, "ꦥ꦳꧀ꦫ꧀ꦤ": 2480, "ꦥ꦳꧀ꦭ꧀ꦪꦼꦂ": 2481, "ꦥ꧀ꦠ꧀ꦪ꧀": 2482, "ꦥ꧀ꦠ꧀ꦱ꧀": 2483, "ꦥ꧀ꦪ꧀ꦒ꧀": 2484, "ꦥ꧀ꦪ꧀ꦕ": 2485, "ꦥ꧀ꦫ꧀ꦏ꧀": 2486, "ꦥ꧀ꦮ꧀": 2487, "ꦧ꧀ꦥ꧀ꦏ꧀": 2488, "ꦧ꧀ꦪ꧀ꦫ꧀": 2489, "ꦧ꧀ꦫ꧀": 2490, "ꦧ꧀ꦫ꧀ꦪ꧀": 2491, "ꦧ꧀ꦱꦸꦂ": 2492, "ꦧ꧀ꦱ꧀ꦢ꧀": 2493, "ꦩ꧀ꦕ꧀ꦏꦶ": 2494, "ꦩ꧀ꦪ꧀ꦫ꧀": 2495, "ꦩ꧀ꦱ꧀ꦠ꧀": 2496, "ꦪꦼꦃ": 2497, "ꦪ꧀ꦩꦂ": 2498, "ꦪ꧀ꦫꦶ": 2499, "ꦭ꧀ꦏ꧀ꦭꦺꦴꦂ": 2500, "ꦭ꧀ꦔ꧀": 2501, "ꦭ꧀ꦩ꧀ꦥ꦳": 2502, "ꦭ꧀ꦭ꧀ꦏ꧀": 2503, "ꦭ꧀ꦭ꧀ꦩ": 2504, "ꦭ꧀ꦯꦼ": 2505, "ꦯ꧀ꦏꦶ": 2506, "ꦯ꧀ꦩ꧀ꦥ꧀": 2507, "ꦱꦶꦁꦃ": 2508, "ꦱ꧀ꦏ꧀ꦏ꧀": 2509, "ꦱ꧀ꦏ꧀ꦠꦺꦴ": 2510, "ꦱ꧀ꦕ꧀ꦪ꧀": 2511, "ꦱ꧀ꦕ꧀ꦫ": 2512, "ꦱ꧀ꦠ꧀ꦩꦼ": 2513, "ꦱ꧀ꦤ꧀ꦱ꧀": 2514, "ꦱ꧀ꦫꦺ": 2515, "ꦱ꧀ꦱꦺ": 2516, "ꦱ꧀ꦱꦻ": 2517, "ꦱ꧀ꦱ꧀ꦕꦼꦂ": 2518, "ꦱ꧀ꦱ꧀ꦭꦼꦂ": 2519, "ꦲ꧀ꦪ꧀ꦧ꧀": 2520, "ꦏ꧀ꦠ꧀": 2521, "ꦏ꧀ꦥ꦳": 2522, "ꦏ꧀ꦥ꦳ꦶ": 2523, "ꦏ꧀ꦱꦂ": 2524, "ꦒ꧀ꦢꦺꦴ": 2525, "ꦒ꧀ꦧꦺꦴ": 2526, "ꦒ꧀ꦫ꧀ꦪ꧀": 2527, "ꦒ꧀ꦱ꧀ꦧꦸꦂ": 2528, "ꦕ꧀ꦩꦺꦴ": 2529, "ꦗ꦳꧀ꦠꦼ": 2530, "ꦗ꦳꧀ꦫ": 2531, "ꦗ꧀ꦠꦶ": 2532, "ꦗ꧀ꦤꦶꦁ": 2533, "ꦠ꧀ꦕ꧀ꦧ": 2534, "ꦠ꧀ꦪ꧀ꦤꦼ": 2535, "ꦠ꧀ꦱ꧀ꦠ꧀": 2536, "ꦢꦾ": 2537, "ꦢ꧀ꦢ꧀ꦫꦼ": 2538, "ꦢ꧀ꦥ꦳ꦺꦴꦂ": 2539, "ꦢ꧀ꦪꦺꦴ": 2540, "ꦢ꧀ꦭꦺꦴ": 2541, "ꦢ꧀ꦯꦶ": 2542, "ꦤꦺꦴꦃ": 2543, "ꦤ꧀ꦕꦺꦁ": 2544, "ꦤ꧀ꦕ꧀ꦭ": 2545, "ꦤ꧀ꦝ꧀ꦫ": 2546, "ꦤ꧀ꦥ꧀ꦫꦶ": 2547, "ꦤ꧀ꦫꦼꦁ": 2548, "ꦤ꧀ꦯꦸ": 2549, "ꦤ꧀ꦯꦸꦂ": 2550, "ꦥ꦳꧀ꦧ꧀": 2551, "ꦥꦻꦁ": 2552, "ꦥ꧀ꦫ꧀ꦥ꧀": 2553, "ꦥ꧀ꦭ꧀ꦪ꧀": 2554, "ꦧ꧀ꦏꦸ": 2555, "ꦧ꧀ꦏꦺ": 2556, "ꦧ꧀ꦏ꧀ꦫ꧀": 2557, "ꦧ꧀ꦒꦼ": 2558, "ꦩ꧀ꦕ꧀ꦕꦂ": 2559, "ꦩ꧀ꦗꦶ": 2560, "ꦩ꧀ꦤ꧀ꦕ꧀": 2561, "ꦩ꧀ꦥ꧀ꦪ": 2562, "ꦩ꧀ꦧ꧀ꦕ꧀": 2563, "ꦩ꧀ꦭꦼꦂ": 2564, "ꦪ꧀ꦕ꧀ꦏ꧀": 2565, "ꦪ꧀ꦤꦼꦂ": 2566, "ꦪ꧀ꦱꦼ": 2567, "ꦭ꧀ꦏ꧀ꦭꦺꦴ": 2568, "ꦭ꧀ꦠ꧀ꦪ꧀": 2569, "ꦭ꧀ꦢ꧀ꦫꦼ": 2570, "ꦭ꧀ꦲꦸ": 2571, "ꦮ꧀ꦤ꧀ꦱꦼ": 2572, "ꦮ꧀ꦥ꦳ꦶ": 2573, "ꦯ꧀ꦧ": 2574, "ꦱ꧀ꦐ꧀": 2575, "ꦱ꧀ꦒꦼ": 2576, "ꦱ꧀ꦠ꧀ꦥ꧀": 2577, "ꦱ꧀ꦥꦸꦂ": 2578, "ꦱ꧀ꦥ꧀ꦒ꧀": 2579, "ꦱ꧀ꦭ꧀ꦫ꧀": 2580, "ꦏ꧀ꦏꦻ": 2581, "ꦏ꧀ꦠ꧀ꦫ": 2582, "ꦏ꧀ꦥꦺ": 2583, "ꦏ꧀ꦥ꧀ꦠ꧀": 2584, "ꦏ꧀ꦧ꧀ꦱ꧀": 2585, "ꦏ꧀ꦫꦃ": 2586, "ꦏ꧀ꦭꦼꦂ": 2587, "ꦏ꧀ꦱꦶꦂ": 2588, "ꦏ꧀ꦱ꧀ꦏ": 2589, "ꦐ꧀ꦮꦼꦂ": 2590, "ꦒ꦳꧀ꦠꦺꦴ": 2591, "ꦒ꧀ꦒꦶꦃ": 2592, "ꦒ꧀ꦒꦸ": 2593, "ꦒ꧀ꦒ꧀ꦱ꧀": 2594, "ꦒ꧀ꦠꦶ": 2595, "ꦒ꧀ꦢ꧀": 2596, "ꦒ꧀ꦤ꧀ꦠꦶ": 2597, "ꦒ꧀ꦧ꧀ꦪ꧀": 2598, "ꦒ꧀ꦩꦻ": 2599, "ꦒ꧀ꦩ꧀ꦠ꧀": 2600, "ꦒ꧀ꦭꦺ": 2601, "ꦒ꧀ꦮꦼ": 2602, "ꦔ꧀ꦒ꧀ꦫꦼ": 2603, "ꦕꦺꦴꦃ": 2604, "ꦕ꧀ꦏ꦳ꦂ": 2605, "ꦕ꧀ꦏ꧀ꦮ": 2606, "ꦕ꧀ꦕ꧀ꦭꦼ": 2607, "ꦕ꧀ꦗ꦳꧀ꦪ꧀": 2608, "ꦕ꧀ꦤꦼ": 2609, "ꦕ꧀ꦪꦺꦴ": 2610, "ꦕ꧀ꦪ꧀ꦒ꧀": 2611, "ꦕ꧀ꦭꦺ": 2612, "ꦗ꦳ꦸꦂ": 2613, "ꦗ꦳꧀ꦕ": 2614, "ꦗ꦳꧀ꦪ꧀ꦠ꧀": 2615, "ꦗ꧀ꦤꦸ": 2616, "ꦛ꧀ꦮꦼ": 2617, "ꦝꦺꦁ": 2618, "ꦠ꧀ꦏꦸ": 2619, "ꦠ꧀ꦠ꧀ꦫ": 2620, "ꦠ꧀ꦠ꧀ꦫꦼ": 2621, "ꦠ꧀ꦧ꧀ꦕ꧀": 2622, "ꦠ꧀ꦮꦁ": 2623, "ꦢ꧀ꦢꦼꦂ": 2624, "ꦢ꧀ꦤꦺꦴꦂ": 2625, "ꦢ꧀ꦥ": 2626, "ꦢ꧀ꦱꦶ": 2627, "ꦢ꧀ꦱ꧀ꦭ꧀": 2628, "ꦤꦻꦂ": 2629, "ꦤ꧀ꦕ꧀ꦠꦶ": 2630, "ꦤ꧀ꦠ꧀ꦭꦼꦂ": 2631, "ꦤ꧀ꦢ꧀ꦱꦼ": 2632, "ꦤ꧀ꦥ꦳꧀ꦫꦺꦴ": 2633, "ꦤ꧀ꦩ꧀ꦧ꧀": 2634, "ꦤ꧀ꦩ꧀ꦪꦺꦴ": 2635, "ꦤ꧀ꦮꦁ": 2636, "ꦥ꦳꧀ꦠꦶ": 2637, "ꦥ꦳꧀ꦢꦼ": 2638, "ꦥ꦳꧀ꦤꦶ": 2639, "ꦥ꦳꧀ꦥ꦳꧀ꦧ꧀": 2640, "ꦥ꧀ꦒ꧀ꦫꦶ": 2641, "ꦥ꧀ꦕ꧀ꦫ꧀": 2642, "ꦥ꧀ꦥ꧀ꦩ": 2643, "ꦥ꧀ꦥ꧀ꦭꦶ": 2644, "ꦥ꧀ꦧ꧀ꦤ꧀": 2645, "ꦥ꧀ꦱ꧀ꦩ꧀": 2646, "ꦧ꧀ꦏ꧀ꦭ": 2647, "ꦧ꧀ꦒ": 2648, "ꦧ꧀ꦕ": 2649, "ꦧ꧀ꦤ": 2650, "ꦧ꧀ꦩ": 2651, "ꦧ꧀ꦱꦺ": 2652, "ꦧ꧀ꦱꦺꦴꦂ": 2653, "ꦩ꧀ꦏꦸ": 2654, "ꦩ꧀ꦏ꧀ꦱꦼ": 2655, "ꦩ꧀ꦢꦺꦴ": 2656, "ꦩ꧀ꦥ꧀ꦫꦸ": 2657, "ꦩ꧀ꦥ꧀ꦭꦶꦁ": 2658, "ꦩ꧀ꦥ꧀ꦯꦶ": 2659, "ꦩ꧀ꦧ꧀ꦏꦶ": 2660, "ꦩ꧀ꦩꦶꦁ": 2661, "ꦩ꧀ꦮ꧀": 2662, "ꦩ꧀ꦲ꧀ꦗ꦳꧀": 2663, "ꦪ꧀ꦤ": 2664, "ꦪ꧀ꦥ꦳꧀ꦥ꦳꧀": 2665, "ꦪ꧀ꦱꦼꦂ": 2666, "ꦫ꧀ꦲ꧀ꦪ꧀": 2667, "ꦭ꧀ꦥ꧀ꦫꦼ": 2668, "ꦭ꧀ꦧꦺꦴꦂ": 2669, "ꦭ꧀ꦪ꧀ꦕ": 2670, "ꦭ꧀ꦫ꧀": 2671, "ꦭ꧀ꦱꦂ": 2672, "ꦭ꧀ꦱ꧀ꦠꦼ": 2673, "ꦮ꧀ꦏ꧀": 2674, "ꦮ꧀ꦗꦶ": 2675, "ꦮ꧀ꦱ꧀ꦠꦺꦴ": 2676, "ꦯ꧀ꦠ꧀ꦫ": 2677, "ꦯ꧀ꦫꦺꦴ": 2678, "ꦱ꧀ꦠ꧀ꦱꦶ": 2679, "ꦱ꧀ꦢ꧀ꦤ꧀": 2680, "ꦱ꧀ꦭꦃ": 2681, "ꦲ꧀ꦧꦺꦴ": 2682, "ꦲ꧀ꦪ꧀ꦢꦼ": 2683, "ꦏꦻꦁ": 2684, "ꦏ꧀ꦏꦁ": 2685, "ꦏ꧀ꦒꦼ": 2686, "ꦏ꧀ꦗ꦳ꦶ": 2687, "ꦏ꧀ꦝꦺ": 2688, "ꦏ꧀ꦢꦺ": 2689, "ꦏ꧀ꦪꦸꦃ": 2690, "ꦏ꧀ꦫ꧀ꦪ꧀": 2691, "ꦏ꧀ꦯ": 2692, "ꦏ꧀ꦯꦼ": 2693, "ꦏ꧀ꦱ꧀ꦠꦺ": 2694, "ꦐꦴ": 2695, "ꦒ꧀ꦏꦺ": 2696, "ꦒ꧀ꦫꦁ": 2697, "ꦒ꧀ꦭ꧀ꦪ꧀": 2698, "ꦔꦶꦃ": 2699, "ꦔ꧀ꦲꦶ": 2700, "ꦔ꧀ꦲꦸ": 2701, "ꦕ꧀ꦏ꧀ꦢꦺꦴ": 2702, "ꦕ꧀ꦏ꧀ꦫ꧀": 2703, "ꦕ꧀ꦠ꧀ꦧꦺꦴ": 2704, "ꦕ꧀ꦤꦼꦂ": 2705, "ꦕ꧀ꦪ꧀ꦠꦺꦴ": 2706, "ꦕ꧀ꦪ꧀ꦠꦼ": 2707, "ꦕ꧀ꦮꦶ": 2708, "ꦗ꦳ꦺꦴꦃ": 2709, "ꦗ꦳꧀ꦏ": 2710, "ꦗ꦳꧀ꦏꦶ": 2711, "ꦗ꦳꧀ꦗ꦳ꦼ": 2712, "ꦗ꦳꧀ꦗ꦳꧀ꦭꦼ": 2713, "ꦗ꦳꧀ꦮꦶ": 2714, "ꦛ꧀ꦪ꧀ꦭ": 2715, "ꦛ꧀ꦱ꧀": 2716, "ꦝꦴ": 2717, "ꦠ꧀ꦕꦼꦂ": 2718, "ꦠ꧀ꦠ꧀ꦭꦼꦂ": 2719, "ꦠ꧀ꦢꦺꦴ": 2720, "ꦠ꧀ꦥ꦳ꦺꦴ": 2721, "ꦠ꧀ꦪ꧀ꦱꦺꦴ": 2722, "ꦢ꧀ꦤꦼꦂ": 2723, "ꦤ꧀ꦏ꦳": 2724, "ꦤ꧀ꦏꦶꦂ": 2725, "ꦤ꧀ꦏ꧀ꦭꦸ": 2726, "ꦤ꧀ꦏ꧀ꦱ": 2727, "ꦤ꧀ꦔꦺꦴ": 2728, "ꦤ꧀ꦗ꦳꧀ꦪ꧀": 2729, "ꦤ꧀ꦛ꧀ꦫ": 2730, "ꦤ꧀ꦠ꧀ꦗ": 2731, "ꦤ꧀ꦠ꧀ꦩꦼ": 2732, "ꦤ꧀ꦧꦸꦁ": 2733, "ꦤ꧀ꦩꦻ": 2734, "ꦤ꧀ꦫ꧀ꦗ꧀": 2735, "ꦤ꧀ꦭ꧀ꦪ꧀": 2736, "ꦤ꧀ꦮꦺꦴꦁ": 2737, "ꦥ꦳꧀ꦥ꦳ꦻꦂ": 2738, "ꦥ꧀ꦒ꧀ꦤ꧀": 2739, "ꦥ꧀ꦕ": 2740, "ꦥ꧀ꦪꦸ": 2741, "ꦥ꧀ꦪ꧀ꦕ꧀": 2742, "ꦥ꧀ꦭ꧀ꦠ": 2743, "ꦧ꧀ꦠ": 2744, "ꦧ꧀ꦩ꧀ꦱ꧀": 2745, "ꦧ꧀ꦪ꧀ꦠꦼ": 2746, "ꦧ꧀ꦪ꧀ꦭ꧀": 2747, "ꦧ꧀ꦮ꧀ꦥ꦳꧀": 2748, "ꦧ꧀ꦱ꧀ꦏ꧀": 2749, "ꦩ꧀ꦠ꧀ꦧ꧀": 2750, "ꦩ꧀ꦤꦺ": 2751, "ꦩ꧀ꦥ꧀ꦪꦁ": 2752, "ꦩ꧀ꦧ꧀ꦪ": 2753, "ꦩ꧀ꦧ꧀ꦭꦺꦴꦃ": 2754, "ꦩ꧀ꦪ꧀ꦫꦶ": 2755, "ꦩ꧀ꦫ꧀ꦱ꧀": 2756, "ꦩ꧀ꦱꦸꦁ": 2757, "ꦪ꧀ꦛꦶꦁ": 2758, "ꦪ꧀ꦠꦼ": 2759, "ꦪ꧀ꦠ꧀": 2760, "ꦪ꧀ꦫꦺꦴ": 2761, "ꦫ꧀ꦕ꧀ꦗ꦳꧀": 2762, "ꦭ꧀ꦏ꧀ꦪ꧀": 2763, "ꦭ꧀ꦏ꧀ꦯꦺꦴ": 2764, "ꦭ꧀ꦢ꧀ꦧꦼꦂ": 2765, "ꦭ꧀ꦤꦶ": 2766, "ꦭ꧀ꦥ꧀ꦫ": 2767, "ꦭ꧀ꦪ꧀ꦥ꧀": 2768, "ꦭ꧀ꦪ꧀ꦱꦶ": 2769, "ꦭ꧀ꦱ꧀ꦏ꧀": 2770, "ꦮꦺꦁ": 2771, "ꦮ꧀ꦕ꧀": 2772, "ꦮ꧀ꦠ꧀": 2773, "ꦮ꧀ꦥ꦳ꦺꦴ": 2774, "ꦮ꧀ꦧ": 2775, "ꦯꦸꦂ": 2776, "ꦯ꧀ꦥ꦳ꦺꦴꦂ": 2777, "ꦱ꧀ꦕ꧀ꦮ": 2778, "ꦱ꧀ꦠ꧀ꦠ꧀": 2779, "ꦱ꧀ꦠ꧀ꦤ꧀": 2780, "ꦱ꧀ꦢꦂ": 2781, "ꦱ꧀ꦤꦃ": 2782, "ꦱ꧀ꦥꦺꦂ": 2783, "ꦱ꧀ꦭꦶꦁ": 2784, "ꦱ꧀ꦯ꧀ꦫꦶ": 2785, "ꦲꦴꦂ": 2786, "ꦲ꧀ꦢ꧀ꦭ꧀": 2787, "ꦲ꧀ꦥꦻ": 2788, "ꦏ꦳ꦂ": 2789, "ꦏ꧀ꦠ꧀ꦱ꧀": 2790, "ꦏ꧀ꦥꦸꦁ": 2791, "ꦏ꧀ꦧꦶꦂ": 2792, "ꦏ꧀ꦪ꧀ꦫ꧀": 2793, "ꦏ꧀ꦫꦂ": 2794, "ꦏ꧀ꦫ꧀ꦠ꧀": 2795, "ꦏ꧀ꦮ꧀ꦫꦶ": 2796, "ꦏ꧀ꦱ꧀ꦔ꧀": 2797, "ꦐ꧀ꦪ꧀": 2798, "ꦒ꦳꧀ꦠ꧀ꦩ": 2799, "ꦒ꦳꧀ꦭ": 2800, "ꦒ꧀ꦗꦼ": 2801, "ꦒ꧀ꦩ꧀ꦧ꧀": 2802, "ꦒ꧀ꦫꦴ": 2803, "ꦒ꧀ꦭꦁ": 2804, "ꦔ꧀ꦮꦺ": 2805, "ꦕꦺꦂ": 2806, "ꦕ꧀ꦏ꧀ꦥ꦳ꦺꦴꦂ": 2807, "ꦕ꧀ꦏ꧀ꦩ": 2808, "ꦕ꧀ꦗ꧀": 2809, "ꦕ꧀ꦠꦶꦁ": 2810, "ꦕ꧀ꦤ꧀ꦤ꧀": 2811, "ꦕ꧀ꦥꦸ": 2812, "ꦕ꧀ꦧ꧀ꦤ꧀": 2813, "ꦕ꧀ꦩꦶ": 2814, "ꦕ꧀ꦪ꧀ꦫꦸ": 2815, "ꦕ꧀ꦱ": 2816, "ꦕ꧀ꦱꦶ": 2817, "ꦗ꦳ꦴꦂ": 2818, "ꦗ꦳꧀ꦠꦺ": 2819, "ꦗ꦳꧀ꦮꦂ": 2820, "ꦗꦹ": 2821, "ꦚꦸꦃ": 2822, "ꦝ꧀ꦏ꧀ꦱ꧀": 2823, "ꦠꦶꦁꦃ": 2824, "ꦠ꧀ꦤꦺ": 2825, "ꦠ꧀ꦥ": 2826, "ꦠ꧀ꦥ꦳ꦼ": 2827, "ꦠ꧀ꦩ꧀ꦭ꧀": 2828, "ꦠ꧀ꦪ꧀ꦭꦼ": 2829, "ꦠ꧀ꦯ": 2830, "ꦠ꧀ꦱ꧀ꦏꦶ": 2831, "ꦠ꧀ꦱ꧀ꦩꦺꦴ": 2832, "ꦢ꧀ꦏ꧀": 2833, "ꦢ꧀ꦧ꧀": 2834, "ꦢ꧀ꦫꦁ": 2835, "ꦢ꧀ꦮꦺꦴ": 2836, "ꦢ꧀ꦱ": 2837, "ꦤꦴꦂ": 2838, "ꦤꦻꦁ": 2839, "ꦤ꧀ꦏ꧀ꦫꦺꦴ": 2840, "ꦤ꧀ꦏ꧀ꦭꦼ": 2841, "ꦤ꧀ꦕꦻꦂ": 2842, "ꦤ꧀ꦗꦃ": 2843, "ꦤ꧀ꦗ꦳ꦁ": 2844, "ꦤ꧀ꦗ꦳꧀ꦲꦁ": 2845, "ꦤ꧀ꦝꦻ": 2846, "ꦤ꧀ꦢ꧀ꦪ": 2847, "ꦤ꧀ꦢ꧀ꦫꦶꦁ": 2848, "ꦤ꧀ꦢ꧀ꦱ": 2849, "ꦤ꧀ꦢ꧀ꦱꦺꦴꦂ": 2850, "ꦤ꧀ꦥ꧀ꦫꦼ": 2851, "ꦤ꧀ꦭꦺ": 2852, "ꦤ꧀ꦯꦂ": 2853, "ꦤ꧀ꦱ꧀ꦩꦼ": 2854, "ꦥ꦳꧀ꦠꦺꦴ": 2855, "ꦥ꦳꧀ꦲ꧀ꦩ꧀": 2856, "ꦥ꧀ꦕꦶ": 2857, "ꦥ꧀ꦠ꧀ꦠ꧀": 2858, "ꦥ꧀ꦤꦺ": 2859, "ꦥ꧀ꦥ꧀ꦱ": 2860, "ꦥ꧀ꦪ꧀ꦫꦼ": 2861, "ꦥ꧀ꦫꦻ": 2862, "ꦥ꧀ꦱ꧀ꦱ꧀": 2863, "ꦧ꧀ꦗꦺꦴ": 2864, "ꦧ꧀ꦧꦶꦁ": 2865, "ꦧ꧀ꦪꦸ": 2866, "ꦧ꧀ꦫ꧀ꦗ꦳ꦼ": 2867, "ꦧ꧀ꦱ꧀ꦧ꧀": 2868, "ꦩꦿꦶꦁ": 2869, "ꦩ꧀ꦥꦴ": 2870, "ꦩ꧀ꦥ꧀ꦥ꦳꧀": 2871, "ꦩ꧀ꦧꦺꦴꦃ": 2872, "ꦩ꧀ꦧ꧀ꦭꦶ": 2873, "ꦩ꧀ꦧ꧀ꦭꦺꦴꦁ": 2874, "ꦩ꧀ꦧ꧀ꦭ꧀": 2875, "ꦪ꧀ꦢ": 2876, "ꦪ꧀ꦱ": 2877, "ꦫ꧀ꦏ꧀": 2878, "ꦫ꧀ꦐꦸ": 2879, "ꦫ꧀ꦠ꧀ꦥ꦳꧀": 2880, "ꦭ꧀ꦐꦶ": 2881, "ꦭ꧀ꦗꦶꦂ": 2882, "ꦭ꧀ꦛ": 2883, "ꦭ꧀ꦢ꧀ꦫ": 2884, "ꦭ꧀ꦤꦼ": 2885, "ꦭ꧀ꦥ꧀ꦏ꧀": 2886, "ꦭ꧀ꦧ꧀ꦪ꧀": 2887, "ꦭ꧀ꦭꦻ": 2888, "ꦭ꧀ꦮꦸ": 2889, "ꦭ꧀ꦱ꧀ꦠꦼꦂ": 2890, "ꦭ꧀ꦱ꧀ꦠ꧀": 2891, "ꦮꦼꦃꦂ": 2892, "ꦮ꧀ꦗ꦳ꦶ": 2893, "ꦮ꧀ꦠꦶ": 2894, "ꦯꦼꦁ": 2895, "ꦯ꧀ꦠ": 2896, "ꦱꦹ": 2897, "ꦱ꧀ꦒ꧀ꦧ꧀": 2898, "ꦱ꧀ꦛꦼꦂ": 2899, "ꦱ꧀ꦠ꧀ꦥ꦳꧀": 2900, "ꦱ꧀ꦠ꧀ꦧ꧀": 2901, "ꦱ꧀ꦥ꧀ꦫꦺꦴ": 2902, "ꦱ꧀ꦫꦻ": 2903, "ꦱ꧀ꦮꦺꦴꦂ": 2904, "ꦲ꧀ꦪꦸꦁ": 2905, "ꦏ꦳꧀ꦠꦂ": 2906, "ꦏ꦳꧀ꦩ": 2907, "ꦏꦹ": 2908, "ꦏ꧀ꦕꦺꦴ": 2909, "ꦏ꧀ꦤ꧀ꦝꦸ": 2910, "ꦏ꧀ꦥꦺꦴ": 2911, "ꦏ꧀ꦭꦁ": 2912, "ꦏ꧀ꦭꦶꦁ": 2913, "ꦏ꧀ꦱ꧀ꦗ꦳ꦶ": 2914, "ꦏ꧀ꦱ꧀ꦩ꧀": 2915, "ꦏ꧀ꦱ꧀ꦫꦼ": 2916, "ꦐꦶꦂ": 2917, "ꦐ꧀ꦱ꧀": 2918, "ꦒ꦳꧀ꦠ꧀ꦪ꧀": 2919, "ꦒ꧀ꦏꦁ": 2920, "ꦒ꧀ꦢꦶ": 2921, "ꦒ꧀ꦥ꦳ꦼ": 2922, "ꦒ꧀ꦪ꧀ꦫ": 2923, "ꦒ꧀ꦮ꧀ꦪ꧀": 2924, "ꦒ꧀ꦱ꧀ꦮ": 2925, "ꦔ꧀ꦫꦶꦁ": 2926, "ꦔ꧀ꦭꦶꦂ": 2927, "ꦔ꧀ꦮꦼ": 2928, "ꦕ꧀ꦏ꧀ꦭꦼꦂ": 2929, "ꦕ꧀ꦢꦺꦴ": 2930, "ꦕ꧀ꦧ꧀ꦕ꧀": 2931, "ꦕ꧀ꦮ꧀": 2932, "ꦗ꦳꧀ꦒꦺꦴꦂ": 2933, "ꦗ꦳꧀ꦗ꦳꧀ꦪ꧀": 2934, "ꦗ꦳꧀ꦤ꧀": 2935, "ꦗ꧀ꦮ꧀": 2936, "ꦚ꧀ꦕ": 2937, "ꦚ꧀ꦭꦸ": 2938, "ꦛꦴ": 2939, "ꦝꦶꦂ": 2940, "ꦝ꧀ꦭ꧀": 2941, "ꦟ": 2942, "ꦠ꧀ꦗ꦳ꦶ": 2943, "ꦠ꧀ꦛ": 2944, "ꦠ꧀ꦠ꧀ꦥ꦳꧀": 2945, "ꦠ꧀ꦢ": 2946, "ꦠ꧀ꦤ꧀ꦥ꦳꧀": 2947, "ꦠ꧀ꦪꦸ": 2948, "ꦠ꧀ꦪ꧀ꦤ꧀": 2949, "ꦠ꧀ꦪ꧀ꦥꦸ": 2950, "ꦠ꧀ꦪ꧀ꦫ꧀": 2951, "ꦠ꧀ꦱꦸꦂ": 2952, "ꦢꦺꦃ": 2953, "ꦢ꧀ꦒ꧀ꦏꦶ": 2954, "ꦢ꧀ꦗꦁ": 2955, "ꦢ꧀ꦗꦺ": 2956, "ꦢ꧀ꦠꦶ": 2957, "ꦢ꧀ꦤ꧀": 2958, "ꦢ꧀ꦫ꧀ꦪ꧀": 2959, "ꦢ꧀ꦱꦼ": 2960, "ꦢ꧀ꦱ꧀ꦠ꧀": 2961, "ꦤ꧀ꦔ꧀ꦒ": 2962, "ꦤ꧀ꦕꦻ": 2963, "ꦤ꧀ꦕ꧀ꦠ": 2964, "ꦤ꧀ꦗ꦳꧀ꦏ꧀": 2965, "ꦤ꧀ꦠꦷ": 2966, "ꦤ꧀ꦠ꧀ꦢꦺꦴ": 2967, "ꦤ꧀ꦠ꧀ꦩ": 2968, "ꦤ꧀ꦠ꧀ꦭ": 2969, "ꦤ꧀ꦥꦴ": 2970, "ꦤ꧀ꦥ꧀ꦏ꧀": 2971, "ꦤ꧀ꦭꦃ": 2972, "ꦤ꧀ꦭꦺꦴꦁ": 2973, "ꦤ꧀ꦭ꧀": 2974, "ꦤ꧀ꦮꦃ": 2975, "ꦤ꧀ꦱꦶꦂ": 2976, "ꦤ꧀ꦲꦸꦂ": 2977, "ꦥ꦳꧀ꦢ": 2978, "ꦥ꦳꧀ꦥ꦳꧀ꦩ": 2979, "ꦥ꦳꧀ꦥ꦳꧀ꦪ꧀": 2980, "ꦥ꦳꧀ꦫ꧀ꦪ꧀": 2981, "ꦥ꦳꧀ꦭꦶꦁ": 2982, "ꦥ꦳꧀ꦮ꧀": 2983, "ꦥ꧀ꦠꦻ": 2984, "ꦥ꧀ꦥ꦳꧀ꦥ꦳ꦼꦂ": 2985, "ꦥ꧀ꦥ꧀ꦱ꧀": 2986, "ꦥ꧀ꦪ꧀ꦫ": 2987, "ꦥ꧀ꦪ꧀ꦭ": 2988, "ꦥ꧀ꦫ꧀ꦱ꧀": 2989, "ꦥ꧀ꦭ꧀ꦠ꧀": 2990, "ꦥ꧀ꦮꦶ": 2991, "ꦥ꧀ꦯ꧀ꦕꦺꦴ": 2992, "ꦥ꧀ꦯ꧀ꦕꦼ": 2993, "ꦥ꧀ꦱ꧀ꦠꦶ": 2994, "ꦧ꧀ꦝꦶ": 2995, "ꦧ꧀ꦥꦸ": 2996, "ꦧ꧀ꦥ꧀ꦥ꧀": 2997, "ꦧ꧀ꦧ꧀ꦧ꧀": 2998, "ꦧ꧀ꦩꦼ": 2999, "ꦧ꧀ꦫ꧀ꦪꦺꦴ": 3000, "ꦩꦴꦂ": 3001, "ꦩ꧀ꦒ": 3002, "ꦩ꧀ꦕꦺꦴ": 3003, "ꦩ꧀ꦕ꧀ꦕ": 3004, "ꦩ꧀ꦕ꧀ꦕ꧀": 3005, "ꦩ꧀ꦕ꧀ꦤ": 3006, "ꦩ꧀ꦗꦼ": 3007, "ꦩ꧀ꦢꦶ": 3008, "ꦩ꧀ꦥ꧀ꦏꦶ": 3009, "ꦩ꧀ꦧ꧀ꦭ": 3010, "ꦩ꧀ꦪꦸꦁ": 3011, "ꦩ꧀ꦫ꧀ꦠ꧀": 3012, "ꦩ꧀ꦱ꧀ꦏ꧀": 3013, "ꦩ꧀ꦱ꧀ꦕꦶ": 3014, "ꦪ꧀ꦤꦶ": 3015, "ꦪ꧀ꦤꦺ": 3016, "ꦪ꧀ꦥ": 3017, "ꦪ꧀ꦥ꦳ꦸ": 3018, "ꦪ꧀ꦫꦼ": 3019, "ꦫ꧀ꦒ꧀ꦧ꧀": 3020, "ꦫ꧀ꦠꦺ": 3021, "ꦫ꧀ꦱꦸ": 3022, "ꦫ꧀ꦲꦸ": 3023, "ꦭꦴꦃ": 3024, "ꦭ꧀ꦏ꧀ꦩ꧀": 3025, "ꦭ꧀ꦏ꧀ꦭ": 3026, "ꦭ꧀ꦗ꦳꧀ꦲꦼ": 3027, "ꦭ꧀ꦝꦸ": 3028, "ꦭ꧀ꦠ꧀ꦗ꦳꧀": 3029, "ꦭ꧀ꦢ꧀ꦭ꧀": 3030, "ꦭ꧀ꦥ꦳꧀ꦒꦁ": 3031, "ꦭ꧀ꦥ꦳꧀ꦥ꦳꧀": 3032, "ꦭ꧀ꦪ꧀ꦕꦼ": 3033, "ꦭ꧀ꦪ꧀ꦩꦼ": 3034, "ꦭ꧀ꦪ꧀ꦫꦶ": 3035, "ꦭ꧀ꦭꦺꦴꦂ": 3036, "ꦭ꧀ꦭꦺꦴꦃ": 3037, "ꦮꦿꦸꦃ": 3038, "ꦮ꧀ꦏꦺ": 3039, "ꦮ꧀ꦤ꧀ꦠꦺꦴ": 3040, "ꦮ꧀ꦤ꧀ꦱ꧀": 3041, "ꦮ꧀ꦤ꧀ꦲꦶ": 3042, "ꦮ꧀ꦧꦼꦂ": 3043, "ꦮ꧀ꦫ꧀ꦒ": 3044, "ꦮ꧀ꦯꦶ": 3045, "ꦮ꧀ꦱꦼꦂ": 3046, "ꦮ꧀ꦱ꧀ꦏ": 3047, "ꦮ꧀ꦱ꧀ꦠ꧀": 3048, "ꦯ꧀ꦧꦺꦴ": 3049, "ꦯ꧀ꦩꦸ": 3050, "ꦯ꧀ꦫꦸ": 3051, "ꦱ꧀ꦏ꧀ꦫꦺꦴ": 3052, "ꦱ꧀ꦕ꧀ꦭꦺꦴ": 3053, "ꦱ꧀ꦠ꧀ꦫꦺꦴꦁ": 3054, "ꦱ꧀ꦢ꧀ꦠ꧀": 3055, "ꦱ꧀ꦢ꧀ꦧ꧀": 3056, "ꦱ꧀ꦥ꦳ꦶꦂ": 3057, "ꦱ꧀ꦧꦃ": 3058, "ꦱ꧀ꦧꦸ": 3059, "ꦱ꧀ꦧꦼꦂ": 3060, "ꦱ꧀ꦱ꧀ꦠ꧀": 3061, "ꦱ꧀ꦱ꧀ꦥ꧀": 3062, "ꦲ꧀ꦩ꧀": 3063, "ꦲ꧀ꦪ꧀ꦩꦼ": 3064, "ꦲ꧀ꦫ꧀": 3065, "‍": 3066, "ꦊ": 3067, "ꦏ꦳꧀ꦪꦼ": 3068, "ꦏ꦳꧀ꦮ": 3069, "ꦏ꧀ꦒ꧀ꦥꦴ": 3070, "ꦏ꧀ꦤ꧀ꦥ꦳꧀": 3071, "ꦏ꧀ꦥꦶꦁ": 3072, "ꦏ꧀ꦩꦺ": 3073, "ꦏ꧀ꦭꦺꦁ": 3074, "ꦏ꧀ꦱꦶꦁ": 3075, "ꦐꦹ": 3076, "ꦐ꧀ꦢꦶ": 3077, "ꦒ꦳ꦂ": 3078, "ꦒ꦳ꦶꦂ": 3079, "ꦒ꦳꧀ꦱ꧀": 3080, "ꦒꦺꦃ": 3081, "ꦒ꧀ꦏ꧀ꦪꦼ": 3082, "ꦒ꧀ꦒꦶꦁ": 3083, "ꦒ꧀ꦕ꧀": 3084, "ꦒ꧀ꦥ꦳꧀ꦫꦶ": 3085, "ꦒ꧀ꦥꦶ": 3086, "ꦒ꧀ꦱꦶ": 3087, "ꦒ꧀ꦱꦺꦴ": 3088, "ꦒ꧀ꦱꦼ": 3089, "ꦔ꧀ꦒ꧀ꦭꦼ": 3090, "ꦕ꧀ꦏ꦳ꦼ": 3091, "ꦕ꧀ꦏ꧀ꦭꦺꦴ": 3092, "ꦕ꧀ꦕ꧀ꦫ꧀": 3093, "ꦕ꧀ꦗ꦳꧀ꦏ꧀": 3094, "ꦕ꧀ꦧ꧀ꦱ꧀": 3095, "ꦕ꧀ꦪꦼ": 3096, "ꦕ꧀ꦪ꧀ꦥꦼ": 3097, "ꦕ꧀ꦪ꧀ꦭꦶ": 3098, "ꦗ꦳ꦺꦴꦁ": 3099, "ꦗ꦳꧀ꦫꦼ": 3100, "ꦗ꦳꧀ꦮ": 3101, "ꦗꦻꦂ": 3102, "ꦗ꧀ꦏ꧀ꦱ": 3103, "ꦗ꧀ꦠ꧀ꦭ꧀": 3104, "ꦗ꧀ꦢꦸ": 3105, "ꦗ꧀ꦤꦶ": 3106, "ꦗ꧀ꦥꦼ": 3107, "ꦗ꧀ꦧ꧀": 3108, "ꦛ꧀ꦛ": 3109, "ꦛ꧀ꦠ": 3110, "ꦝꦺꦃ": 3111, "ꦝ꧀ꦪ꧀": 3112, "ꦠ꧀ꦏ꧀ꦱꦶ": 3113, "ꦠ꧀ꦐ꧀ꦩ꧀": 3114, "ꦠ꧀ꦒ꧀": 3115, "ꦠ꧀ꦕꦶꦁ": 3116, "ꦠ꧀ꦗꦃ": 3117, "ꦠ꧀ꦗ꦳꧀ꦱ꧀": 3118, "ꦠ꧀ꦠ꧀ꦥ꦳": 3119, "ꦠ꧀ꦧꦁ": 3120, "ꦠ꧀ꦧ꧀ꦩ꧀": 3121, "ꦠ꧀ꦫ꧀ꦤ": 3122, "ꦠ꧀ꦱꦻ": 3123, "ꦠ꧀ꦱ꧀ꦠ": 3124, "ꦢ꦳ꦼ": 3125, "ꦢ꧀ꦏꦼ": 3126, "ꦢ꧀ꦒꦶ": 3127, "ꦢ꧀ꦭꦶꦁ": 3128, "ꦢ꧀ꦭ꧀ꦤ꧀": 3129, "ꦢ꧀ꦱ꧀ꦏ꧀": 3130, "ꦤ꧀ꦏ꧀ꦏ꧀": 3131, "ꦤ꧀ꦏ꧀ꦠꦼꦂ": 3132, "ꦤ꧀ꦐ꧀ꦥ꦳ꦶ": 3133, "ꦤ꧀ꦕ꧀ꦫꦶ": 3134, "ꦤ꧀ꦕ꧀ꦭꦼ": 3135, "ꦤ꧀ꦗ꦳ꦺꦴꦁ": 3136, "ꦤ꧀ꦗ꦳꧀ꦲꦼ": 3137, "ꦤ꧀ꦛꦶꦂ": 3138, "ꦤ꧀ꦛꦸꦁ": 3139, "ꦤ꧀ꦝ꧀": 3140, "ꦤ꧀ꦠ꧀ꦪꦺꦴ": 3141, "ꦤ꧀ꦢ꧀ꦗꦂ": 3142, "ꦤ꧀ꦢ꧀ꦯꦶ": 3143, "ꦤ꧀ꦤ꧀ꦱ꧀": 3144, "ꦤ꧀ꦥꦺꦴꦂ": 3145, "ꦤ꧀ꦫ꧀": 3146, "ꦤ꧀ꦱꦺꦁ": 3147, "ꦤ꧀ꦱ꧀ꦕꦺꦴ": 3148, "ꦤ꧀ꦱ꧀ꦱꦺꦴ": 3149, "ꦥ꦳ꦁ": 3150, "ꦥ꦳꧀ꦏ꧀": 3151, "ꦥ꦳꧀ꦠꦶꦁ": 3152, "ꦥ꦳꧀ꦤ": 3153, "ꦥ꦳꧀ꦥꦶ": 3154, "ꦥ꦳꧀ꦭ꧀ꦤ꧀": 3155, "ꦥ꦳꧀ꦯ꧀": 3156, "ꦥ꦳꧀ꦲ꧀ꦱ꧀": 3157, "ꦥꦻꦂ": 3158, "ꦥ꧀ꦏ꧀ꦠ꧀": 3159, "ꦥ꧀ꦛꦺꦴ": 3160, "ꦥ꧀ꦥ꧀ꦫꦺꦴ": 3161, "ꦥ꧀ꦧ꧀ꦢ꧀": 3162, "ꦥ꧀ꦩ꧀ꦱ꧀": 3163, "ꦥ꧀ꦪꦶ": 3164, "ꦥ꧀ꦪ꧀ꦫ꧀": 3165, "ꦥ꧀ꦫ꧀ꦫꦶ": 3166, "ꦥ꧀ꦭ꧀ꦤ꧀": 3167, "ꦧ꧀ꦤ꧀ꦥ꧀": 3168, "ꦧ꧀ꦧ꧀ꦱ꧀": 3169, "ꦧ꧀ꦪ꧀ꦫꦺꦴ": 3170, "ꦧ꧀ꦭ꧀ꦢ꧀": 3171, "ꦧ꧀ꦱ꧀ꦕ꧀": 3172, "ꦧ꧀ꦱ꧀ꦤ꧀": 3173, "ꦩꦷ": 3174, "ꦩ꧀ꦒꦸ": 3175, "ꦩ꧀ꦥ꦳꧀ꦧ꧀": 3176, "ꦩ꧀ꦥ꦳꧀ꦭꦺ": 3177, "ꦩ꧀ꦥ꧀ꦢꦺꦴ": 3178, "ꦩ꧀ꦥ꧀ꦫꦺꦴꦁ": 3179, "ꦩ꧀ꦧ꧀ꦱ꧀": 3180, "ꦩ꧀ꦩꦺꦴꦂ": 3181, "ꦩ꧀ꦪꦶ": 3182, "ꦩ꧀ꦫ꧀ꦪ꧀": 3183, "ꦪ꧀ꦕ": 3184, "ꦪ꧀ꦢꦶ": 3185, "ꦪ꧀ꦢꦼꦂ": 3186, "ꦪ꧀ꦢ꧀ꦫꦺꦴ": 3187, "ꦪ꧀ꦤꦺꦴꦂ": 3188, "ꦪ꧀ꦥ꧀ꦫꦼ": 3189, "ꦪ꧀ꦩꦶ": 3190, "ꦪ꧀ꦫ꧀": 3191, "ꦫ꧀ꦏ꧀ꦭꦶ": 3192, "ꦫ꧀ꦒꦼ": 3193, "ꦫ꧀ꦠ꧀ꦠꦼ": 3194, "ꦫ꧀ꦧ꧀ꦠ꧀": 3195, "ꦫ꧀ꦩ꧀ꦱ꧀": 3196, "ꦭ꧀ꦗꦶ": 3197, "ꦭ꧀ꦗꦺꦴ": 3198, "ꦭ꧀ꦗꦼ": 3199, "ꦭ꧀ꦛ꧀ꦪ꧀": 3200, "ꦭ꧀ꦠꦺ": 3201, "ꦭ꧀ꦢꦼꦃ": 3202, "ꦭ꧀ꦥ꦳ꦺꦴꦂ": 3203, "ꦭ꧀ꦥ꦳꧀ꦪ꧀": 3204, "ꦭ꧀ꦥꦺ": 3205, "ꦭ꧀ꦥ꧀ꦤ꧀": 3206, "ꦭ꧀ꦧ꧀ꦭ": 3207, "ꦭ꧀ꦪ꧀ꦭꦼ": 3208, "ꦭ꧀ꦭ꧀ꦩꦺꦴ": 3209, "ꦭ꧀ꦲꦂ": 3210, "ꦮ꧀ꦧꦺꦴ": 3211, "ꦮ꧀ꦭꦼꦂ": 3212, "ꦮ꧀ꦱ꧀ꦠꦼꦂ": 3213, "ꦯ꧀ꦗ꦳꧀ꦪ꧀": 3214, "ꦯ꧀ꦠꦶ": 3215, "ꦯ꧀ꦠꦺꦴ": 3216, "ꦯ꧀ꦩꦼ": 3217, "ꦯ꧀ꦩ꧀ꦧꦺꦴ": 3218, "ꦯ꧀ꦫ꧀": 3219, "ꦯ꧀ꦭ꧀ꦥ꦳ꦶ": 3220, "ꦯ꧀ꦭ꧀ꦲꦼ": 3221, "ꦱ꧀ꦏ꧀ꦭꦶ": 3222, "ꦱ꧀ꦕ꧀ꦩꦼ": 3223, "ꦱ꧀ꦕ꧀ꦭ": 3224, "ꦱ꧀ꦗ꦳ꦺꦴ": 3225, "ꦱ꧀ꦠꦶꦂ": 3226, "ꦱ꧀ꦠꦻꦂ": 3227, "ꦱ꧀ꦠ꧀ꦭ": 3228, "ꦱ꧀ꦠ꧀ꦮꦺꦴ": 3229, "ꦱ꧀ꦤꦺ": 3230, "ꦱ꧀ꦤꦼꦂ": 3231, "ꦱ꧀ꦤ꧀ꦕ꧀": 3232, "ꦱ꧀ꦩꦸꦂ": 3233, "ꦱ꧀ꦭꦶꦃ": 3234, "ꦲꦷ": 3235, "ꦲ꧀ꦠ꧀": 3236, "ꦲ꧀ꦩꦶ": 3237, "ꦲ꧀ꦪ꧀ꦒꦶ": 3238, "ꦌꦃ": 3239, "ꦍꦁ": 3240, "ꦏ꦳꧀ꦠꦶ": 3241, "ꦏꦴꦂ": 3242, "ꦏꦴꦃ": 3243, "ꦏ꧀ꦔ": 3244, "ꦏ꧀ꦔꦶꦁ": 3245, "ꦏ꧀ꦕꦸ": 3246, "ꦏ꧀ꦪꦶ": 3247, "ꦏ꧀ꦱ꧀ꦕ": 3248, "ꦐꦂ": 3249, "ꦐꦺꦴꦂ": 3250, "ꦐ꧀ꦧ": 3251, "ꦒꦸꦁꦃ": 3252, "ꦒ꧀ꦏꦃ": 3253, "ꦒ꧀ꦏꦺꦴ": 3254, "ꦒ꧀ꦏꦼ": 3255, "ꦒ꧀ꦒ꧀ꦩ": 3256, "ꦒ꧀ꦥ꧀ꦭ꧀": 3257, "ꦒ꧀ꦧꦼꦂ": 3258, "ꦒ꧀ꦫꦼꦁ": 3259, "ꦔ꧀ꦏꦁ": 3260, "ꦔ꧀ꦒꦸꦁ": 3261, "ꦔ꧀ꦢ": 3262, "ꦔ꧀ꦭꦻꦂ": 3263, "ꦕ꧀ꦏꦸ": 3264, "ꦕ꧀ꦏ꧀ꦧꦺꦴ": 3265, "ꦕ꧀ꦏ꧀ꦭ": 3266, "ꦕ꧀ꦏ꧀ꦱ": 3267, "ꦕ꧀ꦏ꧀ꦱꦼ": 3268, "ꦕ꧀ꦢꦶ": 3269, "ꦕ꧀ꦪꦸ": 3270, "ꦕ꧀ꦪ꧀ꦱ꧀": 3271, "ꦕ꧀ꦫꦃ": 3272, "ꦕ꧀ꦱ꧀ꦠ": 3273, "ꦗ꦳ꦸꦃꦂ": 3274, "ꦗ꦳꧀ꦠ": 3275, "ꦗ꦳꧀ꦩ": 3276, "ꦗꦶꦂ": 3277, "ꦗ꧀ꦏꦼ": 3278, "ꦗ꧀ꦗꦸ": 3279, "ꦚꦴ": 3280, "ꦚ꧀ꦩꦶ": 3281, "ꦚ꧀ꦭ꧀": 3282, "ꦚ꧀ꦲꦶ": 3283, "ꦛꦶꦃ": 3284, "ꦛ꧀ꦕ꧀": 3285, "ꦛ꧀ꦪꦶ": 3286, "ꦛ꧀ꦪ꧀ꦭ꧀": 3287, "ꦛ꧀ꦱꦺꦴ": 3288, "ꦛ꧀ꦱ꧀ꦫ꧀": 3289, "ꦝ꧀ꦮꦼ": 3290, "ꦠꦹ": 3291, "ꦠ꧀ꦏ꧀ꦱꦺꦴ": 3292, "ꦠ꧀ꦒ꧀ꦥ꦳꧀": 3293, "ꦠ꧀ꦕ꧀ꦩ꧀": 3294, "ꦠ꧀ꦗ꦳꧀ꦒꦼ": 3295, "ꦠ꧀ꦗꦸ": 3296, "ꦠ꧀ꦢꦶ": 3297, "ꦠ꧀ꦥ꦳꧀ꦭꦶ": 3298, "ꦠ꧀ꦫ꧀ꦪ": 3299, "ꦢ꦳ꦂ": 3300, "ꦢ꧀ꦏꦸ": 3301, "ꦢ꧀ꦏ꧀ꦗ꧀": 3302, "ꦢ꧀ꦝ꧀": 3303, "ꦢ꧀ꦥꦂ": 3304, "ꦢ꧀ꦥ꧀ꦫꦼ": 3305, "ꦢ꧀ꦧꦼ": 3306, "ꦢ꧀ꦪꦼ": 3307, "ꦢ꧀ꦫ꧀ꦒ꧀": 3308, "ꦢ꧀ꦱ꧀ꦐꦸ": 3309, "ꦢ꧀ꦱ꧀ꦠꦺꦴ": 3310, "ꦤ꧀ꦏ꦳ꦶ": 3311, "ꦤ꧀ꦏꦻ": 3312, "ꦤ꧀ꦕ꧀ꦭꦺꦴꦁ": 3313, "ꦤ꧀ꦝ꧀ꦫꦶ": 3314, "ꦤ꧀ꦠ꧀ꦒꦼ": 3315, "ꦤ꧀ꦠ꧀ꦗꦼ": 3316, "ꦤ꧀ꦠ꧀ꦠ꧀": 3317, "ꦤ꧀ꦠ꧀ꦢ꧀": 3318, "ꦤ꧀ꦠ꧀ꦫꦸꦁ": 3319, "ꦤ꧀ꦢꦷ": 3320, "ꦤ꧀ꦢ꧀ꦏ꧀": 3321, "ꦤ꧀ꦢ꧀ꦗ": 3322, "ꦤ꧀ꦢ꧀ꦗꦻ": 3323, "ꦤ꧀ꦢ꧀ꦗꦼ": 3324, "ꦤ꧀ꦢ꧀ꦥ꧀": 3325, "ꦤ꧀ꦢ꧀ꦧꦺꦴ": 3326, "ꦤ꧀ꦥ꧀ꦭ": 3327, "ꦤ꧀ꦱ꧀ꦕꦶ": 3328, "ꦤ꧀ꦱ꧀ꦥꦺꦴ": 3329, "ꦤ꧀ꦱ꧀ꦧꦼꦂ": 3330, "ꦤ꧀ꦱ꧀ꦩ": 3331, "ꦤ꧀ꦱ꧀ꦱꦼ": 3332, "ꦤ꧀ꦲꦶꦁ": 3333, "ꦤ꧀ꦲ꧀ꦏ꧀": 3334, "ꦤ꧀ꦲ꧀ꦪꦸ": 3335, "ꦥ꦳꧀ꦢ꧀": 3336, "ꦥ꦳꧀ꦥ꦳ꦂ": 3337, "ꦥ꦳꧀ꦥ꦳꧀ꦱ꧀": 3338, "ꦥ꦳꧀ꦩ": 3339, "ꦥ꦳꧀ꦪꦺꦴꦂ": 3340, "ꦥ꦳꧀ꦭ꧀ꦏ꧀": 3341, "ꦥ꧀ꦏꦸ": 3342, "ꦥ꧀ꦗꦼ": 3343, "ꦥ꧀ꦥꦂ": 3344, "ꦥ꧀ꦥ꦳ꦼ": 3345, "ꦥ꧀ꦥꦺ": 3346, "ꦥ꧀ꦥ꧀ꦤ꧀": 3347, "ꦥ꧀ꦥ꧀ꦩ꧀": 3348, "ꦥ꧀ꦧ꧀ꦱꦶ": 3349, "ꦥ꧀ꦪꦺꦴꦁ": 3350, "ꦥ꧀ꦫ꧀ꦪ꧀": 3351, "ꦥ꧀ꦭꦸꦁ": 3352, "ꦥ꧀ꦭꦼꦁ": 3353, "ꦥ꧀ꦱ꧀ꦏ꧀": 3354, "ꦧꦴꦂ": 3355, "ꦧ꧀ꦕꦺꦴ": 3356, "ꦧ꧀ꦠ꧀ꦱ꧀": 3357, "ꦧ꧀ꦤ꧀ꦱ꧀": 3358, "ꦧ꧀ꦥ꧀ꦕ꧀": 3359, "ꦧ꧀ꦧ꧀ꦩ꧀": 3360, "ꦧ꧀ꦩ꧀ꦮ꧀": 3361, "ꦧ꧀ꦫꦺꦴꦁ": 3362, "ꦧ꧀ꦫ꧀ꦗ꦳꧀": 3363, "ꦧ꧀ꦭ꧀ꦕ꧀": 3364, "ꦧ꧀ꦮꦼ": 3365, "ꦩ꧀ꦏ꧀": 3366, "ꦩ꧀ꦕ꧀ꦏ": 3367, "ꦩ꧀ꦠ꧀ꦐ꧀": 3368, "ꦩ꧀ꦧ꧀ꦫꦼꦁ": 3369, "ꦩ꧀ꦩ꧀ꦱ꧀": 3370, "ꦩ꧀ꦭ꧀ꦪ꧀": 3371, "ꦩ꧀ꦮꦺꦴꦂ": 3372, "ꦩ꧀ꦱ꧀ꦕ꧀": 3373, "ꦪꦺꦃ": 3374, "ꦪ꧀ꦏꦺꦴ": 3375, "ꦪ꧀ꦕꦺꦴ": 3376, "ꦪ꧀ꦗ꦳": 3377, "ꦪ꧀ꦢ꧀ꦤ꧀": 3378, "ꦪ꧀ꦥ꦳ꦶ": 3379, "ꦪ꧀ꦧ꧀": 3380, "ꦪ꧀ꦪꦼ": 3381, "ꦪ꧀ꦱ꧀ꦠ": 3382, "ꦫ꧀ꦢꦺꦴ": 3383, "ꦫ꧀ꦢ꧀": 3384, "ꦫ꧀ꦤ꧀ꦧꦼꦂ": 3385, "ꦫ꧀ꦧ꧀": 3386, "ꦭ꧀ꦒꦂ": 3387, "ꦭ꧀ꦒ꧀ꦫꦼ": 3388, "ꦭ꧀ꦝꦺꦴ": 3389, "ꦭ꧀ꦠꦻꦂ": 3390, "ꦭ꧀ꦠ꧀ꦫꦶ": 3391, "ꦭ꧀ꦢꦺꦴꦂ": 3392, "ꦭ꧀ꦢ꧀ꦩ": 3393, "ꦭ꧀ꦤꦺ": 3394, "ꦭ꧀ꦤ꧀ꦱ꧀": 3395, "ꦭ꧀ꦪ꧀ꦠꦶ": 3396, "ꦭ꧀ꦪ꧀ꦱ": 3397, "ꦭ꧀ꦭ꧀ꦪꦸ": 3398, "ꦭ꧀ꦭ꧀ꦪꦼ": 3399, "ꦭ꧀ꦱ꧀ꦢ꧀": 3400, "ꦭ꧀ꦱ꧀ꦫꦸ": 3401, "ꦭ꧀ꦲ꧀ꦏ꧀": 3402, "ꦮ꧀ꦤꦺꦴ": 3403, "ꦮ꧀ꦤ꧀ꦭꦺꦴ": 3404, "ꦮ꧀ꦭꦼꦃ": 3405, "ꦮ꧀ꦮꦶ": 3406, "ꦮ꧀ꦮ꧀ꦮ꧀": 3407, "ꦰ꧀ꦛꦶ": 3408, "ꦱ꧀ꦒ꦳ꦂ": 3409, "ꦱ꧀ꦠꦹꦂ": 3410, "ꦱ꧀ꦠ꧀ꦪꦺꦴ": 3411, "ꦱ꧀ꦠ꧀ꦮ": 3412, "ꦱ꧀ꦡꦶ": 3413, "ꦱ꧀ꦢꦺꦴ": 3414, "ꦱ꧀ꦢꦺꦴꦂ": 3415, "ꦱ꧀ꦢ꧀ꦠꦼ": 3416, "ꦱ꧀ꦥ꧀ꦏ꧀": 3417, "ꦱ꧀ꦥ꧀ꦤ꧀": 3418, "ꦱ꧀ꦩꦴ": 3419, "ꦱ꧀ꦫ꧀ꦥ꧀": 3420, "ꦱ꧀ꦭꦼꦂ": 3421, "ꦱ꧀ꦭ꧀ꦱ꧀": 3422, "ꦱ꧀ꦮꦶꦁ": 3423, "ꦱ꧀ꦯꦸ": 3424, "ꦱ꧀ꦱ꧀ꦗ꧀": 3425, "ꦱ꧀ꦱ꧀ꦭꦼ": 3426, "ꦲꦺꦴꦃ": 3427, "ꦲꦻꦂ": 3428, "ꦲ꧀ꦤ꧀ꦥ꦳꧀": 3429, "ꦲ꧀ꦪ꧀ꦥꦼ": 3430, "ꦲ꧀ꦱꦶ": 3431, "ꦏ꦳ꦸꦂ": 3432, "ꦏ꦳ꦺꦴꦁ": 3433, "ꦏ꦳꧀ꦩꦼ": 3434, "ꦏ꦳꧀ꦫ": 3435, "ꦏ꦳꧀ꦫꦸ": 3436, "ꦏ꧀ꦏ꦳ꦸ": 3437, "ꦏ꧀ꦒ": 3438, "ꦏ꧀ꦕ꧀ꦭ꧀": 3439, "ꦏ꧀ꦗꦁ": 3440, "ꦏ꧀ꦤ꧀ꦢꦸ": 3441, "ꦏ꧀ꦧ꧀ꦧꦶ": 3442, "ꦏ꧀ꦩ꧀ꦏ꧀": 3443, "ꦏ꧀ꦩ꧀ꦧ꧀": 3444, "ꦏ꧀ꦩ꧀ꦱ꧀": 3445, "ꦏ꧀ꦫ꧀ꦏ꧀": 3446, "ꦏ꧀ꦫ꧀ꦗ꦳꧀": 3447, "ꦏ꧀ꦫ꧀ꦭ꧀": 3448, "ꦏ꧀ꦭꦼꦁ": 3449, "ꦏ꧀ꦱ꧀ꦕꦺꦴ": 3450, "ꦏ꧀ꦱ꧀ꦛꦼ": 3451, "ꦏ꧀ꦱ꧀ꦢ": 3452, "ꦏ꧀ꦱ꧀ꦥ꦳꧀": 3453, "ꦏ꧀ꦱ꧀ꦧꦼꦂ": 3454, "ꦏ꧀ꦱ꧀ꦮ": 3455, "ꦏ꧀ꦱ꧀ꦲ꧀": 3456, "ꦐꦺꦴꦃ": 3457, "ꦐ꧀ꦩ": 3458, "ꦐ꧀ꦭ": 3459, "ꦒ꦳꧀ꦠꦼ": 3460, "ꦒ꦳꧀ꦫ": 3461, "ꦒ꦳꧀ꦭꦶ": 3462, "ꦒ꦳꧀ꦮ": 3463, "ꦒꦷ": 3464, "ꦒ꧀ꦔ꧀ꦒꦺꦴ": 3465, "ꦒ꧀ꦠ꧀ꦥ꧀": 3466, "ꦒ꧀ꦢꦺ": 3467, "ꦒ꧀ꦧꦶ": 3468, "ꦒ꧀ꦩꦺꦴ": 3469, "ꦒ꧀ꦮꦺꦴꦂ": 3470, "ꦒ꧀ꦮ꧀": 3471, "ꦓꦸ": 3472, "ꦔ꧀ꦏ꧀ꦭꦻ": 3473, "ꦔ꧀ꦮꦶ": 3474, "ꦕ꧀ꦏ꧀ꦒ": 3475, "ꦕ꧀ꦒꦶ": 3476, "ꦕ꧀ꦕ꧀ꦠ꧀": 3477, "ꦕ꧀ꦗ꦳": 3478, "ꦕ꧀ꦗ꦳꧀ꦤꦺꦴ": 3479, "ꦕ꧀ꦢ꧀ꦩ": 3480, "ꦕ꧀ꦮ": 3481, "ꦕ꧀ꦱꦺꦴ": 3482, "ꦕ꧀ꦱ꧀ꦱ꧀": 3483, "ꦗ꦳ꦹꦂ": 3484, "ꦗ꦳ꦺꦴꦂ": 3485, "ꦗ꦳꧀ꦐꦸ": 3486, "ꦗ꦳꧀ꦗ": 3487, "ꦗ꦳꧀ꦗ꦳ꦃ": 3488, "ꦗ꦳꧀ꦥ꦳ꦼ": 3489, "ꦗ꦳꧀ꦩꦶꦂ": 3490, "ꦗ꦳꧀ꦪ꧀ꦤ": 3491, "ꦗ꦳꧀ꦪ꧀ꦤ꧀": 3492, "ꦗ꦳꧀ꦲꦶꦂ": 3493, "ꦗꦷꦁ": 3494, "ꦗ꧀ꦗ꧀": 3495, "ꦗ꧀ꦠ": 3496, "ꦗ꧀ꦢꦃ": 3497, "ꦗ꧀ꦥ꦳ꦺꦴ": 3498, "ꦗ꧀ꦮ": 3499, "ꦚꦺꦁ": 3500, "ꦚ꧀ꦕꦶ": 3501, "ꦚ꧀ꦩꦼ": 3502, "ꦛ꧀ꦪ꧀ꦱ꧀": 3503, "ꦛ꧀ꦫ": 3504, "ꦠꦹꦂ": 3505, "ꦠ꧀ꦕ꧀ꦥ꧀": 3506, "ꦠ꧀ꦗ꦳꧀ꦩ": 3507, "ꦠ꧀ꦠꦸꦂ": 3508, "ꦠ꧀ꦠ꧀ꦒꦼ": 3509, "ꦠ꧀ꦠ꧀ꦫꦶ": 3510, "ꦠ꧀ꦠ꧀ꦭꦶ": 3511, "ꦠ꧀ꦢ꧀": 3512, "ꦠ꧀ꦧꦸꦂ": 3513, "ꦠ꧀ꦩ꧀ꦥ꧀": 3514, "ꦠ꧀ꦪ꧀ꦥ꦳꧀": 3515, "ꦠ꧀ꦪ꧀ꦩꦺꦴ": 3516, "ꦠ꧀ꦪ꧀ꦫꦺꦴ": 3517, "ꦠ꧀ꦫꦁ": 3518, "ꦠ꧀ꦮꦂ": 3519, "ꦠ꧀ꦱꦶꦁ": 3520, "ꦠ꧀ꦱ꧀ꦧ꧀": 3521, "ꦠ꧀ꦱ꧀ꦱ꧀": 3522, "ꦢꦻꦂ": 3523, "ꦢ꧀ꦒꦂ": 3524, "ꦢ꧀ꦤꦶꦁ": 3525, "ꦢ꧀ꦧꦺꦴ": 3526, "ꦢ꧀ꦩ꧀": 3527, "ꦢ꧀ꦩ꧀ꦒ꧀": 3528, "ꦢ꧀ꦭ꧀ꦭ꧀": 3529, "ꦢ꧀ꦱ꧀ꦧ꧀": 3530, "ꦢ꧀ꦱ꧀ꦩ꧀": 3531, "ꦤꦹ": 3532, "ꦤ꧀ꦏꦸꦂ": 3533, "ꦤ꧀ꦏ꧀ꦫꦺ": 3534, "ꦤ꧀ꦕ꧀ꦭꦁ": 3535, "ꦤ꧀ꦕ꧀ꦱ꧀": 3536, "ꦤ꧀ꦗꦴ": 3537, "ꦤ꧀ꦝꦺꦴꦂ": 3538, "ꦤ꧀ꦠ꧀ꦧ꧀": 3539, "ꦤ꧀ꦠ꧀ꦮꦼꦂ": 3540, "ꦤ꧀ꦢ꧀ꦫꦺꦴꦁ": 3541, "ꦤ꧀ꦢ꧀ꦮ": 3542, "ꦤ꧀ꦤꦺꦴꦁ": 3543, "ꦤ꧀ꦥ꧀": 3544, "ꦤ꧀ꦧ꧀ꦫꦺꦴ": 3545, "ꦤ꧀ꦩꦁ": 3546, "ꦤ꧀ꦫꦻꦃ": 3547, "ꦤ꧀ꦮꦺꦴꦂ": 3548, "ꦤ꧀ꦯꦃꦂ": 3549, "ꦤ꧀ꦱꦂ": 3550, "ꦤ꧀ꦱꦷ": 3551, "ꦤ꧀ꦱꦸꦁ": 3552, "ꦤ꧀ꦱ꧀ꦏꦼ": 3553, "ꦤ꧀ꦱ꧀ꦒꦼ": 3554, "ꦤ꧀ꦱ꧀ꦢ": 3555, "ꦤ꧀ꦱ꧀ꦭꦼ": 3556, "ꦤ꧀ꦲ꧀ꦮ": 3557, "ꦥ꦳ꦴꦂ": 3558, "ꦥ꦳꧀ꦏꦃ": 3559, "ꦥ꦳꧀ꦕ꧀ꦢ꧀": 3560, "ꦥ꦳꧀ꦠꦸ": 3561, "ꦥ꦳꧀ꦠ꧀ꦱ꧀": 3562, "ꦥ꦳꧀ꦢ꧀ꦭ꧀": 3563, "ꦥ꦳꧀ꦤꦼ": 3564, "ꦥ꦳꧀ꦧꦶ": 3565, "ꦥ꦳꧀ꦧ꧀ꦱ꧀": 3566, "ꦥ꦳꧀ꦩꦼ": 3567, "ꦥ꦳꧀ꦭ꧀ꦥ꧀": 3568, "ꦥ꧀ꦏ꧀ꦏ꧀": 3569, "ꦥ꧀ꦏ꧀ꦭ꧀": 3570, "ꦥ꧀ꦒ꧀ꦫ": 3571, "ꦥ꧀ꦕꦼ": 3572, "ꦥ꧀ꦕ꧀ꦭꦶ": 3573, "ꦥ꧀ꦗ": 3574, "ꦥ꧀ꦝ": 3575, "ꦥ꧀ꦢ꧀ꦥ꦳꧀": 3576, "ꦥ꧀ꦥꦁ": 3577, "ꦥ꧀ꦥ꦳꧀": 3578, "ꦥ꧀ꦧ꧀ꦱ꧀": 3579, "ꦥ꧀ꦪ꧀ꦕꦺꦴ": 3580, "ꦥ꧀ꦫꦺꦴꦁ": 3581, "ꦥ꧀ꦫ꧀ꦗ꦳ꦼ": 3582, "ꦥ꧀ꦭꦃ": 3583, "ꦥ꧀ꦭꦶꦁ": 3584, "ꦥ꧀ꦭ꧀ꦗꦼ": 3585, "ꦧꦷ": 3586, "ꦧꦺꦴꦃꦂ": 3587, "ꦧ꧀ꦏ꧀ꦏ꧀": 3588, "ꦧ꧀ꦕ꧀ꦭ꧀": 3589, "ꦧ꧀ꦗ꧀ꦏ꧀": 3590, "ꦧ꧀ꦠꦼ": 3591, "ꦧ꧀ꦥ꦳": 3592, "ꦧ꧀ꦥ꦳ꦶ": 3593, "ꦧ꧀ꦧꦸ": 3594, "ꦧ꧀ꦩ꧀ꦒ꧀": 3595, "ꦧ꧀ꦭꦃ": 3596, "ꦧ꧀ꦭꦶꦁ": 3597, "ꦧ꧀ꦭꦻ": 3598, "ꦧ꧀ꦱꦃ": 3599, "ꦧ꧀ꦱ꧀ꦥ꧀": 3600, "ꦩꦹ": 3601, "ꦩꦿꦶꦃ": 3602, "ꦩ꧀ꦔ": 3603, "ꦩ꧀ꦕ꧀ꦏꦼ": 3604, "ꦩ꧀ꦥ꧀ꦫꦁ": 3605, "ꦩ꧀ꦧ꧀ꦪꦃ": 3606, "ꦩ꧀ꦧ꧀ꦫꦁ": 3607, "ꦩ꧀ꦧ꧀ꦫꦺꦴꦁ": 3608, "ꦩ꧀ꦧ꧀ꦭꦼꦁ": 3609, "ꦩ꧀ꦪ꧀ꦏꦼ": 3610, "ꦩ꧀ꦪ꧀ꦕꦺꦴꦂ": 3611, "ꦩ꧀ꦪ꧀ꦢ": 3612, "ꦩ꧀ꦪ꧀ꦱꦺꦴ": 3613, "ꦩ꧀ꦮꦶ": 3614, "ꦩ꧀ꦯꦃ": 3615, "ꦩ꧀ꦱ꧀ꦏ": 3616, "ꦩ꧀ꦱ꧀ꦏꦶ": 3617, "ꦩ꧀ꦱ꧀ꦠ": 3618, "ꦩ꧀ꦱ꧀ꦢ꧀": 3619, "ꦪꦶꦂ": 3620, "ꦪꦹ": 3621, "ꦪ꧀ꦗ꦳꧀": 3622, "ꦪ꧀ꦥ꦳꧀": 3623, "ꦪ꧀ꦫꦺ": 3624, "ꦪ꧀ꦲ": 3625, "ꦪ꧀ꦲꦺꦴ": 3626, "ꦫ꧀ꦏ꧀ꦱꦺꦴ": 3627, "ꦫ꧀ꦒ꧀ꦮꦺ": 3628, "ꦫ꧀ꦗ꧀": 3629, "ꦫ꧀ꦢ": 3630, "ꦫ꧀ꦥ꦳ꦶ": 3631, "ꦫ꧀ꦪꦺꦴ": 3632, "ꦭ꧀ꦐꦸ": 3633, "ꦭ꧀ꦒ꧀": 3634, "ꦭ꧀ꦗ꦳ꦼꦂ": 3635, "ꦭ꧀ꦛꦸ": 3636, "ꦭ꧀ꦛꦼ": 3637, "ꦭ꧀ꦢ꧀ꦧ꧀": 3638, "ꦭ꧀ꦢ꧀ꦪ꧀": 3639, "ꦭ꧀ꦢ꧀ꦫꦶ": 3640, "ꦭ꧀ꦢ꧀ꦭꦺꦴ": 3641, "ꦭ꧀ꦤꦁ": 3642, "ꦭ꧀ꦥ꧀ꦠꦺꦴꦂ": 3643, "ꦭ꧀ꦧ꧀ꦫꦶ": 3644, "ꦭ꧀ꦧ꧀ꦫꦺꦴ": 3645, "ꦭ꧀ꦩꦴ": 3646, "ꦭ꧀ꦪꦼꦂ": 3647, "ꦭ꧀ꦭꦺ": 3648, "ꦭ꧀ꦭ꧀ꦤꦼꦂ": 3649, "ꦭ꧀ꦭ꧀ꦮ": 3650, "ꦭ꧀ꦮꦺꦴ": 3651, "ꦭ꧀ꦱ꧀ꦗ꦳꧀": 3652, "ꦭ꧀ꦱ꧀ꦠ": 3653, "ꦭ꧀ꦱ꧀ꦩꦼ": 3654, "ꦮꦴꦂ": 3655, "ꦮ꧀ꦏꦶꦁ": 3656, "ꦮ꧀ꦕꦺꦴ": 3657, "ꦮ꧀ꦢ꧀": 3658, "ꦮ꧀ꦤꦶꦁ": 3659, "ꦮ꧀ꦤꦺ": 3660, "ꦮ꧀ꦩꦶ": 3661, "ꦮ꧀ꦪ꧀ꦤ꧀": 3662, "ꦮ꧀ꦫ꧀ꦪ꧀": 3663, "ꦯꦺ": 3664, "ꦯ꧀ꦤꦃ": 3665, "ꦯ꧀ꦤ꧀": 3666, "ꦯ꧀ꦩꦶꦂ": 3667, "ꦯ꧀ꦫꦃ": 3668, "ꦯ꧀ꦮꦶ": 3669, "ꦱꦴꦁ": 3670, "ꦱ꧀ꦏꦶꦁ": 3671, "ꦱ꧀ꦏ꧀ꦭ": 3672, "ꦱ꧀ꦕꦷ": 3673, "ꦱ꧀ꦕ꧀ꦩ": 3674, "ꦱ꧀ꦕ꧀ꦮ꧀": 3675, "ꦱ꧀ꦗ꧀ꦫꦺꦴ": 3676, "ꦱ꧀ꦠꦸꦁ": 3677, "ꦱ꧀ꦠ꧀ꦥ": 3678, "ꦱ꧀ꦠ꧀ꦥ꦳": 3679, "ꦱ꧀ꦢꦸ": 3680, "ꦱ꧀ꦢꦼꦁ": 3681, "ꦱ꧀ꦤ꧀ꦤ꧀": 3682, "ꦱ꧀ꦩ꧀ꦏꦶ": 3683, "ꦱ꧀ꦫꦸꦃ": 3684, "ꦱ꧀ꦫ꧀ꦏ꧀": 3685, "ꦱ꧀ꦭꦁ": 3686, "ꦱ꧀ꦱꦁ": 3687, "ꦱ꧀ꦱ꧀ꦤ꧀": 3688, "ꦱ꧀ꦱ꧀ꦩ": 3689, "ꦱ꧀ꦱ꧀ꦫ꧀": 3690, "ꦱ꧀ꦱ꧀ꦮꦺꦴꦂ": 3691, "ꦲꦹ": 3692, "ꦲ꧀ꦗ꦳꧀": 3693, "ꦲ꧀ꦤꦺꦴ": 3694, "ꦲ꧀ꦪ꧀ꦩ꧀": 3695, "ꦲ꧀ꦪ꧀ꦱ꧀": 3696, "ꦲ꧀ꦫ": 3697, "ꦲ꧀ꦭ": 3698, "ꦄꦴꦂ": 3699, "ꦆꦁꦃ": 3700, "ꦆꦷꦁ": 3701, "ꦏ꦳ꦼꦂ": 3702, "ꦏ꦳꧀ꦤꦶ": 3703, "ꦏ꦳꧀ꦫꦼ": 3704, "ꦏ꦳꧀ꦮꦼ": 3705, "ꦏ꧀ꦕ": 3706, "ꦏ꧀ꦕ꧀": 3707, "ꦏ꧀ꦗꦸ": 3708, "ꦏ꧀ꦗꦺꦴ": 3709, "ꦏ꧀ꦗꦺꦴꦁ": 3710, "ꦏ꧀ꦝ": 3711, "ꦏ꧀ꦤ꧀ꦗ": 3712, "ꦏ꧀ꦥ꦳꧀ꦕ꧀": 3713, "ꦏ꧀ꦩ꧀ꦧꦸ": 3714, "ꦏ꧀ꦪꦼ": 3715, "ꦏ꧀ꦫꦸꦃ": 3716, "ꦏ꧀ꦭꦴ": 3717, "ꦏ꧀ꦭ꧀ꦲ꧀": 3718, "ꦏ꧀ꦮꦴ": 3719, "ꦏ꧀ꦱ꧀ꦕ꧀": 3720, "ꦏ꧀ꦱ꧀ꦧ꧀": 3721, "ꦐ꧀ꦐ": 3722, "ꦐ꧀ꦧꦴ": 3723, "ꦒ꦳ꦼꦂ": 3724, "ꦒ꦳꧀ꦤꦼ": 3725, "ꦒ꦳꧀ꦤ꧀": 3726, "ꦒ꦳꧀ꦧꦺꦴꦂ": 3727, "ꦒ꧀ꦒ꧀ꦭꦼ": 3728, "ꦒ꧀ꦚ": 3729, "ꦒ꧀ꦚꦺꦴ": 3730, "ꦒ꧀ꦩꦸ": 3731, "ꦒ꧀ꦪ꧀ꦗ꦳꧀": 3732, "ꦒ꧀ꦪ꧀ꦫꦺꦴ": 3733, "ꦒ꧀ꦭ꧀ꦏ꧀": 3734, "ꦒ꧀ꦱ꧀ꦠ꧀": 3735, "ꦔꦷ": 3736, "ꦔꦼꦃ": 3737, "ꦔꦿ": 3738, "ꦔ꧀ꦒ꧀ꦒ": 3739, "ꦔ꧀ꦒ꧀ꦫ": 3740, "ꦔ꧀ꦤ": 3741, "ꦔ꧀ꦤ꧀ꦢꦸ": 3742, "ꦔ꧀ꦫꦃ": 3743, "ꦕ꧀ꦏ꧀ꦕꦺꦴ": 3744, "ꦕ꧀ꦏ꧀ꦫꦺꦴ": 3745, "ꦕ꧀ꦏ꧀ꦭꦶꦁ": 3746, "ꦕ꧀ꦏ꧀ꦭ꧀": 3747, "ꦕ꧀ꦏ꧀ꦮꦼ": 3748, "ꦕ꧀ꦏ꧀ꦮ꧀": 3749, "ꦕ꧀ꦒ꧀": 3750, "ꦕ꧀ꦕꦂ": 3751, "ꦕ꧀ꦕ꧀ꦫ": 3752, "ꦕ꧀ꦕ꧀ꦱ꧀": 3753, "ꦕ꧀ꦕ꧀ꦲꦶ": 3754, "ꦕ꧀ꦗ꦳ꦂ": 3755, "ꦕ꧀ꦗ꦳ꦼꦂ": 3756, "ꦕ꧀ꦗ꧀ꦏ꧀": 3757, "ꦕ꧀ꦚ": 3758, "ꦕ꧀ꦠ꧀ꦫ": 3759, "ꦕ꧀ꦢꦸ": 3760, "ꦕ꧀ꦥ꦳ꦼ": 3761, "ꦕ꧀ꦪ꧀ꦕꦂ": 3762, "ꦕ꧀ꦪ꧀ꦤꦼ": 3763, "ꦕ꧀ꦪ꧀ꦫꦼ": 3764, "ꦕ꧀ꦭꦻꦂ": 3765, "ꦕ꧀ꦭ꧀ꦕ꧀": 3766, "ꦕ꧀ꦮ꧀ꦩ꧀": 3767, "ꦕ꧀ꦱ꧀ꦏ": 3768, "ꦗ꦳ꦶꦁ": 3769, "ꦗ꦳꧀ꦕꦺꦴ": 3770, "ꦗ꦳꧀ꦫ꧀": 3771, "ꦗꦺꦃ": 3772, "ꦗ꧀ꦏ": 3773, "ꦗ꧀ꦢ": 3774, "ꦗ꧀ꦢꦺꦴ": 3775, "ꦗ꧀ꦥꦸ": 3776, "ꦗ꧀ꦥ꧀ꦠ꧀": 3777, "ꦗ꧀ꦭ꧀ꦤ꧀": 3778, "ꦚꦹ": 3779, "ꦚꦺꦴꦂ": 3780, "ꦚ꧀ꦕꦸ": 3781, "ꦛ꧀ꦥ꦳ꦶ": 3782, "ꦛ꧀ꦪ꧀ꦭꦼ": 3783, "ꦛ꧀ꦫ꧀ꦪ꧀": 3784, "ꦛ꧀ꦲ": 3785, "ꦟ꧀ꦢꦿ": 3786, "ꦠ꧀ꦒꦸ": 3787, "ꦠ꧀ꦕ꧀ꦭ꧀": 3788, "ꦠ꧀ꦗ꦳ꦺꦴ": 3789, "ꦠ꧀ꦗ꦳꧀ꦲ": 3790, "ꦠ꧀ꦛꦂ": 3791, "ꦠ꧀ꦠꦃ": 3792, "ꦠ꧀ꦤꦁ": 3793, "ꦠ꧀ꦤ꧀ꦠ꧀": 3794, "ꦠ꧀ꦥ꦳ꦃ": 3795, "ꦠ꧀ꦥ꦳꧀ꦤ꧀": 3796, "ꦠ꧀ꦥ꦳꧀ꦧ꧀": 3797, "ꦠ꧀ꦥꦺꦴ": 3798, "ꦠ꧀ꦧꦶ": 3799, "ꦠ꧀ꦧ꧀ꦫꦼ": 3800, "ꦠ꧀ꦧ꧀ꦭ": 3801, "ꦠ꧀ꦩꦂ": 3802, "ꦠ꧀ꦩ꧀ꦕ꧀": 3803, "ꦠ꧀ꦪ꧀ꦏ꧀": 3804, "ꦠ꧀ꦪ꧀ꦧ": 3805, "ꦠ꧀ꦫꦸꦃ": 3806, "ꦠ꧀ꦫ꧀ꦗ꦳꧀": 3807, "ꦠ꧀ꦮꦻ": 3808, "ꦠ꧀ꦮ꧀": 3809, "ꦠ꧀ꦯꦼ": 3810, "ꦠ꧀ꦱ꧀ꦕꦼꦂ": 3811, "ꦠ꧀ꦱ꧀ꦮꦺꦴꦂ": 3812, "ꦢ꦳꧀ꦏꦶ": 3813, "ꦢꦴꦃ": 3814, "ꦢ꧀ꦏ꧀ꦥ꧀": 3815, "ꦢ꧀ꦕ꧀ꦭꦶ": 3816, "ꦢ꧀ꦠ꧀ꦥ": 3817, "ꦢ꧀ꦥ꦳ꦼꦂ": 3818, "ꦢ꧀ꦥ꦳꧀ꦫꦼ": 3819, "ꦢ꧀ꦥꦺꦴ": 3820, "ꦢ꧀ꦧꦸꦂ": 3821, "ꦢ꧀ꦪꦸ": 3822, "ꦢ꧀ꦪ꧀ꦭꦶ": 3823, "ꦢ꧀ꦫ꧀ꦪ": 3824, "ꦢ꧀ꦮ꧀ꦏ꧀": 3825, "ꦢ꧀ꦯꦼ": 3826, "ꦢ꧀ꦱ꧀ꦕ": 3827, "ꦢ꧀ꦱ꧀ꦥ꧀": 3828, "ꦤ꧀ꦏ꧀ꦤꦺꦴ": 3829, "ꦤ꧀ꦏ꧀ꦭꦺꦴ": 3830, "ꦤ꧀ꦐ": 3831, "ꦤ꧀ꦒꦸ": 3832, "ꦤ꧀ꦔꦶ": 3833, "ꦤ꧀ꦕꦴ": 3834, "ꦤ꧀ꦕ꧀ꦏꦼ": 3835, "ꦤ꧀ꦕ꧀ꦠꦸ": 3836, "ꦤ꧀ꦗ꦳ꦼꦂ": 3837, "ꦤ꧀ꦗ꦳꧀ꦲ": 3838, "ꦤ꧀ꦗ꦳꧀ꦲꦶ": 3839, "ꦤ꧀ꦗ꧀ꦫꦼ": 3840, "ꦤ꧀ꦠ꧀ꦒꦺꦴ": 3841, "ꦤ꧀ꦠ꧀ꦤ꧀": 3842, "ꦤ꧀ꦠ꧀ꦥ": 3843, "ꦤ꧀ꦢꦺꦁ": 3844, "ꦤ꧀ꦢ꧀ꦥ꦳": 3845, "ꦤ꧀ꦢ꧀ꦩ": 3846, "ꦤ꧀ꦢ꧀ꦪꦸ": 3847, "ꦤ꧀ꦤꦹ": 3848, "ꦤ꧀ꦥ꦳꧀ꦭꦺ": 3849, "ꦤ꧀ꦥ꦳꧀ꦭꦼ": 3850, "ꦤ꧀ꦥꦼꦁ": 3851, "ꦤ꧀ꦥꦿ": 3852, "ꦤ꧀ꦧ꧀ꦭꦺꦴ": 3853, "ꦤ꧀ꦩꦺ": 3854, "ꦤ꧀ꦭꦶꦁ": 3855, "ꦤ꧀ꦮꦸꦁ": 3856, "ꦤ꧀ꦱꦺꦴꦁ": 3857, "ꦤ꧀ꦱ꧀ꦥ꦳ꦼ": 3858, "ꦤ꧀ꦱ꧀ꦧ": 3859, "ꦤ꧀ꦲꦺꦴꦂ": 3860, "ꦤ꧀ꦲꦻ": 3861, "ꦤ꧀ꦲ꧀ꦕ꧀": 3862, "ꦥ꦳꧀ꦏꦺꦴ": 3863, "ꦥ꦳꧀ꦛ꧀": 3864, "ꦥ꦳꧀ꦤ꧀ꦠ꧀": 3865, "ꦥ꦳꧀ꦭꦺꦴꦂ": 3866, "ꦥ꦳꧀ꦱꦼ": 3867, "ꦥ꦳꧀ꦱ꧀ꦥ꦳꧀": 3868, "ꦥꦿꦶ": 3869, "ꦥ꧀ꦒꦶ": 3870, "ꦥ꧀ꦛ": 3871, "ꦥ꧀ꦠꦃ": 3872, "ꦥ꧀ꦠ꧀ꦤ꧀": 3873, "ꦥ꧀ꦥ꦳ꦺꦴꦂ": 3874, "ꦥ꧀ꦥ꦳꧀ꦕ꧀": 3875, "ꦥ꧀ꦪ꧀ꦛꦶ": 3876, "ꦥ꧀ꦪ꧀ꦠ꧀": 3877, "ꦥ꧀ꦯ꧀ꦕꦸ": 3878, "ꦥ꧀ꦱꦺ": 3879, "ꦥ꧀ꦱ꧀ꦠ": 3880, "ꦥ꧀ꦱ꧀ꦠꦼ": 3881, "ꦧ꧀ꦏ꦳": 3882, "ꦧ꧀ꦏꦶ": 3883, "ꦧ꧀ꦏ꧀ꦭꦺꦴ": 3884, "ꦧ꧀ꦗꦸ": 3885, "ꦧ꧀ꦤꦼ": 3886, "ꦧ꧀ꦤ꧀ꦤ꧀": 3887, "ꦧ꧀ꦥ꦳ꦼꦂ": 3888, "ꦧ꧀ꦥ꧀ꦠ꧀": 3889, "ꦧ꧀ꦥ꧀ꦫ꧀": 3890, "ꦧ꧀ꦧ꧀ꦐ꧀": 3891, "ꦧ꧀ꦪꦸꦁ": 3892, "ꦧ꧀ꦪꦸꦂ": 3893, "ꦧ꧀ꦪꦺꦴꦁ": 3894, "ꦧ꧀ꦪ꧀ꦏ꦳꧀": 3895, "ꦧ꧀ꦪ꧀ꦧ꧀": 3896, "ꦧ꧀ꦭ꧀ꦗ": 3897, "ꦧ꧀ꦭ꧀ꦧ꧀": 3898, "ꦧ꧀ꦱꦸ": 3899, "ꦩ꧀ꦕ꧀ꦒꦶ": 3900, "ꦩ꧀ꦕ꧀ꦒꦺꦴ": 3901, "ꦩ꧀ꦗ꦳": 3902, "ꦩ꧀ꦠꦼꦁ": 3903, "ꦩ꧀ꦠꦼꦂ": 3904, "ꦩ꧀ꦢꦸ": 3905, "ꦩ꧀ꦥ꦳ꦼꦂ": 3906, "ꦩ꧀ꦥꦼꦃ": 3907, "ꦩ꧀ꦥ꧀ꦠꦶ": 3908, "ꦩ꧀ꦥ꧀ꦪꦸꦃ": 3909, "ꦩ꧀ꦧ꧀ꦏ꧀": 3910, "ꦩ꧀ꦧ꧀ꦠꦼ": 3911, "ꦩ꧀ꦧ꧀ꦪꦂ": 3912, "ꦩ꧀ꦪ꧀ꦛ꧀": 3913, "ꦩ꧀ꦭꦁ": 3914, "ꦩ꧀ꦭ꧀ꦗ": 3915, "ꦩ꧀ꦮꦺꦴ": 3916, "ꦩ꧀ꦱ꧀ꦠꦼ": 3917, "ꦩ꧀ꦱ꧀ꦥ꦳꧀": 3918, "ꦩ꧀ꦲꦶ": 3919, "ꦩ꧀ꦲꦸ": 3920, "ꦪꦺꦴꦁꦃ": 3921, "ꦪ꧀ꦏꦼ": 3922, "ꦪ꧀ꦏ꧀": 3923, "ꦪ꧀ꦧꦸ": 3924, "ꦪ꧀ꦩꦸꦂ": 3925, "ꦪ꧀ꦩꦼ": 3926, "ꦪ꧀ꦫ": 3927, "ꦫ꧀ꦗ꦳ꦼ": 3928, "ꦫ꧀ꦪ꧀ꦢꦼꦂ": 3929, "ꦫ꧀ꦪ꧀ꦭ": 3930, "ꦫ꧀ꦱꦶ": 3931, "ꦫ꧀ꦱ꧀ꦠ꧀": 3932, "ꦫ꧀ꦱ꧀ꦥ꧀": 3933, "ꦭ꧀ꦏ꧀ꦥ꧀": 3934, "ꦭ꧀ꦒ꧀ꦧ꧀": 3935, "ꦭ꧀ꦗ꦳ꦺꦴ": 3936, "ꦭ꧀ꦗ꦳꧀ꦧꦸꦂ": 3937, "ꦭ꧀ꦠꦺꦴꦁ": 3938, "ꦭ꧀ꦠ꧀ꦏ꧀": 3939, "ꦭ꧀ꦢ꧀ꦥ꧀": 3940, "ꦭ꧀ꦢ꧀ꦫꦺꦴ": 3941, "ꦭ꧀ꦥ꦳꧀ꦫ": 3942, "ꦭ꧀ꦥ꧀ꦠꦸ": 3943, "ꦭ꧀ꦧ꧀ꦫꦸ": 3944, "ꦭ꧀ꦧ꧀ꦱ꧀": 3945, "ꦭ꧀ꦪ꧀ꦠꦼ": 3946, "ꦭ꧀ꦭꦴ": 3947, "ꦭ꧀ꦭ꧀ꦠꦺꦴ": 3948, "ꦭ꧀ꦭ꧀ꦫꦺꦴ": 3949, "ꦭ꧀ꦱ꧀ꦧ꧀": 3950, "ꦮ꧀ꦤ꧀ꦯꦶ": 3951, "ꦮ꧀ꦧꦶ": 3952, "ꦮ꧀ꦧꦼ": 3953, "ꦮ꧀ꦩꦺꦴ": 3954, "ꦮ꧀ꦩ꧀": 3955, "ꦮ꧀ꦪꦺꦴ": 3956, "ꦮ꧀ꦪ꧀ꦕ꧀": 3957, "ꦮ꧀ꦪ꧀ꦭꦼꦂ": 3958, "ꦮ꧀ꦭꦶ": 3959, "ꦮ꧀ꦭ꧀ꦱ꧀": 3960, "ꦮ꧀ꦲꦂ": 3961, "ꦯ꧀ꦢꦺꦴ": 3962, "ꦯ꧀ꦤꦶ": 3963, "ꦯ꧀ꦤꦸ": 3964, "ꦯ꧀ꦤ꧀ꦕ꧀": 3965, "ꦯ꧀ꦤ꧀ꦛꦼ": 3966, "ꦯ꧀ꦤ꧀ꦢꦶ": 3967, "ꦯ꧀ꦪ꧀": 3968, "ꦯ꧀ꦲꦸꦂ": 3969, "ꦱ꧀ꦏꦻ": 3970, "ꦱ꧀ꦏ꧀ꦫ꧀": 3971, "ꦱ꧀ꦐ": 3972, "ꦱ꧀ꦒꦶ": 3973, "ꦱ꧀ꦒꦸ": 3974, "ꦱ꧀ꦕ꧀ꦏ": 3975, "ꦱ꧀ꦕ꧀ꦭꦸ": 3976, "ꦱ꧀ꦛꦺꦴ": 3977, "ꦱ꧀ꦠꦶꦃ": 3978, "ꦱ꧀ꦠ꧀ꦕꦼ": 3979, "ꦱ꧀ꦠ꧀ꦪꦼ": 3980, "ꦱ꧀ꦥ꦳ꦂ": 3981, "ꦱ꧀ꦥ꦳ꦸ": 3982, "ꦱ꧀ꦥꦶꦁ": 3983, "ꦱ꧀ꦥꦻ": 3984, "ꦱ꧀ꦩ꧀ꦩ꧀": 3985, "ꦱ꧀ꦩ꧀ꦪ꧀": 3986, "ꦱ꧀ꦩ꧀ꦫ꧀": 3987, "ꦱ꧀ꦭ꧀ꦠ": 3988, "ꦱ꧀ꦮꦸꦂ": 3989, "ꦱ꧀ꦮꦼꦃꦂ": 3990, "ꦱ꧀ꦯ꧀ꦕ": 3991, "ꦱ꧀ꦱ꧀ꦕ": 3992, "ꦱ꧀ꦱ꧀ꦧ꧀": 3993, "ꦱ꧀ꦱ꧀ꦮ": 3994, "ꦱ꧀ꦱ꧀ꦱ꧀": 3995, "ꦲꦸꦁꦂ": 3996, "ꦲ꧀ꦏ꧀ꦧ꧀": 3997, "ꦲ꧀ꦏ꧀ꦱ": 3998, "ꦲ꧀ꦥ꧀ꦭ꧀": 3999, "ꦲ꧀ꦫꦶ": 4000, "ꦲ꧀ꦱ꧀ꦏ꧀": 4001, "ꦏ꦳ꦃ": 4002, "ꦏ꦳꧀ꦢꦸ": 4003, "ꦏ꦳꧀ꦤꦸ": 4004, "ꦏ꦳꧀ꦤꦺꦴ": 4005, "ꦏ꦳꧀ꦪꦸ": 4006, "ꦏ꧀ꦒꦶ": 4007, "ꦏ꧀ꦕꦶ": 4008, "ꦏ꧀ꦗꦶꦁ": 4009, "ꦏ꧀ꦠꦶꦂ": 4010, "ꦏ꧀ꦠꦺꦂ": 4011, "ꦏ꧀ꦠ꧀ꦥ꦳ꦶ": 4012, "ꦏ꧀ꦠ꧀ꦥ꦳꧀": 4013, "ꦏ꧀ꦠ꧀ꦥ꧀": 4014, "ꦏ꧀ꦢꦸꦂ": 4015, "ꦏ꧀ꦢꦺꦴꦁ": 4016, "ꦏ꧀ꦤꦻ": 4017, "ꦏ꧀ꦤ꧀ꦛꦶ": 4018, "ꦏ꧀ꦥ꦳ꦸ": 4019, "ꦏ꧀ꦥ꧀ꦩ꧀": 4020, "ꦏ꧀ꦧꦼꦂ": 4021, "ꦏ꧀ꦪ꧀ꦫ": 4022, "ꦏ꧀ꦫꦸꦁ": 4023, "ꦏ꧀ꦫ꧀ꦗ꦳ꦼ": 4024, "ꦏ꧀ꦭꦶꦃ": 4025, "ꦏ꧀ꦭꦺꦴꦂ": 4026, "ꦏ꧀ꦯ꧀ꦮ": 4027, "ꦏ꧀ꦱ꧀ꦏꦸ": 4028, "ꦏ꧀ꦱ꧀ꦒ꧀": 4029, "ꦏ꧀ꦱ꧀ꦠꦺꦴ": 4030, "ꦏ꧀ꦱ꧀ꦤꦺꦴ": 4031, "ꦏ꧀ꦱ꧀ꦥꦶ": 4032, "ꦏ꧀ꦱ꧀ꦩꦶ": 4033, "ꦏ꧀ꦱ꧀ꦱꦺ": 4034, "ꦐꦻ": 4035, "ꦐ꧀ꦐꦃ": 4036, "ꦐ꧀ꦫ꧀": 4037, "ꦐ꧀ꦫ꧀ꦥꦼ": 4038, "ꦒ꦳ꦷ": 4039, "ꦒ꦳꧀ꦠ꧀ꦕ꧀": 4040, "ꦒ꦳꧀ꦤ": 4041, "ꦒ꦳꧀ꦤꦶ": 4042, "ꦒ꦳꧀ꦧꦸꦂ": 4043, "ꦒ꦳꧀ꦪ": 4044, "ꦒ꧀ꦏ꧀ꦫ꧀": 4045, "ꦒ꧀ꦐ꧀": 4046, "ꦒ꧀ꦝ": 4047, "ꦒ꧀ꦝꦺ": 4048, "ꦒ꧀ꦢꦸ": 4049, "ꦒ꧀ꦩ꧀ꦏꦶ": 4050, "ꦒ꧀ꦪꦂ": 4051, "ꦒ꧀ꦪ꧀ꦢ": 4052, "ꦒ꧀ꦪ꧀ꦭ꧀": 4053, "ꦒ꧀ꦭꦺꦁ": 4054, "ꦒ꧀ꦭꦺꦴꦁ": 4055, "ꦒ꧀ꦭꦼꦂ": 4056, "ꦒ꧀ꦮꦶ": 4057, "ꦒ꧀ꦮꦻ": 4058, "ꦔ꧀ꦏ": 4059, "ꦔ꧀ꦒ꧀ꦫꦸ": 4060, "ꦔ꧀ꦒ꧀ꦭꦶ": 4061, "ꦔ꧀ꦒ꧀ꦭꦸ": 4062, "ꦔ꧀ꦒ꧀ꦭꦺ": 4063, "ꦔ꧀ꦒ꧀ꦭꦺꦴ": 4064, "ꦔ꧀ꦚ": 4065, "ꦔ꧀ꦤ꧀ꦠꦶ": 4066, "ꦔ꧀ꦫꦸꦁ": 4067, "ꦔ꧀ꦭꦺꦁ": 4068, "ꦔ꧀ꦭ꧀ꦏꦺꦴ": 4069, "ꦕ꧀ꦏ꧀ꦗ": 4070, "ꦕ꧀ꦏ꧀ꦤꦼꦂ": 4071, "ꦕ꧀ꦏ꧀ꦥ꦳ꦶ": 4072, "ꦕ꧀ꦏ꧀ꦥꦺꦴ": 4073, "ꦕ꧀ꦏ꧀ꦮꦶ": 4074, "ꦕ꧀ꦏ꧀ꦮꦺꦴ": 4075, "ꦕ꧀ꦐ꧀": 4076, "ꦕ꧀ꦛꦺꦴ": 4077, "ꦕ꧀ꦛ꧀ꦪꦼ": 4078, "ꦕ꧀ꦠ꧀ꦫꦸ": 4079, "ꦕ꧀ꦢ꧀ꦕ꧀": 4080, "ꦕ꧀ꦥ꦳꧀ꦠ꧀": 4081, "ꦕ꧀ꦩꦼ": 4082, "ꦕ꧀ꦪ꧀ꦠꦶ": 4083, "ꦕ꧀ꦪ꧀ꦠ꧀": 4084, "ꦕ꧀ꦪ꧀ꦩ꧀": 4085, "ꦕ꧀ꦫ꧀ꦪꦶꦁ": 4086, "ꦕ꧀ꦮꦼ": 4087, "ꦕ꧀ꦱꦼꦂ": 4088, "ꦕ꧀ꦱ꧀ꦥ꦳ꦶ": 4089, "ꦕ꧀ꦱ꧀ꦧꦃ": 4090, "ꦕ꧀ꦱ꧀ꦮꦼꦃꦂ": 4091, "ꦕ꧀ꦲꦶ": 4092, "ꦕ꧀ꦲꦼ": 4093, "ꦗ꦳ꦸꦃ": 4094, "ꦗ꦳꧀ꦏ꧀": 4095, "ꦗ꦳꧀ꦗ꦳꧀ꦗ꦳꧀": 4096, "ꦗ꦳꧀ꦤ꧀ꦕ꧀": 4097, "ꦗ꦳꧀ꦩ꧀": 4098, "ꦗ꦳꧀ꦭꦼ": 4099, "ꦗ꦳꧀ꦱ꧀ꦠ": 4100, "ꦗꦷ": 4101, "ꦗ꧀ꦗꦂ": 4102, "ꦗ꧀ꦠ꧀ꦥ꦳꧀": 4103, "ꦗ꧀ꦢꦼ": 4104, "ꦗ꧀ꦢ꧀": 4105, "ꦗ꧀ꦤꦺꦴ": 4106, "ꦗ꧀ꦤꦼ": 4107, "ꦗ꧀ꦤ꧀ꦱ꧀": 4108, "ꦗ꧀ꦥ꧀ꦒ꧀": 4109, "ꦗ꧀ꦧꦼ": 4110, "ꦗ꧀ꦩ꧀": 4111, "ꦗ꧀ꦪ": 4112, "ꦗ꧀ꦱ꧀ꦠꦼꦂ": 4113, "ꦗ꧀ꦱ꧀ꦱ꧀": 4114, "ꦚ꧀ꦏꦶ": 4115, "ꦚ꧀ꦗꦸꦂ": 4116, "ꦚ꧀ꦠ": 4117, "ꦚ꧀ꦠꦻ": 4118, "ꦚ꧀ꦧ": 4119, "ꦚ꧀ꦩ꧀ꦥ": 4120, "ꦚ꧀ꦭꦺꦴ": 4121, "ꦚ꧀ꦱꦼ": 4122, "ꦛ꧀ꦩ꧀": 4123, "ꦛ꧀ꦱ꧀ꦕꦶ": 4124, "ꦝ꧀ꦫꦼ": 4125, "ꦝ꧀ꦮ": 4126, "ꦟ꧀ꦝ": 4127, "ꦠꦿ": 4128, "ꦠ꧀ꦕꦺꦴ": 4129, "ꦠ꧀ꦕꦻ": 4130, "ꦠ꧀ꦕ꧀ꦩꦼ": 4131, "ꦠ꧀ꦕ꧀ꦫꦼ": 4132, "ꦠ꧀ꦗ꦳ꦸ": 4133, "ꦠ꧀ꦗ꦳꧀ꦏꦺꦴ": 4134, "ꦠ꧀ꦗ꦳꧀ꦏꦼꦂ": 4135, "ꦠ꧀ꦗ꦳꧀ꦩꦼ": 4136, "ꦠ꧀ꦠꦁ": 4137, "ꦠ꧀ꦠ꧀ꦥ꧀": 4138, "ꦠ꧀ꦠ꧀ꦫꦺꦴ": 4139, "ꦠ꧀ꦩꦻ": 4140, "ꦠ꧀ꦪꦁ": 4141, "ꦠ꧀ꦪꦺꦴꦁꦃ": 4142, "ꦠ꧀ꦪ꧀ꦥꦶ": 4143, "ꦠ꧀ꦪ꧀ꦫꦼ": 4144, "ꦠ꧀ꦪ꧀ꦱ꧀": 4145, "ꦠ꧀ꦪ꧀ꦲꦺꦴ": 4146, "ꦠ꧀ꦪ꧀ꦲꦼ": 4147, "ꦠ꧀ꦭꦃ": 4148, "ꦠ꧀ꦭ꧀ꦪ꧀": 4149, "ꦠ꧀ꦮ꧀ꦫꦶ": 4150, "ꦠ꧀ꦱ꧀ꦏ": 4151, "ꦠ꧀ꦱ꧀ꦏꦃ": 4152, "ꦠ꧀ꦱ꧀ꦕꦶ": 4153, "ꦠ꧀ꦱ꧀ꦢꦶ": 4154, "ꦢꦁꦃ": 4155, "ꦢ꦳꧀ꦏ": 4156, "ꦢꦻꦁ": 4157, "ꦢ꧀ꦐꦶ": 4158, "ꦢ꧀ꦗꦴꦂ": 4159, "ꦢ꧀ꦠ": 4160, "ꦢ꧀ꦠ꧀ꦱ꧀": 4161, "ꦢ꧀ꦤꦸ": 4162, "ꦢ꧀ꦥ꦳꧀ꦭ꧀": 4163, "ꦢ꧀ꦥꦶ": 4164, "ꦢ꧀ꦥ꧀ꦗ꧀": 4165, "ꦢ꧀ꦧ꧀ꦫꦻ": 4166, "ꦢ꧀ꦪꦂ": 4167, "ꦢ꧀ꦫ꧀ꦏ꧀": 4168, "ꦢ꧀ꦫ꧀ꦲꦼ": 4169, "ꦢ꧀ꦮꦺꦴꦂ": 4170, "ꦢ꧀ꦱꦸ": 4171, "ꦤ꧀ꦏꦸꦁ": 4172, "ꦤ꧀ꦏꦺꦴꦂ": 4173, "ꦤ꧀ꦏ꧀ꦗ꦳꧀": 4174, "ꦤ꧀ꦏ꧀ꦭ꧀": 4175, "ꦤ꧀ꦐ꧀": 4176, "ꦤ꧀ꦔ꧀ꦏ": 4177, "ꦤ꧀ꦕ꧀ꦠꦺꦴ": 4178, "ꦤ꧀ꦕ꧀ꦫꦺꦴ": 4179, "ꦤ꧀ꦕ꧀ꦭꦸ": 4180, "ꦤ꧀ꦕ꧀ꦭꦻꦂ": 4181, "ꦤ꧀ꦗ꦳ꦸ": 4182, "ꦤ꧀ꦗꦺꦂ": 4183, "ꦤ꧀ꦗ꧀ꦫꦺꦴ": 4184, "ꦤ꧀ꦛ꧀ꦪ": 4185, "ꦤ꧀ꦠ꧀ꦫꦻꦂ": 4186, "ꦤ꧀ꦠ꧀ꦫꦼꦃ": 4187, "ꦤ꧀ꦠ꧀ꦱꦸ": 4188, "ꦤ꧀ꦢ꦳ꦶ": 4189, "ꦤ꧀ꦢ꦳ꦺꦴ": 4190, "ꦤ꧀ꦢ꧀ꦗꦁ": 4191, "ꦤ꧀ꦢ꧀ꦥ": 4192, "ꦤ꧀ꦢ꧀ꦥ꦳ꦶ": 4193, "ꦤ꧀ꦢ꧀ꦫꦴ": 4194, "ꦤ꧀ꦢ꧀ꦯꦸ": 4195, "ꦤ꧀ꦢ꧀ꦱꦺꦴ": 4196, "ꦤ꧀ꦤꦂ": 4197, "ꦤ꧀ꦥ꦳ꦸꦂ": 4198, "ꦤ꧀ꦥ꦳ꦻꦂ": 4199, "ꦤ꧀ꦥ꦳꧀ꦥ": 4200, "ꦤ꧀ꦥ꧀ꦪꦼ": 4201, "ꦤ꧀ꦧꦶꦂ": 4202, "ꦤ꧀ꦧ꧀ꦭ": 4203, "ꦤ꧀ꦩꦸꦁ": 4204, "ꦤ꧀ꦩ꧀ꦒ꧀": 4205, "ꦤ꧀ꦭꦼꦁ": 4206, "ꦤ꧀ꦮ꧀ꦪ꧀": 4207, "ꦤ꧀ꦯꦴ": 4208, "ꦤ꧀ꦯꦼ": 4209, "ꦤ꧀ꦯ꧀ꦭ꧀": 4210, "ꦤ꧀ꦱ꧀ꦠꦺ": 4211, "ꦤ꧀ꦱ꧀ꦭꦺꦴ": 4212, "ꦤ꧀ꦱ꧀ꦮ": 4213, "ꦤ꧀ꦱ꧀ꦮꦺꦴꦂ": 4214, "ꦤ꧀ꦲꦴ": 4215, "ꦤ꧀ꦲ꧀ꦠꦶ": 4216, "ꦤ꧀ꦲ꧀ꦭ꧀": 4217, "ꦥ꦳ꦼꦃ": 4218, "ꦥ꦳꧀ꦏ꧀ꦪ꧀": 4219, "ꦥ꦳꧀ꦗ": 4220, "ꦥ꦳꧀ꦠ꧀ꦪ꧀": 4221, "ꦥ꦳꧀ꦤ꧀ꦕ꧀": 4222, "ꦥ꦳꧀ꦥ꦳ꦶꦁ": 4223, "ꦥ꦳꧀ꦥ꦳꧀ꦫ": 4224, "ꦥ꦳꧀ꦥ꦳꧀ꦭ꧀": 4225, "ꦥ꦳꧀ꦥ꦳꧀ꦲ꧀": 4226, "ꦥ꦳꧀ꦥ꧀": 4227, "ꦥ꦳꧀ꦫꦻ": 4228, "ꦥ꦳꧀ꦫ꧀ꦱ꧀": 4229, "ꦥ꦳꧀ꦭꦂ": 4230, "ꦥ꦳꧀ꦭ꧀ꦪꦺꦴ": 4231, "ꦥ꦳꧀ꦮ": 4232, "ꦥ꦳꧀ꦱ꧀ꦠꦼ": 4233, "ꦥ꦳꧀ꦱ꧀ꦠ꧀": 4234, "ꦥꦺꦃ": 4235, "ꦥ꧀ꦛꦶ": 4236, "ꦥ꧀ꦠ꧀ꦥ꧀": 4237, "ꦥ꧀ꦢ꧀ꦫ꧀": 4238, "ꦥ꧀ꦤ꧀ꦗ꧀": 4239, "ꦥ꧀ꦤ꧀ꦩ꧀": 4240, "ꦥ꧀ꦥꦸꦂ": 4241, "ꦥ꧀ꦥ꧀ꦢ꧀": 4242, "ꦥ꧀ꦥ꧀ꦭ꧀": 4243, "ꦥ꧀ꦧ": 4244, "ꦥ꧀ꦧ꧀ꦗ꧀": 4245, "ꦥ꧀ꦪꦺꦴꦂ": 4246, "ꦥ꧀ꦪ꧀ꦫꦸ": 4247, "ꦥ꧀ꦪ꧀ꦫꦺ": 4248, "ꦥ꧀ꦪ꧀ꦭꦼ": 4249, "ꦥ꧀ꦪ꧀ꦱ": 4250, "ꦥ꧀ꦫ꧀ꦗ꦳꧀": 4251, "ꦥ꧀ꦫ꧀ꦢ꧀": 4252, "ꦥ꧀ꦮ": 4253, "ꦥ꧀ꦯꦶ": 4254, "ꦥ꧀ꦱ꧀ꦏꦺꦴ": 4255, "ꦥ꧀ꦱ꧀ꦒ꧀": 4256, "ꦥ꧀ꦱ꧀ꦠ꧀": 4257, "ꦧꦺꦴꦁꦃ": 4258, "ꦧ꧀ꦏ꧀": 4259, "ꦧ꧀ꦕꦼ": 4260, "ꦧ꧀ꦠꦼꦂ": 4261, "ꦧ꧀ꦤꦺ": 4262, "ꦧ꧀ꦤ꧀ꦗꦸꦂ": 4263, "ꦧ꧀ꦥ꦳ꦺꦂ": 4264, "ꦧ꧀ꦥꦺꦴ": 4265, "ꦧ꧀ꦥ꧀ꦤ꧀": 4266, "ꦧ꧀ꦪꦸꦃ": 4267, "ꦧ꧀ꦪ꧀ꦭꦺꦴ": 4268, "ꦧ꧀ꦪ꧀ꦱ꧀": 4269, "ꦧ꧀ꦫꦴ": 4270, "ꦧ꧀ꦫꦼꦃ": 4271, "ꦧ꧀ꦫ꧀ꦠꦶ": 4272, "ꦧ꧀ꦫ꧀ꦱ꧀": 4273, "ꦧ꧀ꦭꦼꦂ": 4274, "ꦧ꧀ꦮ꧀ꦭ꧀": 4275, "ꦧ꧀ꦱ꧀ꦕꦺꦴ": 4276, "ꦧ꧀ꦱ꧀ꦥꦺ": 4277, "ꦩꦻꦂ": 4278, "ꦩ꧀ꦏ꧀ꦥ꧀": 4279, "ꦩ꧀ꦒꦁ": 4280, "ꦩ꧀ꦒꦼ": 4281, "ꦩ꧀ꦒ꧀ꦪꦼ": 4282, "ꦩ꧀ꦔꦶ": 4283, "ꦩ꧀ꦕ꧀ꦏ꧀": 4284, "ꦩ꧀ꦕ꧀ꦕꦸ": 4285, "ꦩ꧀ꦕ꧀ꦕꦺꦴ": 4286, "ꦩ꧀ꦕ꧀ꦕꦺꦴꦂ": 4287, "ꦩ꧀ꦕ꧀ꦢꦼꦂ": 4288, "ꦩ꧀ꦕ꧀ꦥ꦳ꦶ": 4289, "ꦩ꧀ꦕ꧀ꦩ": 4290, "ꦩ꧀ꦕ꧀ꦩꦶ": 4291, "ꦩ꧀ꦗ꦳꧀": 4292, "ꦩ꧀ꦗ꧀": 4293, "ꦩ꧀ꦝ": 4294, "ꦩ꧀ꦢ꧀ꦏ꧀": 4295, "ꦩ꧀ꦤꦸꦁ": 4296, "ꦩ꧀ꦥꦹ": 4297, "ꦩ꧀ꦥ꧀ꦠ꧀": 4298, "ꦩ꧀ꦥ꧀ꦥ꧀": 4299, "ꦩ꧀ꦥ꧀ꦪꦼ": 4300, "ꦩ꧀ꦥ꧀ꦪ꧀": 4301, "ꦩ꧀ꦥ꧀ꦭꦁ": 4302, "ꦩ꧀ꦥ꧀ꦭꦼꦁ": 4303, "ꦩ꧀ꦧꦺꦁ": 4304, "ꦩ꧀ꦧ꧀ꦠ꧀": 4305, "ꦩ꧀ꦧ꧀ꦧ꧀": 4306, "ꦩ꧀ꦧ꧀ꦪꦁ": 4307, "ꦩ꧀ꦧ꧀ꦫꦻ": 4308, "ꦩ꧀ꦩꦃ": 4309, "ꦩ꧀ꦩ꧀ꦱꦼ": 4310, "ꦩ꧀ꦪꦁ": 4311, "ꦩ꧀ꦪ꧀ꦛꦺꦴ": 4312, "ꦩ꧀ꦪ꧀ꦫ": 4313, "ꦩ꧀ꦮꦼ": 4314, "ꦩ꧀ꦱꦶꦂ": 4315, "ꦩ꧀ꦱ꧀ꦧꦼꦂ": 4316, "ꦩ꧀ꦱ꧀ꦮ": 4317, "ꦪꦺꦁ": 4318, "ꦪꦾꦁ": 4319, "ꦪ꧀ꦒꦶ": 4320, "ꦪ꧀ꦒꦷ": 4321, "ꦪ꧀ꦒꦸꦂ": 4322, "ꦪ꧀ꦒ꧀": 4323, "ꦪ꧀ꦒ꧀ꦫꦺꦴ": 4324, "ꦪ꧀ꦛ꧀ꦫꦺꦴ": 4325, "ꦪ꧀ꦠ": 4326, "ꦪ꧀ꦢꦺꦴ": 4327, "ꦪ꧀ꦥ꦳ꦺꦴ": 4328, "ꦪ꧀ꦥꦶ": 4329, "ꦪ꧀ꦧꦺꦴꦂ": 4330, "ꦪ꧀ꦮꦶ": 4331, "ꦪ꧀ꦱꦺꦴ": 4332, "ꦪ꧀ꦱ꧀ꦏꦺꦴ": 4333, "ꦪ꧀ꦱ꧀ꦠꦺꦴ": 4334, "ꦫꦻꦂ": 4335, "ꦫ꧀ꦕꦼ": 4336, "ꦫ꧀ꦱ": 4337, "ꦫ꧀ꦱ꧀ꦢ꧀": 4338, "ꦭ꧀ꦏꦶꦁ": 4339, "ꦭ꧀ꦏ꧀ꦒ꧀": 4340, "ꦭ꧀ꦏ꧀ꦤ": 4341, "ꦭ꧀ꦏ꧀ꦩ": 4342, "ꦭ꧀ꦏ꧀ꦱꦺꦴ": 4343, "ꦭ꧀ꦒꦼꦂ": 4344, "ꦭ꧀ꦒ꧀ꦫ": 4345, "ꦭ꧀ꦗ꦳ꦼ": 4346, "ꦭ꧀ꦝ": 4347, "ꦭ꧀ꦠ꧀ꦫꦺꦴ": 4348, "ꦭ꧀ꦢ꧀ꦕ": 4349, "ꦭ꧀ꦢ꧀ꦭꦶ": 4350, "ꦭ꧀ꦢ꧀ꦮꦼ": 4351, "ꦭ꧀ꦤꦼꦂ": 4352, "ꦭ꧀ꦥ꦳꧀ꦠ꧀": 4353, "ꦭ꧀ꦥ꦳꧀ꦫꦶ": 4354, "ꦭ꧀ꦥ꦳꧀ꦭ꧀": 4355, "ꦭ꧀ꦥꦻ": 4356, "ꦭ꧀ꦥ꧀ꦠꦸꦂ": 4357, "ꦭ꧀ꦥ꧀ꦥ꧀": 4358, "ꦭ꧀ꦥ꧀ꦩ꧀": 4359, "ꦭ꧀ꦧꦹꦂ": 4360, "ꦭ꧀ꦧ꧀ꦫꦼ": 4361, "ꦭ꧀ꦩꦶꦁ": 4362, "ꦭ꧀ꦪ꧀ꦕꦶ": 4363, "ꦭ꧀ꦭ꧀ꦧ꧀": 4364, "ꦭ꧀ꦭ꧀ꦫꦶ": 4365, "ꦭ꧀ꦱꦺꦴꦃ": 4366, "ꦭ꧀ꦱ꧀ꦠꦶ": 4367, "ꦭ꧀ꦱ꧀ꦤ꧀": 4368, "ꦭ꧀ꦱ꧀ꦱ꧀": 4369, "ꦭ꧀ꦲ꧀ꦪꦁ": 4370, "ꦮ꧀ꦏ": 4371, "ꦮ꧀ꦏꦶ": 4372, "ꦮ꧀ꦛꦺꦴꦂ": 4373, "ꦮ꧀ꦠꦼ": 4374, "ꦮ꧀ꦢ": 4375, "ꦮ꧀ꦢꦼꦂ": 4376, "ꦮ꧀ꦤ꧀ꦥ꦳ꦺꦴꦂ": 4377, "ꦮ꧀ꦥ": 4378, "ꦮ꧀ꦧ꧀ꦠ꧀": 4379, "ꦮ꧀ꦭꦸ": 4380, "ꦮ꧀ꦭꦺꦴ": 4381, "ꦮ꧀ꦮ꧀ꦥ꦳꧀": 4382, "ꦮ꧀ꦱꦶ": 4383, "ꦮ꧀ꦱ꧀ꦕ꧀": 4384, "ꦮ꧀ꦱ꧀ꦭꦼ": 4385, "ꦮ꧀ꦲ꧀ꦪ꧀": 4386, "ꦯꦃꦂ": 4387, "ꦯꦶꦃ": 4388, "ꦯ꧀ꦐꦶ": 4389, "ꦯ꧀ꦒꦂ": 4390, "ꦯ꧀ꦔ": 4391, "ꦯ꧀ꦕꦺꦴ": 4392, "ꦯ꧀ꦠꦂ": 4393, "ꦯ꧀ꦠꦸ": 4394, "ꦯ꧀ꦠ꧀": 4395, "ꦯ꧀ꦩ꧀ꦥꦺꦴ": 4396, "ꦯ꧀ꦭ꧀ꦥ꦳ꦻ": 4397, "ꦯ꧀ꦭ꧀ꦥ꦳ꦼ": 4398, "ꦯ꧀ꦮꦂ": 4399, "ꦯ꧀ꦱ꧀ꦠꦺ": 4400, "ꦯ꧀ꦱ꧀ꦠ꧀": 4401, "ꦱꦻꦂ": 4402, "ꦱ꧀ꦏ꧀ꦥ꧀": 4403, "ꦱ꧀ꦒ꧀ꦫ": 4404, "ꦱ꧀ꦕꦴ": 4405, "ꦱ꧀ꦕꦹꦂ": 4406, "ꦱ꧀ꦕ꧀ꦮꦼꦂ": 4407, "ꦱ꧀ꦗ꦳ꦶ": 4408, "ꦱ꧀ꦗ꦳꧀ꦠ꧀": 4409, "ꦱ꧀ꦗꦺꦴ": 4410, "ꦱ꧀ꦗ꧀": 4411, "ꦱ꧀ꦠꦁ": 4412, "ꦱ꧀ꦠ꧀ꦗ꦳꧀": 4413, "ꦱ꧀ꦠ꧀ꦤꦼꦂ": 4414, "ꦱ꧀ꦠ꧀ꦧ": 4415, "ꦱ꧀ꦠ꧀ꦫꦼꦁ": 4416, "ꦱ꧀ꦠ꧀ꦭꦶ": 4417, "ꦱ꧀ꦠ꧀ꦭꦼꦂ": 4418, "ꦱ꧀ꦤ꧀ꦢ꧀": 4419, "ꦱ꧀ꦥ꦳ꦶꦁ": 4420, "ꦱ꧀ꦥ꦳ꦺ": 4421, "ꦱ꧀ꦥ꧀ꦥ꦳꧀": 4422, "ꦱ꧀ꦥ꧀ꦭꦼ": 4423, "ꦱ꧀ꦥ꧀ꦱ꧀": 4424, "ꦱ꧀ꦧꦺ": 4425, "ꦱ꧀ꦧ꧀ꦧ꧀": 4426, "ꦱ꧀ꦫꦴ": 4427, "ꦱ꧀ꦭ꧀ꦏ꧀": 4428, "ꦱ꧀ꦭ꧀ꦕ꧀": 4429, "ꦱ꧀ꦮꦴ": 4430, "ꦱ꧀ꦮ꧀ꦏ꧀": 4431, "ꦱ꧀ꦱ꧀ꦤ": 4432, "ꦱ꧀ꦱ꧀ꦩꦸ": 4433, "ꦱ꧀ꦱ꧀ꦩꦼ": 4434, "ꦱ꧀ꦱ꧀ꦩ꧀": 4435, "ꦱ꧀ꦱ꧀ꦭ꧀": 4436, "ꦲ꧀ꦒ꧀": 4437, "ꦲ꧀ꦕ꧀ꦥ꦳꧀": 4438, "ꦲ꧀ꦕ꧀ꦱ꧀": 4439, "ꦲ꧀ꦧ꧀ꦫ꧀": 4440, "ꦲ꧀ꦩ": 4441, "ꦲ꧀ꦩꦺꦴꦁ": 4442, "ꦲ꧀ꦪ꧀ꦥ꧀": 4443, "ꦲ꧀ꦫꦸ": 4444, "ꦲ꧀ꦭꦼꦂ": 4445, "ꦲ꧀ꦱ꧀ꦧ꧀": 4446, "ꦄ": 4447, "ꦍꦃ": 4448, "ꦏ꦳꧀ꦗ꦳ꦸ": 4449, "ꦏ꦳꧀ꦗ꦳꧀": 4450, "ꦏ꦳꧀ꦛꦺꦴ": 4451, "ꦏ꦳꧀ꦫꦺꦴ": 4452, "ꦏ꦳꧀ꦱ": 4453, "ꦏꦷꦁ": 4454, "ꦏꦾ": 4455, "ꦏ꧀ꦏ꧀ꦤ꧀": 4456, "ꦏ꧀ꦏ꧀ꦭ": 4457, "ꦏ꧀ꦒꦺꦴ": 4458, "ꦏ꧀ꦒ꧀ꦪꦼ": 4459, "ꦏ꧀ꦔ꧀ꦒꦺꦴ": 4460, "ꦏ꧀ꦕꦁ": 4461, "ꦏ꧀ꦗ꦳ꦼ": 4462, "ꦏ꧀ꦠꦃ": 4463, "ꦏ꧀ꦠꦴ": 4464, "ꦏ꧀ꦢꦂ": 4465, "ꦏ꧀ꦢ꧀ꦕ": 4466, "ꦏ꧀ꦢ꧀ꦫ꧀": 4467, "ꦏ꧀ꦤ꧀ꦠꦶ": 4468, "ꦏ꧀ꦥ꦳꧀": 4469, "ꦏ꧀ꦥ꦳꧀ꦏ꧀": 4470, "ꦏ꧀ꦥꦴ": 4471, "ꦏ꧀ꦥ꧀ꦤ꧀": 4472, "ꦏ꧀ꦥ꧀ꦫꦺꦴ": 4473, "ꦏ꧀ꦩꦂ": 4474, "ꦏ꧀ꦪꦁ": 4475, "ꦏ꧀ꦪ꧀ꦫꦼ": 4476, "ꦏ꧀ꦫ꧀ꦠ": 4477, "ꦏ꧀ꦭ꧀ꦏ꧀": 4478, "ꦏ꧀ꦮꦶꦁ": 4479, "ꦏ꧀ꦮꦺꦴꦂ": 4480, "ꦏ꧀ꦱꦁ": 4481, "ꦏ꧀ꦱ꧀ꦔꦼ": 4482, "ꦏ꧀ꦱ꧀ꦗꦂ": 4483, "ꦏ꧀ꦱ꧀ꦗ꦳꧀": 4484, "ꦏ꧀ꦱ꧀ꦢ꦳꧀": 4485, "ꦏ꧀ꦱ꧀ꦢꦼ": 4486, "ꦏ꧀ꦱ꧀ꦤꦶ": 4487, "ꦏ꧀ꦱ꧀ꦥ꦳ꦶ": 4488, "ꦏ꧀ꦱ꧀ꦫ": 4489, "ꦏ꧀ꦱ꧀ꦫꦶ": 4490, "ꦏ꧀ꦱ꧀ꦱ": 4491, "ꦏ꧀ꦲ": 4492, "ꦏ꧀ꦲꦼ": 4493, "ꦐ꧀ꦐꦶ": 4494, "ꦐ꧀ꦠ": 4495, "ꦐ꧀ꦥ꦳꧀": 4496, "ꦐ꧀ꦧꦃ": 4497, "ꦐ꧀ꦫ": 4498, "ꦐ꧀ꦭꦶ": 4499, "ꦐ꧀ꦱ꧀ꦭ꧀": 4500, "ꦒ꦳꧀ꦗ꦳꧀": 4501, "ꦒ꦳꧀ꦠꦶꦁ": 4502, "ꦒ꦳꧀ꦠ꧀ꦤꦶꦁ": 4503, "ꦒ꦳꧀ꦠ꧀ꦮꦼ": 4504, "ꦒ꦳꧀ꦥ꦳ꦶ": 4505, "ꦒ꦳꧀ꦩ": 4506, "ꦒꦹ": 4507, "ꦒꦹꦃ": 4508, "ꦒꦻꦁ": 4509, "ꦒ꧀ꦏ꧀": 4510, "ꦒ꧀ꦒꦁ": 4511, "ꦒ꧀ꦒꦺ": 4512, "ꦒ꧀ꦒ꧀ꦫ": 4513, "ꦒ꧀ꦝꦼ": 4514, "ꦒ꧀ꦢꦺꦴꦂ": 4515, "ꦒ꧀ꦤꦂ": 4516, "ꦒ꧀ꦤ꧀ꦧ꧀": 4517, "ꦒ꧀ꦥ꦳꧀": 4518, "ꦒ꧀ꦥ꧀ꦫ꧀": 4519, "ꦒ꧀ꦩꦂ": 4520, "ꦒ꧀ꦩ꧀ꦫ꧀": 4521, "ꦒ꧀ꦪꦼꦂ": 4522, "ꦒ꧀ꦫꦺꦴꦃ": 4523, "ꦒ꧀ꦫ꧀ꦕ꧀": 4524, "ꦒ꧀ꦭꦼꦁ": 4525, "ꦒ꧀ꦮꦼꦂ": 4526, "ꦒ꧀ꦱ꧀ꦠ": 4527, "ꦒ꧀ꦱ꧀ꦧꦸ": 4528, "ꦔ꧀ꦏꦺꦴ": 4529, "ꦔ꧀ꦒꦺꦂ": 4530, "ꦔ꧀ꦒꦼꦂ": 4531, "ꦔ꧀ꦠꦺꦴ": 4532, "ꦔ꧀ꦢꦼ": 4533, "ꦔ꧀ꦩ": 4534, "ꦔ꧀ꦫ꧀ꦱ": 4535, "ꦔ꧀ꦮꦸ": 4536, "ꦕꦸꦃ": 4537, "ꦕ꧀ꦏ꦳ꦺꦴꦃ": 4538, "ꦕ꧀ꦏ꧀ꦒ꧀": 4539, "ꦕ꧀ꦏ꧀ꦤ": 4540, "ꦕ꧀ꦏ꧀ꦤꦺꦴ": 4541, "ꦕ꧀ꦏ꧀ꦥꦶ": 4542, "ꦕ꧀ꦏ꧀ꦥꦺꦴꦂ": 4543, "ꦕ꧀ꦏ꧀ꦪꦂ": 4544, "ꦕ꧀ꦒ꧀ꦠ꧀": 4545, "ꦕ꧀ꦒ꧀ꦥ꦳꧀": 4546, "ꦕ꧀ꦕꦺꦴꦂ": 4547, "ꦕ꧀ꦗ꦳ꦶ": 4548, "ꦕ꧀ꦗ꦳ꦺꦴ": 4549, "ꦕ꧀ꦗ꦳꧀ꦏꦺꦴ": 4550, "ꦕ꧀ꦗ꦳꧀ꦤ": 4551, "ꦕ꧀ꦗ꦳꧀ꦤꦶ": 4552, "ꦕ꧀ꦛ꧀": 4553, "ꦕ꧀ꦠ꧀ꦫ꧀": 4554, "ꦕ꧀ꦠ꧀ꦭꦼ": 4555, "ꦕ꧀ꦢ": 4556, "ꦕ꧀ꦤ꧀ꦫ꧀": 4557, "ꦕ꧀ꦥ": 4558, "ꦕ꧀ꦥꦺꦴ": 4559, "ꦕ꧀ꦥ꧀ꦭꦸ": 4560, "ꦕ꧀ꦧꦺꦴ": 4561, "ꦕ꧀ꦧ꧀ꦢ꧀": 4562, "ꦕ꧀ꦪꦁ": 4563, "ꦕ꧀ꦪ꧀ꦕ": 4564, "ꦕ꧀ꦪ꧀ꦩꦶ": 4565, "ꦕ꧀ꦪ꧀ꦩꦺꦴ": 4566, "ꦕ꧀ꦪ꧀ꦫ꧀": 4567, "ꦕ꧀ꦫ꧀ꦏ꧀": 4568, "ꦕ꧀ꦱꦂ": 4569, "ꦕ꧀ꦱ꧀ꦥ꦳꧀": 4570, "ꦕ꧀ꦱ꧀ꦩ꧀": 4571, "ꦕ꧀ꦱ꧀ꦫ꧀": 4572, "ꦕ꧀ꦲ": 4573, "ꦕ꧀ꦲꦺꦴ": 4574, "ꦗ꦳ꦁ": 4575, "ꦗ꦳꧀ꦏ꧀ꦏ꧀": 4576, "ꦗ꦳꧀ꦗ꦳ꦂ": 4577, "ꦗ꦳꧀ꦥ": 4578, "ꦗ꦳꧀ꦥ꦳ꦶ": 4579, "ꦗ꦳꧀ꦥ꦳ꦺꦴ": 4580, "ꦗ꦳꧀ꦪꦸ": 4581, "ꦗ꦳꧀ꦪ꧀ꦒ꧀": 4582, "ꦗ꦳꧀ꦪ꧀ꦕꦼ": 4583, "ꦗ꦳꧀ꦪ꧀ꦭ꧀": 4584, "ꦗ꦳꧀ꦫꦸ": 4585, "ꦗ꦳꧀ꦮꦺꦴ": 4586, "ꦗ꦳꧀ꦲ꧀ꦥ꦳": 4587, "ꦗꦿꦺꦴ": 4588, "ꦗ꧀ꦏꦸ": 4589, "ꦗ꧀ꦒ꧀ꦠ꧀": 4590, "ꦗ꧀ꦕꦶ": 4591, "ꦗ꧀ꦕ꧀ꦏ꧀": 4592, "ꦗ꧀ꦗꦺꦴ": 4593, "ꦗ꧀ꦥ꦳ꦼ": 4594, "ꦗ꧀ꦥꦼꦂ": 4595, "ꦗ꧀ꦥ꧀": 4596, "ꦗ꧀ꦩꦸ": 4597, "ꦗ꧀ꦪꦸ": 4598, "ꦗ꧀ꦪꦹ": 4599, "ꦗ꧀ꦭꦺꦴ": 4600, "ꦗ꧀ꦱꦼ": 4601, "ꦗ꧀ꦱ꧀ꦧꦼꦂ": 4602, "ꦗ꧀ꦱ꧀ꦮꦶ": 4603, "ꦚ꧀ꦏ꧀": 4604, "ꦚ꧀ꦕ꧀ꦠ": 4605, "ꦚ꧀ꦕ꧀ꦠꦼ": 4606, "ꦚ꧀ꦥ꦳ꦶ": 4607, "ꦚ꧀ꦩ": 4608, "ꦚ꧀ꦩꦺꦴ": 4609, "ꦚ꧀ꦩ꧀ꦥꦼ": 4610, "ꦚ꧀ꦱꦶ": 4611, "ꦛꦴꦂ": 4612, "ꦛꦻꦂ": 4613, "ꦛ꧀ꦠ꧀": 4614, "ꦛ꧀ꦥ꦳ꦸ": 4615, "ꦛ꧀ꦩꦼ": 4616, "ꦛ꧀ꦪ꧀ꦩ": 4617, "ꦛ꧀ꦪ꧀ꦫꦺꦴ": 4618, "ꦛ꧀ꦫꦸ": 4619, "ꦛ꧀ꦫ꧀ꦪ": 4620, "ꦛ꧀ꦭ": 4621, "ꦛ꧀ꦭꦺꦴ": 4622, "ꦝ꧀ꦫ": 4623, "ꦝ꧀ꦮꦸ": 4624, "ꦝ꧀ꦮꦺ": 4625, "ꦟ꧀ꦛꦶ": 4626, "ꦠꦿꦶ": 4627, "ꦠ꧀ꦏꦁ": 4628, "ꦠ꧀ꦒꦼꦂ": 4629, "ꦠ꧀ꦗ꦳꧀ꦏ꧀": 4630, "ꦠ꧀ꦛꦶ": 4631, "ꦠ꧀ꦠꦸꦁ": 4632, "ꦠ꧀ꦠꦺ": 4633, "ꦠ꧀ꦠ꧀ꦏ꧀": 4634, "ꦠ꧀ꦠ꧀ꦩ": 4635, "ꦠ꧀ꦠ꧀ꦭ": 4636, "ꦠ꧀ꦠ꧀ꦭ꧀": 4637, "ꦠ꧀ꦠ꧀ꦮꦼ": 4638, "ꦠ꧀ꦢꦼ": 4639, "ꦠ꧀ꦥ꦳꧀ꦏ꧀": 4640, "ꦠ꧀ꦪꦴ": 4641, "ꦠ꧀ꦪꦼ": 4642, "ꦠ꧀ꦪ꧀ꦥ꦳ꦶ": 4643, "ꦠ꧀ꦪ꧀ꦥꦶꦁ": 4644, "ꦠ꧀ꦪ꧀ꦫꦶ": 4645, "ꦠ꧀ꦪ꧀ꦭꦺꦴꦂ": 4646, "ꦠ꧀ꦪ꧀ꦭ꧀": 4647, "ꦠ꧀ꦫꦸꦁ": 4648, "ꦠ꧀ꦫꦺꦴꦁ": 4649, "ꦠ꧀ꦫ꧀ꦪꦺꦴ": 4650, "ꦠ꧀ꦭꦶꦁ": 4651, "ꦠ꧀ꦭ꧀ꦥ꦳꧀": 4652, "ꦠ꧀ꦮꦸ": 4653, "ꦠ꧀ꦯꦶ": 4654, "ꦠ꧀ꦯ꧀": 4655, "ꦠ꧀ꦱꦹ": 4656, "ꦠ꧀ꦱ꧀ꦏ꦳ꦶ": 4657, "ꦠ꧀ꦱ꧀ꦗ꦳꧀": 4658, "ꦠ꧀ꦱ꧀ꦥ꧀": 4659, "ꦠ꧀ꦱ꧀ꦧꦼꦂ": 4660, "ꦠ꧀ꦱ꧀ꦫꦶ": 4661, "ꦠ꧀ꦲ": 4662, "ꦠ꧀ꦲꦶꦁ": 4663, "ꦢ꦳꧀ꦪ꧀ꦫ꧀": 4664, "ꦢ꧀ꦏꦺ": 4665, "ꦢ꧀ꦏꦺꦴ": 4666, "ꦢ꧀ꦏ꧀ꦤ": 4667, "ꦢ꧀ꦒ": 4668, "ꦢ꧀ꦒꦺꦴ": 4669, "ꦢ꧀ꦒꦺꦴꦁ": 4670, "ꦢ꧀ꦒ꧀ꦢ꧀": 4671, "ꦢ꧀ꦒ꧀ꦱꦺꦴ": 4672, "ꦢ꧀ꦕ꧀ꦠ꧀": 4673, "ꦢ꧀ꦗꦻ": 4674, "ꦢ꧀ꦗꦼꦁ": 4675, "ꦢ꧀ꦗ꧀ꦧ꧀": 4676, "ꦢ꧀ꦗ꧀ꦫꦺꦴ": 4677, "ꦢ꧀ꦠ꧀ꦠ꧀": 4678, "ꦢ꧀ꦠ꧀ꦥ꦳꧀": 4679, "ꦢ꧀ꦠ꧀ꦭꦼꦂ": 4680, "ꦢ꧀ꦢ꧀ꦭꦼꦂ": 4681, "ꦢ꧀ꦥ꦳ꦂ": 4682, "ꦢ꧀ꦥꦼ": 4683, "ꦢ꧀ꦥ꧀ꦕ꧀": 4684, "ꦢ꧀ꦧꦸ": 4685, "ꦢ꧀ꦧ꧀ꦢ꧀": 4686, "ꦢ꧀ꦧ꧀ꦪꦼ": 4687, "ꦢ꧀ꦪꦻ": 4688, "ꦢ꧀ꦪ꧀ꦒꦸ": 4689, "ꦢ꧀ꦪ꧀ꦕ꧀": 4690, "ꦢ꧀ꦫ꧀ꦗ꦳ꦼ": 4691, "ꦢ꧀ꦫ꧀ꦪꦺꦴ": 4692, "ꦢ꧀ꦫ꧀ꦲ꧀": 4693, "ꦢ꧀ꦱ꧀ꦕꦼ": 4694, "ꦢ꧀ꦱ꧀ꦕ꧀": 4695, "ꦢ꧀ꦱ꧀ꦠꦼꦂ": 4696, "ꦢ꧀ꦱ꧀ꦩ": 4697, "ꦢ꧀ꦱ꧀ꦱ꧀": 4698, "ꦣꦺ": 4699, "ꦤ꧀ꦏ꧀ꦠꦸꦂ": 4700, "ꦤ꧀ꦏ꧀ꦠ꧀": 4701, "ꦤ꧀ꦏ꧀ꦫ": 4702, "ꦤ꧀ꦐꦶ": 4703, "ꦤ꧀ꦔꦶꦁ": 4704, "ꦤ꧀ꦔꦼꦂ": 4705, "ꦤ꧀ꦔ꧀ꦏꦸ": 4706, "ꦤ꧀ꦔ꧀ꦒꦺꦴ": 4707, "ꦤ꧀ꦕꦼꦃ": 4708, "ꦤ꧀ꦕ꧀ꦛꦺꦴ": 4709, "ꦤ꧀ꦕ꧀ꦫꦺ": 4710, "ꦤ꧀ꦚꦼꦁ": 4711, "ꦤ꧀ꦚ꧀ꦱꦺꦴ": 4712, "ꦤ꧀ꦝ꧀ꦏ꧀": 4713, "ꦤ꧀ꦠ꧀ꦗꦺꦴ": 4714, "ꦤ꧀ꦠ꧀ꦥ꦳ꦶ": 4715, "ꦤ꧀ꦠ꧀ꦥ꦳ꦺꦴꦂ": 4716, "ꦤ꧀ꦠ꧀ꦩꦂ": 4717, "ꦤ꧀ꦠ꧀ꦩ꧀": 4718, "ꦤ꧀ꦠ꧀ꦫꦁ": 4719, "ꦤ꧀ꦠ꧀ꦫꦻ": 4720, "ꦤ꧀ꦠ꧀ꦭꦸ": 4721, "ꦤ꧀ꦠ꧀ꦱꦶ": 4722, "ꦤ꧀ꦢ꦳": 4723, "ꦤ꧀ꦢꦼꦃ": 4724, "ꦤ꧀ꦢꦿ": 4725, "ꦤ꧀ꦢ꧀ꦔ": 4726, "ꦤ꧀ꦢ꧀ꦢꦼ": 4727, "ꦤ꧀ꦢ꧀ꦤꦼ": 4728, "ꦤ꧀ꦢ꧀ꦧ": 4729, "ꦤ꧀ꦢ꧀ꦭꦸꦁ": 4730, "ꦤ꧀ꦢ꧀ꦭꦺꦴ": 4731, "ꦤ꧀ꦢ꧀ꦮꦺꦴꦂ": 4732, "ꦤ꧀ꦤꦸꦂ": 4733, "ꦤ꧀ꦤꦺꦴꦂ": 4734, "ꦤ꧀ꦤꦼꦁ": 4735, "ꦤ꧀ꦤ꧀ꦲꦼ": 4736, "ꦤ꧀ꦥ꦳ꦼꦁ": 4737, "ꦤ꧀ꦥ꦳꧀ꦥ꦳꧀": 4738, "ꦤ꧀ꦥ꦳꧀ꦭ꧀": 4739, "ꦤ꧀ꦥꦺꦂ": 4740, "ꦤ꧀ꦥ꧀ꦕ꧀": 4741, "ꦤ꧀ꦥ꧀ꦤ꧀": 4742, "ꦤ꧀ꦥ꧀ꦫꦶꦁ": 4743, "ꦤ꧀ꦥ꧀ꦱ꧀": 4744, "ꦤ꧀ꦧꦶꦁ": 4745, "ꦤ꧀ꦧꦺꦴꦂ": 4746, "ꦤ꧀ꦩꦴ": 4747, "ꦤ꧀ꦩ꧀ꦫ꧀": 4748, "ꦤ꧀ꦫꦁ": 4749, "ꦤ꧀ꦫꦸꦁ": 4750, "ꦤ꧀ꦭꦶꦃ": 4751, "ꦤ꧀ꦮꦺ": 4752, "ꦤ꧀ꦮꦼꦂ": 4753, "ꦤ꧀ꦯꦶꦂ": 4754, "ꦤ꧀ꦱ꧀ꦒ": 4755, "ꦤ꧀ꦱ꧀ꦕꦸ": 4756, "ꦤ꧀ꦱ꧀ꦗꦃ": 4757, "ꦤ꧀ꦱ꧀ꦗ꦳꧀": 4758, "ꦤ꧀ꦱ꧀ꦠꦂ": 4759, "ꦤ꧀ꦱ꧀ꦢꦸ": 4760, "ꦤ꧀ꦱ꧀ꦤꦶ": 4761, "ꦤ꧀ꦱ꧀ꦥꦺ": 4762, "ꦤ꧀ꦱ꧀ꦩꦺꦴ": 4763, "ꦤ꧀ꦱ꧀ꦫ": 4764, "ꦤ꧀ꦱ꧀ꦫꦸ": 4765, "ꦤ꧀ꦱ꧀ꦮꦶ": 4766, "ꦤ꧀ꦲꦺ": 4767, "ꦤ꧀ꦲ꧀ꦩ꧀": 4768, "ꦥ꦳ꦹ": 4769, "ꦥ꦳ꦺꦴꦁ": 4770, "ꦥ꦳꧀ꦗꦺꦴꦂ": 4771, "ꦥ꦳꧀ꦛꦼ": 4772, "ꦥ꦳꧀ꦠꦶꦂ": 4773, "ꦥ꦳꧀ꦠ꧀ꦥ꦳ꦃꦂ": 4774, "ꦥ꦳꧀ꦢ꧀ꦕ꧀": 4775, "ꦥ꦳꧀ꦥ꦳ꦸ": 4776, "ꦥ꦳꧀ꦥ꦳ꦺ": 4777, "ꦥ꦳꧀ꦥ꦳꧀ꦤ": 4778, "ꦥ꦳꧀ꦥ꦳꧀ꦩꦼ": 4779, "ꦥ꦳꧀ꦥ꦳꧀ꦭꦺ": 4780, "ꦥ꦳꧀ꦥ꦳꧀ꦮ꧀": 4781, "ꦥ꦳꧀ꦥ꧀ꦱ꧀": 4782, "ꦥ꦳꧀ꦩ꧀ꦕ": 4783, "ꦥ꦳꧀ꦩ꧀ꦭ꧀": 4784, "ꦥ꦳꧀ꦪꦺꦴ": 4785, "ꦥ꦳꧀ꦪ꧀ꦮꦼ": 4786, "ꦥ꦳꧀ꦪ꧀ꦱ": 4787, "ꦥ꦳꧀ꦭꦴ": 4788, "ꦥ꦳꧀ꦭ꧀ꦲꦼ": 4789, "ꦥ꦳꧀ꦱꦺꦴ": 4790, "ꦥ꦳꧀ꦱ꧀ꦏ": 4791, "ꦥ꦳꧀ꦱ꧀ꦏꦶ": 4792, "ꦥ꦳꧀ꦱ꧀ꦕ": 4793, "ꦥ꦳꧀ꦱ꧀ꦠ": 4794, "ꦥ꦳꧀ꦲꦸ": 4795, "ꦥ꦳꧀ꦲ꧀": 4796, "ꦥꦼꦃ": 4797, "ꦥ꧀ꦏ꦳": 4798, "ꦥ꧀ꦏ꧀ꦤ꧀": 4799, "ꦥ꧀ꦏ꧀ꦫꦶ": 4800, "ꦥ꧀ꦏ꧀ꦱꦺꦴ": 4801, "ꦥ꧀ꦒ": 4802, "ꦥ꧀ꦒ꧀ꦱ꧀": 4803, "ꦥ꧀ꦕꦁ": 4804, "ꦥ꧀ꦕ꧀ꦧ꧀": 4805, "ꦥ꧀ꦗꦁ": 4806, "ꦥ꧀ꦗ꧀ꦠ꧀": 4807, "ꦥ꧀ꦚ": 4808, "ꦥ꧀ꦠ꧀ꦩ꧀": 4809, "ꦥ꧀ꦢ꧀ꦱ꧀": 4810, "ꦥ꧀ꦤ꧀ꦥ꦳꧀": 4811, "ꦥ꧀ꦥ꦳꧀ꦩ꧀": 4812, "ꦥ꧀ꦥ꧀ꦏ": 4813, "ꦥ꧀ꦥ꧀ꦏ꧀": 4814, "ꦥ꧀ꦥ꧀ꦥ꦳꧀": 4815, "ꦥ꧀ꦥ꧀ꦫꦶ": 4816, "ꦥ꧀ꦧꦺꦴ": 4817, "ꦥ꧀ꦩꦸ": 4818, "ꦥ꧀ꦩ꧀ꦫ꧀": 4819, "ꦥ꧀ꦪꦃ": 4820, "ꦥ꧀ꦪ꧀ꦱ꧀": 4821, "ꦥ꧀ꦫ꧀ꦩ": 4822, "ꦥ꧀ꦫ꧀ꦭ꧀": 4823, "ꦥ꧀ꦭꦂ": 4824, "ꦥ꧀ꦭꦺꦴꦁ": 4825, "ꦥ꧀ꦭ꧀ꦏ꧀": 4826, "ꦥ꧀ꦱꦁ": 4827, "ꦥ꧀ꦱ꧀ꦏꦺꦴꦂ": 4828, "ꦥ꧀ꦱ꧀ꦕ꧀": 4829, "ꦥ꧀ꦱ꧀ꦗ꧀": 4830, "ꦧꦴꦁ": 4831, "ꦧ꧀ꦒꦺ": 4832, "ꦧ꧀ꦒꦺꦴ": 4833, "ꦧ꧀ꦔ꧀": 4834, "ꦧ꧀ꦗꦺꦴꦂ": 4835, "ꦧ꧀ꦗ꧀ꦠ꧀": 4836, "ꦧ꧀ꦠ꧀ꦪ꧀": 4837, "ꦧ꧀ꦠ꧀ꦫꦁ": 4838, "ꦧ꧀ꦠ꧀ꦫꦼ": 4839, "ꦧ꧀ꦠ꧀ꦭꦶ": 4840, "ꦧ꧀ꦠ꧀ꦭꦼ": 4841, "ꦧ꧀ꦢꦸꦃ": 4842, "ꦧ꧀ꦥ꧀ꦩ꧀": 4843, "ꦧ꧀ꦧꦃ": 4844, "ꦧ꧀ꦩ꧀ꦤ꧀": 4845, "ꦧ꧀ꦪꦺꦴꦂ": 4846, "ꦧ꧀ꦪ꧀ꦤ꧀": 4847, "ꦧ꧀ꦪ꧀ꦥ": 4848, "ꦧ꧀ꦪ꧀ꦭꦶ": 4849, "ꦧ꧀ꦫꦸꦃ": 4850, "ꦧ꧀ꦭ꧀ꦪ꧀": 4851, "ꦧ꧀ꦮꦶ": 4852, "ꦧ꧀ꦮ꧀": 4853, "ꦧ꧀ꦱ꧀ꦠꦼ": 4854, "ꦧ꧀ꦱ꧀ꦥ꦳": 4855, "ꦧ꧀ꦱ꧀ꦧꦸꦂ": 4856, "ꦩꦴꦁ": 4857, "ꦩꦾꦁ": 4858, "ꦩ꧀ꦏ꧀ꦏ꧀": 4859, "ꦩ꧀ꦔ꧀ꦱ": 4860, "ꦩ꧀ꦕꦂ": 4861, "ꦩ꧀ꦕ꧀ꦕꦻ": 4862, "ꦩ꧀ꦕ꧀ꦧ꧀": 4863, "ꦩ꧀ꦗ": 4864, "ꦩ꧀ꦠ꧀ꦫ": 4865, "ꦩ꧀ꦢ꧀ꦧ꧀": 4866, "ꦩ꧀ꦤꦂ": 4867, "ꦩ꧀ꦥ꦳꧀ꦥ꧀": 4868, "ꦩ꧀ꦥꦺꦴꦃ": 4869, "ꦩ꧀ꦥ꧀ꦏ꧀": 4870, "ꦩ꧀ꦥ꧀ꦫꦶꦁ": 4871, "ꦩ꧀ꦥ꧀ꦫꦺꦴꦃ": 4872, "ꦩ꧀ꦥ꧀ꦭꦺꦁ": 4873, "ꦩ꧀ꦧ꧀ꦏ": 4874, "ꦩ꧀ꦧ꧀ꦔ": 4875, "ꦩ꧀ꦧ꧀ꦢ": 4876, "ꦩ꧀ꦧ꧀ꦫ꧀": 4877, "ꦩ꧀ꦩꦺ": 4878, "ꦩ꧀ꦩ꧀ꦧ": 4879, "ꦩ꧀ꦪ꧀ꦱꦶ": 4880, "ꦩ꧀ꦫꦸꦁ": 4881, "ꦩ꧀ꦫꦺꦴꦃ": 4882, "ꦩ꧀ꦫ꧀ꦒ": 4883, "ꦩ꧀ꦫ꧀ꦒꦶ": 4884, "ꦩ꧀ꦭꦺꦴꦂ": 4885, "ꦩ꧀ꦭ꧀ꦪ": 4886, "ꦩ꧀ꦮꦸ": 4887, "ꦩ꧀ꦱ꧀ꦏꦺꦴ": 4888, "ꦩ꧀ꦱ꧀ꦏꦼꦂ": 4889, "ꦩ꧀ꦲꦼ": 4890, "ꦪ꧀ꦏꦁ": 4891, "ꦪ꧀ꦒꦺꦴ": 4892, "ꦪ꧀ꦔ꧀": 4893, "ꦪ꧀ꦗ꦳ꦺꦴ": 4894, "ꦪ꧀ꦗ꦳ꦼ": 4895, "ꦪ꧀ꦗꦼ": 4896, "ꦪ꧀ꦛ꧀ꦫ": 4897, "ꦪ꧀ꦠ꧀ꦫꦶ": 4898, "ꦪ꧀ꦢꦂ": 4899, "ꦪ꧀ꦥ꦳꧀ꦫꦶ": 4900, "ꦪ꧀ꦧ꧀ꦫ꧀": 4901, "ꦪ꧀ꦩ꧀ꦧ": 4902, "ꦪ꧀ꦪꦂ": 4903, "ꦪ꧀ꦪ꧀": 4904, "ꦪ꧀ꦭꦸ": 4905, "ꦪ꧀ꦮꦼ": 4906, "ꦪ꧀ꦱ꧀ꦏꦶ": 4907, "ꦪ꧀ꦲꦶ": 4908, "ꦪ꧀ꦲꦼ": 4909, "ꦫꦸꦃꦂ": 4910, "ꦫ꧀ꦏꦶ": 4911, "ꦫ꧀ꦏ꧀ꦱꦸ": 4912, "ꦫ꧀ꦒ": 4913, "ꦫ꧀ꦕ": 4914, "ꦫ꧀ꦕ꧀": 4915, "ꦫ꧀ꦗ": 4916, "ꦫ꧀ꦗ꦳꧀": 4917, "ꦫ꧀ꦛ": 4918, "ꦫ꧀ꦛ꧀": 4919, "ꦫ꧀ꦥꦼ": 4920, "ꦫ꧀ꦪꦹ": 4921, "ꦫ꧀ꦪꦺꦴꦁ": 4922, "ꦫ꧀ꦪ꧀ꦧ꧀": 4923, "ꦫ꧀ꦭ꧀ꦏ꧀": 4924, "ꦫ꧀ꦯ": 4925, "ꦫ꧀ꦱ꧀ꦏ꧀": 4926, "ꦫ꧀ꦱ꧀ꦥ": 4927, "ꦫ꧀ꦱ꧀ꦧꦶ": 4928, "ꦫ꧀ꦱ꧀ꦱ꧀": 4929, "ꦭꦴꦁ": 4930, "ꦭꦻꦁ": 4931, "ꦭꦻꦃ": 4932, "ꦭ꧀ꦏꦁ": 4933, "ꦭ꧀ꦏꦶꦂ": 4934, "ꦭ꧀ꦏ꧀ꦏ꧀": 4935, "ꦭ꧀ꦏ꧀ꦱꦶ": 4936, "ꦭ꧀ꦒꦸꦂ": 4937, "ꦭ꧀ꦒꦺ": 4938, "ꦭ꧀ꦒ꧀ꦩꦼ": 4939, "ꦭ꧀ꦕ꧀ꦭ꧀": 4940, "ꦭ꧀ꦗꦃ": 4941, "ꦭ꧀ꦗꦺꦴꦁ": 4942, "ꦭ꧀ꦗ꧀": 4943, "ꦭ꧀ꦚ꧀": 4944, "ꦭ꧀ꦛꦶ": 4945, "ꦭ꧀ꦝ꧀ꦏ꧀": 4946, "ꦭ꧀ꦠꦃ": 4947, "ꦭ꧀ꦠꦶꦁ": 4948, "ꦭ꧀ꦠꦷ": 4949, "ꦭ꧀ꦠ꧀ꦤꦼꦂ": 4950, "ꦭ꧀ꦠ꧀ꦯꦶ": 4951, "ꦭ꧀ꦢꦷ": 4952, "ꦭ꧀ꦢꦺ": 4953, "ꦭ꧀ꦤ꧀ꦗ": 4954, "ꦭ꧀ꦤ꧀ꦯꦶ": 4955, "ꦭ꧀ꦥꦂ": 4956, "ꦭ꧀ꦥ꦳ꦃ": 4957, "ꦭ꧀ꦥ꦳꧀ꦱꦺꦴ": 4958, "ꦭ꧀ꦥꦼꦂ": 4959, "ꦭ꧀ꦩꦃ": 4960, "ꦭ꧀ꦩ꧀ꦏ꧀": 4961, "ꦭ꧀ꦪꦃ": 4962, "ꦭ꧀ꦪꦶ": 4963, "ꦭ꧀ꦪ꧀ꦔ꧀": 4964, "ꦭ꧀ꦪ꧀ꦕꦺ": 4965, "ꦭ꧀ꦪ꧀ꦕ꧀": 4966, "ꦭ꧀ꦪ꧀ꦥꦺꦴ": 4967, "ꦭ꧀ꦪ꧀ꦩ": 4968, "ꦭ꧀ꦪ꧀ꦫ": 4969, "ꦭ꧀ꦪ꧀ꦱꦺ": 4970, "ꦭ꧀ꦭꦁ": 4971, "ꦭ꧀ꦭ꧀ꦒ": 4972, "ꦭ꧀ꦭ꧀ꦢ": 4973, "ꦭ꧀ꦭ꧀ꦤꦺꦴ": 4974, "ꦭ꧀ꦭ꧀ꦥ꦳꧀": 4975, "ꦭ꧀ꦭ꧀ꦩꦸ": 4976, "ꦭ꧀ꦭ꧀ꦪꦶꦁ": 4977, "ꦭ꧀ꦭ꧀ꦮꦶꦁ": 4978, "ꦭ꧀ꦭ꧀ꦮꦼ": 4979, "ꦭ꧀ꦭ꧀ꦮ꧀": 4980, "ꦭ꧀ꦭ꧀ꦯꦶ": 4981, "ꦭ꧀ꦮꦂ": 4982, "ꦭ꧀ꦮ꧀ꦏ꧀": 4983, "ꦭ꧀ꦱꦺ": 4984, "ꦭ꧀ꦱ꧀ꦏꦺꦴ": 4985, "ꦭ꧀ꦱ꧀ꦕ꧀": 4986, "ꦭ꧀ꦱ꧀ꦥꦶ": 4987, "ꦭ꧀ꦱ꧀ꦧꦼꦂ": 4988, "ꦮꦹ": 4989, "ꦮ꧀ꦏ꧀ꦮ꧀": 4990, "ꦮ꧀ꦕꦼ": 4991, "ꦮ꧀ꦚ꧀": 4992, "ꦮ꧀ꦠ꧀ꦕ꧀": 4993, "ꦮ꧀ꦠ꧀ꦱ꧀": 4994, "ꦮ꧀ꦢꦼ": 4995, "ꦮ꧀ꦤ": 4996, "ꦮ꧀ꦤ꧀ꦠꦼ": 4997, "ꦮ꧀ꦤ꧀ꦱꦶ": 4998, "ꦮ꧀ꦥ꦳꧀": 4999, "ꦮ꧀ꦥꦺꦴꦂ": 5000, "ꦮ꧀ꦥꦼ": 5001, "ꦮ꧀ꦩꦂ": 5002, "ꦮ꧀ꦪꦸ": 5003, "ꦮ꧀ꦪ꧀ꦭꦶ": 5004, "ꦮ꧀ꦫꦺꦴꦁ": 5005, "ꦮ꧀ꦫ꧀ꦕ꧀": 5006, "ꦮ꧀ꦮꦼꦂ": 5007, "ꦮ꧀ꦱꦂ": 5008, "ꦮ꧀ꦱꦺ": 5009, "ꦯꦺꦃ": 5010, "ꦯ꧀ꦏꦺꦴ": 5011, "ꦯ꧀ꦏ꧀ꦱꦸ": 5012, "ꦯ꧀ꦏ꧀ꦱ꧀": 5013, "ꦯ꧀ꦧꦶ": 5014, "ꦯ꧀ꦧꦼ": 5015, "ꦯ꧀ꦩ꧀ꦥ": 5016, "ꦯ꧀ꦩ꧀ꦧꦶ": 5017, "ꦯ꧀ꦩ꧀ꦩꦼ": 5018, "ꦯ꧀ꦪ": 5019, "ꦯ꧀ꦭ": 5020, "ꦯ꧀ꦭꦺꦴ": 5021, "ꦯ꧀ꦭ꧀ꦥ꦳ꦷ": 5022, "ꦯ꧀ꦭ꧀ꦭ": 5023, "ꦯ꧀ꦮ": 5024, "ꦱ꧀ꦏ꧀ꦥ꦳": 5025, "ꦱ꧀ꦏ꧀ꦫꦺ": 5026, "ꦱ꧀ꦒꦂ": 5027, "ꦱ꧀ꦒ꧀ꦒ꧀": 5028, "ꦱ꧀ꦕ꧀ꦏꦼ": 5029, "ꦱ꧀ꦕ꧀ꦕ꧀": 5030, "ꦱ꧀ꦕ꧀ꦤꦶ": 5031, "ꦱ꧀ꦕ꧀ꦥ꧀": 5032, "ꦱ꧀ꦕ꧀ꦫꦸ": 5033, "ꦱ꧀ꦕ꧀ꦫ꧀": 5034, "ꦱ꧀ꦕ꧀ꦱ꧀": 5035, "ꦱ꧀ꦗ꦳꧀ꦭꦺꦴ": 5036, "ꦱ꧀ꦚ꧀ꦱ꧀": 5037, "ꦱ꧀ꦛꦸ": 5038, "ꦱ꧀ꦛ꧀": 5039, "ꦱ꧀ꦠꦸꦃ": 5040, "ꦱ꧀ꦠ꧀ꦗ꦳ꦼ": 5041, "ꦱ꧀ꦠ꧀ꦠꦼ": 5042, "ꦱ꧀ꦠ꧀ꦥ꦳ꦶ": 5043, "ꦱ꧀ꦠ꧀ꦧꦸꦂ": 5044, "ꦱ꧀ꦠ꧀ꦫꦂ": 5045, "ꦱ꧀ꦠ꧀ꦮꦼ": 5046, "ꦱ꧀ꦢꦃ": 5047, "ꦱ꧀ꦢꦼꦂ": 5048, "ꦱ꧀ꦢ꧀ꦪ": 5049, "ꦱ꧀ꦥ꦳꧀ꦏ꧀": 5050, "ꦱ꧀ꦥ꦳꧀ꦫꦼ": 5051, "ꦱ꧀ꦥ꧀ꦢ꧀": 5052, "ꦱ꧀ꦥ꧀ꦫꦼꦁ": 5053, "ꦱ꧀ꦧꦺꦃ": 5054, "ꦱ꧀ꦧ꧀ꦥ꦳꧀": 5055, "ꦱ꧀ꦫꦺꦃ": 5056, "ꦱ꧀ꦫꦺꦴꦁ": 5057, "ꦱ꧀ꦫ꧀ꦒ꧀": 5058, "ꦱ꧀ꦫ꧀ꦢ꧀": 5059, "ꦱ꧀ꦫ꧀ꦫꦶ": 5060, "ꦱ꧀ꦭꦸꦂ": 5061, "ꦱ꧀ꦮꦃ": 5062, "ꦱ꧀ꦯꦺꦴ": 5063, "ꦱ꧀ꦱꦸꦂ": 5064, "ꦱ꧀ꦱ꧀ꦗ꦳꧀": 5065, "ꦱ꧀ꦱ꧀ꦠ": 5066, "ꦱ꧀ꦱ꧀ꦤꦼ": 5067, "ꦱ꧀ꦱ꧀ꦤꦼꦂ": 5068, "ꦲꦾꦁ": 5069, "ꦲ꧀ꦥ꦳꧀": 5070, "ꦲ꧀ꦩ꧀ꦥꦸ": 5071, "ꦲ꧀ꦩ꧀ꦩ꧀": 5072, "ꦲ꧀ꦩ꧀ꦱ꧀": 5073, "ꦲ꧀ꦪꦹ": 5074, "ꦲ꧀ꦪ꧀ꦪ꧀": 5075, "ꦲ꧀ꦭ꧀ꦢ꧀": 5076, "ꦲ꧀ꦮꦶ": 5077, "ꦲ꧀ꦮꦺꦴ": 5078, "ꦲ꧀ꦮ꧀": 5079, "ꦆꦃꦂ": 5080, "ꦉꦁ": 5081, "ꦊꦁ": 5082, "ꦎꦁꦃ": 5083, "ꦏꦁꦃ": 5084, "ꦏꦃꦂ": 5085, "ꦏ꦳ꦁ": 5086, "ꦏ꦳ꦶꦃ": 5087, "ꦏ꦳ꦺ": 5088, "ꦏ꦳ꦺꦁ": 5089, "ꦏ꦳ꦻꦂ": 5090, "ꦏ꦳ꦼꦁ": 5091, "ꦏ꦳꧀ꦏ꧀ꦱ꧀": 5092, "ꦏ꦳꧀ꦕꦶ": 5093, "ꦏ꦳꧀ꦗ": 5094, "ꦏ꦳꧀ꦢꦂ": 5095, "ꦏ꦳꧀ꦤ꧀": 5096, "ꦏ꦳꧀ꦧꦂ": 5097, "ꦏ꦳꧀ꦪꦺꦴ": 5098, "ꦏ꦳꧀ꦫ꧀": 5099, "ꦏ꦳꧀ꦫ꧀ꦪ꧀": 5100, "ꦏ꦳꧀ꦭꦺꦴ": 5101, "ꦏ꦳꧀ꦭꦺꦴꦁ": 5102, "ꦏ꦳꧀ꦭꦺꦴꦂ": 5103, "ꦏ꦳꧀ꦱꦂ": 5104, "ꦏ꧀ꦏꦂ": 5105, "ꦏ꧀ꦏꦶꦁ": 5106, "ꦏ꧀ꦏ꧀ꦭꦺꦴ": 5107, "ꦏ꧀ꦐ꧀": 5108, "ꦏ꧀ꦒ꧀ꦥ": 5109, "ꦏ꧀ꦒ꧀ꦥ꦳꧀": 5110, "ꦏ꧀ꦒ꧀ꦥ꧀": 5111, "ꦏ꧀ꦔꦸ": 5112, "ꦏ꧀ꦕꦂ": 5113, "ꦏ꧀ꦕꦸꦁ": 5114, "ꦏ꧀ꦕ꧀ꦠ꧀": 5115, "ꦏ꧀ꦗ꧀ꦏ꧀": 5116, "ꦏ꧀ꦚ꧀ꦯꦺꦴ": 5117, "ꦏ꧀ꦛꦸ": 5118, "ꦏ꧀ꦛꦼ": 5119, "ꦏ꧀ꦝꦶ": 5120, "ꦏ꧀ꦠꦸꦁ": 5121, "ꦏ꧀ꦠ꧀ꦩ꧀": 5122, "ꦏ꧀ꦠ꧀ꦪ": 5123, "ꦏ꧀ꦠ꧀ꦫ꧀": 5124, "ꦏ꧀ꦤꦁ": 5125, "ꦏ꧀ꦤꦂ": 5126, "ꦏ꧀ꦤꦴ": 5127, "ꦏ꧀ꦥꦁ": 5128, "ꦏ꧀ꦥ꦳ꦂ": 5129, "ꦏ꧀ꦥ꦳ꦼ": 5130, "ꦏ꧀ꦥ꦳꧀ꦠ꧀": 5131, "ꦏ꧀ꦥꦻ": 5132, "ꦏ꧀ꦥꦼꦂ": 5133, "ꦏ꧀ꦥ꧀ꦕ꧀": 5134, "ꦏ꧀ꦥ꧀ꦤꦸꦁ": 5135, "ꦏ꧀ꦥ꧀ꦫ": 5136, "ꦏ꧀ꦥ꧀ꦫꦼ": 5137, "ꦏ꧀ꦧꦃ": 5138, "ꦏ꧀ꦧꦼꦃ": 5139, "ꦏ꧀ꦧ꧀ꦒꦶ": 5140, "ꦏ꧀ꦧ꧀ꦕ꧀": 5141, "ꦏ꧀ꦧ꧀ꦥ꧀": 5142, "ꦏ꧀ꦧ꧀ꦪꦼ": 5143, "ꦏ꧀ꦧ꧀ꦫꦶ": 5144, "ꦏ꧀ꦩꦁ": 5145, "ꦏ꧀ꦩ꧀ꦧꦼ": 5146, "ꦏ꧀ꦪꦂ": 5147, "ꦏ꧀ꦪꦃ": 5148, "ꦏ꧀ꦪ꧀ꦠꦺꦴ": 5149, "ꦏ꧀ꦫ꧀ꦢ꧀": 5150, "ꦏ꧀ꦫ꧀ꦩ꧀": 5151, "ꦏ꧀ꦫ꧀ꦱꦶ": 5152, "ꦏ꧀ꦫ꧀ꦱ꧀": 5153, "ꦏ꧀ꦭꦷ": 5154, "ꦏ꧀ꦭꦺꦴꦁ": 5155, "ꦏ꧀ꦭ꧀ꦗꦶ": 5156, "ꦏ꧀ꦮꦷꦂ": 5157, "ꦏ꧀ꦮꦺꦴꦁ": 5158, "ꦏ꧀ꦮ꧀ꦏ꧀": 5159, "ꦏ꧀ꦮ꧀ꦫꦸ": 5160, "ꦏ꧀ꦮ꧀ꦱ꧀": 5161, "ꦏ꧀ꦱꦷ": 5162, "ꦏ꧀ꦱ꧀ꦕꦼ": 5163, "ꦏ꧀ꦱ꧀ꦚ꧀": 5164, "ꦏ꧀ꦱ꧀ꦤ": 5165, "ꦏ꧀ꦱ꧀ꦧ": 5166, "ꦏ꧀ꦱ꧀ꦧꦼ": 5167, "ꦏ꧀ꦱ꧀ꦪꦺꦴ": 5168, "ꦏ꧀ꦱ꧀ꦭꦶ": 5169, "ꦏ꧀ꦱ꧀ꦱꦺꦴ": 5170, "ꦏ꧀ꦲꦶꦁ": 5171, "ꦐ꧀ꦏ꧀ꦱ꧀": 5172, "ꦐ꧀ꦕ꧀": 5173, "ꦐ꧀ꦠꦃ": 5174, "ꦐ꧀ꦥ꧀ꦱ꧀": 5175, "ꦐ꧀ꦩꦺꦴ": 5176, "ꦐ꧀ꦯꦺꦴ": 5177, "ꦒꦁꦃ": 5178, "ꦒ꦳ꦁ": 5179, "ꦒ꦳ꦺ": 5180, "ꦒ꦳꧀ꦛꦺꦴ": 5181, "ꦒ꦳꧀ꦠ꧀ꦩꦼ": 5182, "ꦒ꦳꧀ꦤꦼꦂ": 5183, "ꦒ꦳꧀ꦥ꦳ꦶꦂ": 5184, "ꦒ꦳꧀ꦥ꦳꧀ꦭꦺꦴ": 5185, "ꦒ꦳꧀ꦧꦺꦴ": 5186, "ꦒ꦳꧀ꦫꦂ": 5187, "ꦒ꦳꧀ꦫꦺꦴ": 5188, "ꦒ꦳꧀ꦫꦼ": 5189, "ꦒ꦳꧀ꦱꦺꦴ": 5190, "ꦒꦴꦂ": 5191, "ꦒꦾ": 5192, "ꦒꦿ": 5193, "ꦒ꧀ꦏꦶ": 5194, "ꦒ꧀ꦏ꧀ꦗ꧀": 5195, "ꦒ꧀ꦏ꧀ꦭ": 5196, "ꦒ꧀ꦏ꧀ꦱꦺꦴ": 5197, "ꦒ꧀ꦏ꧀ꦱꦼ": 5198, "ꦒ꧀ꦒꦃ": 5199, "ꦒ꧀ꦒꦸꦁ": 5200, "ꦒ꧀ꦒ꧀ꦫꦶ": 5201, "ꦒ꧀ꦒ꧀ꦭꦺꦴ": 5202, "ꦒ꧀ꦕ꧀ꦒ꧀": 5203, "ꦒ꧀ꦕ꧀ꦠ꧀": 5204, "ꦒ꧀ꦗ꦳ꦼ": 5205, "ꦒ꧀ꦗꦺꦴꦂ": 5206, "ꦒ꧀ꦠꦂ": 5207, "ꦒ꧀ꦠꦶꦁ": 5208, "ꦒ꧀ꦠꦺꦴ": 5209, "ꦒ꧀ꦠꦼꦂ": 5210, "ꦒ꧀ꦢꦺꦴꦃ": 5211, "ꦒ꧀ꦤꦁ": 5212, "ꦒ꧀ꦤ꧀ꦠꦼ": 5213, "ꦒ꧀ꦤ꧀ꦩꦺꦴ": 5214, "ꦒ꧀ꦥ": 5215, "ꦒ꧀ꦥ꦳ꦶ": 5216, "ꦒ꧀ꦥ꦳ꦺꦴꦂ": 5217, "ꦒ꧀ꦥ꦳꧀ꦢ꧀": 5218, "ꦒ꧀ꦥꦸ": 5219, "ꦒ꧀ꦥꦺꦴ": 5220, "ꦒ꧀ꦧꦼ": 5221, "ꦒ꧀ꦧ꧀ꦱ꧀": 5222, "ꦒ꧀ꦩ꧀ꦏ꧀": 5223, "ꦒ꧀ꦩ꧀ꦤꦶ": 5224, "ꦒ꧀ꦪ꧀ꦏ꧀": 5225, "ꦒ꧀ꦪ꧀ꦤꦸ": 5226, "ꦒ꧀ꦪ꧀ꦤꦺꦴ": 5227, "ꦒ꧀ꦪ꧀ꦤꦼ": 5228, "ꦒ꧀ꦪ꧀ꦫꦼ": 5229, "ꦒ꧀ꦪ꧀ꦱ꧀": 5230, "ꦒ꧀ꦫ꧀ꦩ꧀": 5231, "ꦒ꧀ꦫ꧀ꦱꦶ": 5232, "ꦒ꧀ꦭꦺꦴꦂ": 5233, "ꦒ꧀ꦭ꧀ꦱ꧀": 5234, "ꦒ꧀ꦮꦺ": 5235, "ꦒ꧀ꦮꦺꦴ": 5236, "ꦒ꧀ꦯ": 5237, "ꦒ꧀ꦯ꧀": 5238, "ꦒ꧀ꦱꦸ": 5239, "ꦒ꧀ꦱ꧀ꦒ꧀": 5240, "ꦒ꧀ꦱ꧀ꦗ꦳ꦼ": 5241, "ꦒ꧀ꦱ꧀ꦩ": 5242, "ꦔꦿꦸ": 5243, "ꦔꦿꦺꦴꦁ": 5244, "ꦔ꧀ꦏꦶ": 5245, "ꦔ꧀ꦏ꧀": 5246, "ꦔ꧀ꦏ꧀ꦏ꧀": 5247, "ꦔ꧀ꦏ꧀ꦫꦶ": 5248, "ꦔ꧀ꦒꦻ": 5249, "ꦔ꧀ꦒ꧀": 5250, "ꦔ꧀ꦒ꧀ꦢ": 5251, "ꦔ꧀ꦒ꧀ꦫꦶ": 5252, "ꦔ꧀ꦒ꧀ꦫꦺꦴꦁ": 5253, "ꦔ꧀ꦗ": 5254, "ꦔ꧀ꦢꦸ": 5255, "ꦔ꧀ꦤꦼ": 5256, "ꦔ꧀ꦥꦶ": 5257, "ꦔ꧀ꦥꦼ": 5258, "ꦔ꧀ꦧ": 5259, "ꦔ꧀ꦪꦺꦴ": 5260, "ꦔ꧀ꦭ꧀ꦭ": 5261, "ꦔ꧀ꦮꦂ": 5262, "ꦔ꧀ꦱꦺꦴ": 5263, "ꦕꦷ": 5264, "ꦕ꧀ꦏꦺ": 5265, "ꦕ꧀ꦏ꧀ꦕꦶꦁ": 5266, "ꦕ꧀ꦏ꧀ꦕꦸꦂ": 5267, "ꦕ꧀ꦏ꧀ꦛ꧀": 5268, "ꦕ꧀ꦏ꧀ꦠꦶ": 5269, "ꦕ꧀ꦏ꧀ꦠꦺꦴ": 5270, "ꦕ꧀ꦏ꧀ꦤꦶ": 5271, "ꦕ꧀ꦏ꧀ꦥ": 5272, "ꦕ꧀ꦏ꧀ꦧꦂ": 5273, "ꦕ꧀ꦏ꧀ꦩꦺꦴ": 5274, "ꦕ꧀ꦏ꧀ꦭꦺ": 5275, "ꦕ꧀ꦏ꧀ꦯꦶ": 5276, "ꦕ꧀ꦒꦼ": 5277, "ꦕ꧀ꦒ꧀ꦏ꧀": 5278, "ꦕ꧀ꦒ꧀ꦤꦶ": 5279, "ꦕ꧀ꦒ꧀ꦧꦼꦂ": 5280, "ꦕ꧀ꦕ꧀ꦚ꧀": 5281, "ꦕ꧀ꦕ꧀ꦢ꧀": 5282, "ꦕ꧀ꦕ꧀ꦪꦼ": 5283, "ꦕ꧀ꦗ": 5284, "ꦕ꧀ꦗ꦳ꦸ": 5285, "ꦕ꧀ꦗ꦳꧀ꦏ": 5286, "ꦕ꧀ꦗ꦳꧀ꦚ꧀": 5287, "ꦕ꧀ꦠꦸꦁ": 5288, "ꦕ꧀ꦠꦸꦂ": 5289, "ꦕ꧀ꦠ꧀ꦥ꦳ꦴꦂ": 5290, "ꦕ꧀ꦠ꧀ꦥ꧀": 5291, "ꦕ꧀ꦠ꧀ꦧ": 5292, "ꦕ꧀ꦠ꧀ꦪꦺꦴ": 5293, "ꦕ꧀ꦠ꧀ꦯꦺꦴ": 5294, "ꦕ꧀ꦢꦼ": 5295, "ꦕ꧀ꦢ꧀ꦤꦼ": 5296, "ꦕ꧀ꦢ꧀ꦱ꧀": 5297, "ꦕ꧀ꦤꦁ": 5298, "ꦕ꧀ꦤ꧀ꦱ꧀": 5299, "ꦕ꧀ꦥ꦳": 5300, "ꦕ꧀ꦥ꦳ꦂ": 5301, "ꦕ꧀ꦥ꦳ꦺꦴ": 5302, "ꦕ꧀ꦥ꦳꧀ꦤꦼ": 5303, "ꦕ꧀ꦥ꦳꧀ꦫ꧀": 5304, "ꦕ꧀ꦥ꦳꧀ꦱ꧀": 5305, "ꦕ꧀ꦥꦶ": 5306, "ꦕ꧀ꦥꦼ": 5307, "ꦕ꧀ꦧꦶ": 5308, "ꦕ꧀ꦧꦸ": 5309, "ꦕ꧀ꦧ꧀ꦧ꧀": 5310, "ꦕ꧀ꦩ꧀ꦪ꧀": 5311, "ꦕ꧀ꦩ꧀ꦱ꧀": 5312, "ꦕ꧀ꦪ꧀ꦢꦺꦴ": 5313, "ꦕ꧀ꦪ꧀ꦤ": 5314, "ꦕ꧀ꦪ꧀ꦤꦺꦴ": 5315, "ꦕ꧀ꦪ꧀ꦩꦼ": 5316, "ꦕ꧀ꦫꦂ": 5317, "ꦕ꧀ꦫ꧀ꦕ꧀": 5318, "ꦕ꧀ꦫ꧀ꦗ꦳": 5319, "ꦕ꧀ꦫ꧀ꦠ꧀": 5320, "ꦕ꧀ꦫ꧀ꦢ꧀": 5321, "ꦕ꧀ꦭꦁ": 5322, "ꦕ꧀ꦭ꧀ꦢ꧀": 5323, "ꦕ꧀ꦱꦺ": 5324, "ꦕ꧀ꦱ꧀ꦕꦸ": 5325, "ꦕ꧀ꦱ꧀ꦧꦺꦴ": 5326, "ꦗ꦳ꦴ": 5327, "ꦗ꦳ꦷ": 5328, "ꦗ꦳ꦼꦁ": 5329, "ꦗ꦳꧀ꦐꦶ": 5330, "ꦗ꦳꧀ꦒ꧀ꦫ": 5331, "ꦗ꦳꧀ꦗ꦳ꦸꦂ": 5332, "ꦗ꦳꧀ꦗ꦳ꦻ": 5333, "ꦗ꦳꧀ꦚ꧀": 5334, "ꦗ꦳꧀ꦠ꧀": 5335, "ꦗ꦳꧀ꦠ꧀ꦭ꧀": 5336, "ꦗ꦳꧀ꦢ꧀ꦥ꦳꧀": 5337, "ꦗ꦳꧀ꦤꦺꦴ": 5338, "ꦗ꦳꧀ꦥꦶ": 5339, "ꦗ꦳꧀ꦧꦃ": 5340, "ꦗ꦳꧀ꦧꦶ": 5341, "ꦗ꦳꧀ꦧꦸꦂ": 5342, "ꦗ꦳꧀ꦩ꧀ꦏ꧀": 5343, "ꦗ꦳꧀ꦪ꧀ꦤꦶ": 5344, "ꦗ꦳꧀ꦫꦶ": 5345, "ꦗ꦳꧀ꦱ꧀": 5346, "ꦗ꦳꧀ꦲꦺꦁ": 5347, "ꦗ꦳꧀ꦲ꧀ꦢꦂ": 5348, "ꦗ꧀ꦏꦺꦴ": 5349, "ꦗ꧀ꦒ꧀": 5350, "ꦗ꧀ꦒ꧀ꦫ꧀": 5351, "ꦗ꧀ꦔ꧀": 5352, "ꦗ꧀ꦕꦸ": 5353, "ꦗ꧀ꦕ꧀ꦱ꧀": 5354, "ꦗ꧀ꦢ꦳ꦸ": 5355, "ꦗ꧀ꦢ꧀ꦫ": 5356, "ꦗ꧀ꦢ꧀ꦱ꧀": 5357, "ꦗ꧀ꦤꦺ": 5358, "ꦗ꧀ꦤ꧀ꦏ꧀": 5359, "ꦗ꧀ꦥ꦳꧀": 5360, "ꦗ꧀ꦥ꦳꧀ꦏ": 5361, "ꦗ꧀ꦥ꦳꧀ꦥ꦳꧀": 5362, "ꦗ꧀ꦩꦼ": 5363, "ꦗ꧀ꦫꦁ": 5364, "ꦗ꧀ꦫꦸ": 5365, "ꦗ꧀ꦫꦺꦁ": 5366, "ꦗ꧀ꦫꦺꦴꦁ": 5367, "ꦗ꧀ꦫꦼ": 5368, "ꦗ꧀ꦫꦼꦁ": 5369, "ꦗ꧀ꦫ꧀ꦢꦺꦴ": 5370, "ꦗ꧀ꦫ꧀ꦥ꧀": 5371, "ꦗ꧀ꦭꦸ": 5372, "ꦗ꧀ꦱ": 5373, "ꦗ꧀ꦱ꧀ꦕꦶ": 5374, "ꦗ꧀ꦱ꧀ꦕ꧀": 5375, "ꦚꦶꦃ": 5376, "ꦚꦺꦴꦃ": 5377, "ꦚ꧀ꦕꦺꦴ": 5378, "ꦚ꧀ꦕ꧀": 5379, "ꦚ꧀ꦕ꧀ꦠꦶ": 5380, "ꦚ꧀ꦗꦁ": 5381, "ꦚ꧀ꦗꦃ": 5382, "ꦚ꧀ꦥ": 5383, "ꦚ꧀ꦥ꦳ꦼ": 5384, "ꦚ꧀ꦥꦺꦴ": 5385, "ꦚ꧀ꦩ꧀ꦥꦂ": 5386, "ꦚ꧀ꦩ꧀ꦧ": 5387, "ꦚ꧀ꦫꦸ": 5388, "ꦚ꧀ꦫꦼ": 5389, "ꦚ꧀ꦫ꧀": 5390, "ꦚ꧀ꦭꦺ": 5391, "ꦚ꧀ꦲ": 5392, "ꦚ꧀ꦲꦸꦁ": 5393, "ꦛꦸꦁ": 5394, "ꦛꦹꦂ": 5395, "ꦛ꧀ꦐ꧀": 5396, "ꦛ꧀ꦒꦺꦴ": 5397, "ꦛ꧀ꦕ": 5398, "ꦛ꧀ꦛꦂ": 5399, "ꦛ꧀ꦛꦶ": 5400, "ꦛ꧀ꦠ꧀ꦫꦶ": 5401, "ꦛ꧀ꦤꦻ": 5402, "ꦛ꧀ꦥ": 5403, "ꦛ꧀ꦥ꦳": 5404, "ꦛ꧀ꦧ": 5405, "ꦛ꧀ꦩ": 5406, "ꦛ꧀ꦩꦂ": 5407, "ꦛ꧀ꦪ꧀ꦩꦶ": 5408, "ꦛ꧀ꦪ꧀ꦩ꧀": 5409, "ꦛ꧀ꦪ꧀ꦫ꧀": 5410, "ꦛ꧀ꦫꦺ": 5411, "ꦛ꧀ꦫ꧀": 5412, "ꦛ꧀ꦫ꧀ꦤ꧀": 5413, "ꦛ꧀ꦮ": 5414, "ꦛ꧀ꦮꦂ": 5415, "ꦛ꧀ꦮꦻ": 5416, "ꦛ꧀ꦱ": 5417, "ꦛ꧀ꦱꦼ": 5418, "ꦛ꧀ꦱ꧀ꦠꦺꦴ": 5419, "ꦛ꧀ꦲ꧀ꦏ꧀": 5420, "ꦝꦺꦴꦂ": 5421, "ꦝꦺꦴꦃ": 5422, "ꦝ꧀ꦝ": 5423, "ꦝ꧀ꦪ꧀ꦠ": 5424, "ꦝ꧀ꦫ꧀": 5425, "ꦝ꧀ꦮꦸꦂ": 5426, "ꦝ꧀ꦱꦂ": 5427, "ꦝ꧀ꦲ": 5428, "ꦟꦽ": 5429, "ꦠꦻꦁ": 5430, "ꦠꦻꦃ": 5431, "ꦠꦼꦁꦃ": 5432, "ꦠ꧀ꦏꦂ": 5433, "ꦠ꧀ꦏ꦳ꦸ": 5434, "ꦠ꧀ꦒꦶ": 5435, "ꦠ꧀ꦒ꧀ꦥ꧀": 5436, "ꦠ꧀ꦒ꧀ꦭꦺꦴ": 5437, "ꦠ꧀ꦒ꧀ꦭ꧀": 5438, "ꦠ꧀ꦔꦸ": 5439, "ꦠ꧀ꦕꦸꦂ": 5440, "ꦠ꧀ꦕꦺꦴꦁ": 5441, "ꦠ꧀ꦕ꧀ꦠ꧀": 5442, "ꦠ꧀ꦕ꧀ꦢ꧀": 5443, "ꦠ꧀ꦕ꧀ꦩ": 5444, "ꦠ꧀ꦕ꧀ꦭꦶ": 5445, "ꦠ꧀ꦕ꧀ꦭꦼꦂ": 5446, "ꦠ꧀ꦕ꧀ꦲꦶ": 5447, "ꦠ꧀ꦗꦁ": 5448, "ꦠ꧀ꦗ꦳ꦶꦁ": 5449, "ꦠ꧀ꦗꦶꦃ": 5450, "ꦠ꧀ꦗꦼꦁ": 5451, "ꦠ꧀ꦗꦼꦂ": 5452, "ꦠ꧀ꦛꦸ": 5453, "ꦠ꧀ꦛ꧀ꦪ꧀": 5454, "ꦠ꧀ꦠꦻꦂ": 5455, "ꦠ꧀ꦠ꧀ꦏ": 5456, "ꦠ꧀ꦤ꧀ꦧ꧀": 5457, "ꦠ꧀ꦥ꦳ꦁ": 5458, "ꦠ꧀ꦥ꦳ꦸ": 5459, "ꦠ꧀ꦥ꦳꧀ꦏꦸ": 5460, "ꦠ꧀ꦥ꦳꧀ꦢ꧀": 5461, "ꦠ꧀ꦥ꦳꧀ꦲ꧀": 5462, "ꦠ꧀ꦥ꧀ꦤ꧀": 5463, "ꦠ꧀ꦥ꧀ꦭ꧀": 5464, "ꦠ꧀ꦥ꧀ꦱ꧀": 5465, "ꦠ꧀ꦧꦶꦁ": 5466, "ꦠ꧀ꦧꦸ": 5467, "ꦠ꧀ꦧ꧀ꦫ꧀": 5468, "ꦠ꧀ꦧ꧀ꦱ꧀": 5469, "ꦠ꧀ꦩ꧀ꦠ꧀": 5470, "ꦠ꧀ꦩ꧀ꦧꦸ": 5471, "ꦠ꧀ꦪꦃ": 5472, "ꦠ꧀ꦪꦼꦂ": 5473, "ꦠ꧀ꦪ꧀ꦏ꦳ꦼ": 5474, "ꦠ꧀ꦪ꧀ꦕꦼ": 5475, "ꦠ꧀ꦪ꧀ꦕ꧀": 5476, "ꦠ꧀ꦪ꧀ꦠ꧀": 5477, "ꦠ꧀ꦪ꧀ꦥ꧀": 5478, "ꦠ꧀ꦫꦂ": 5479, "ꦠ꧀ꦫꦼꦂ": 5480, "ꦠ꧀ꦫ꧀ꦒꦶ": 5481, "ꦠ꧀ꦫ꧀ꦝꦶ": 5482, "ꦠ꧀ꦫ꧀ꦠꦺꦴ": 5483, "ꦠ꧀ꦫ꧀ꦭ꧀": 5484, "ꦠ꧀ꦫ꧀ꦱꦶ": 5485, "ꦠ꧀ꦭ꧀ꦤ꧀": 5486, "ꦠ꧀ꦱꦃ": 5487, "ꦠ꧀ꦱ꧀ꦠꦺꦴ": 5488, "ꦠ꧀ꦱ꧀ꦢ": 5489, "ꦠ꧀ꦱ꧀ꦥ꦳꧀": 5490, "ꦠ꧀ꦱ꧀ꦱ": 5491, "ꦡꦶ": 5492, "ꦢ꦳ꦃ": 5493, "ꦢ꦳ꦸꦂ": 5494, "ꦢ꦳ꦺꦴꦁ": 5495, "ꦢ꦳꧀ꦠ꧀ꦮꦺꦴ": 5496, "ꦢ꦳꧀ꦧꦂ": 5497, "ꦢ꦳꧀ꦧꦃ": 5498, "ꦢ꦳꧀ꦪ꧀": 5499, "ꦢ꦳꧀ꦪ꧀ꦩꦶ": 5500, "ꦢ꦳꧀ꦲꦸ": 5501, "ꦢꦷꦁ": 5502, "ꦢꦺꦴꦁꦃ": 5503, "ꦢ꧀ꦏꦂ": 5504, "ꦢ꧀ꦏ꧀ꦠ꧀": 5505, "ꦢ꧀ꦐꦸ": 5506, "ꦢ꧀ꦒ꦳": 5507, "ꦢ꧀ꦒ꧀ꦩꦼ": 5508, "ꦢ꧀ꦔ꧀": 5509, "ꦢ꧀ꦔ꧀ꦭ": 5510, "ꦢ꧀ꦕꦂ": 5511, "ꦢ꧀ꦕꦶ": 5512, "ꦢ꧀ꦕꦸꦂ": 5513, "ꦢ꧀ꦕꦺꦴ": 5514, "ꦢ꧀ꦕ꧀ꦢ꧀": 5515, "ꦢ꧀ꦗꦺꦴꦁ": 5516, "ꦢ꧀ꦝꦼ": 5517, "ꦢ꧀ꦠꦼ": 5518, "ꦢ꧀ꦠ꧀ꦗ꦳": 5519, "ꦢ꧀ꦠ꧀ꦩ꧀": 5520, "ꦢ꧀ꦠ꧀ꦮ꧀": 5521, "ꦢ꧀ꦢ꧀ꦐꦸ": 5522, "ꦢ꧀ꦢ꧀ꦭꦶꦁ": 5523, "ꦢ꧀ꦢ꧀ꦱ꧀": 5524, "ꦢ꧀ꦤꦺꦴ": 5525, "ꦢ꧀ꦤ꧀ꦠ꧀": 5526, "ꦢ꧀ꦤ꧀ꦲꦸ": 5527, "ꦢ꧀ꦥ꦳ꦺ": 5528, "ꦢ꧀ꦥ꦳꧀ꦠ꧀": 5529, "ꦢ꧀ꦥ꦳꧀ꦫꦸ": 5530, "ꦢ꧀ꦧ꧀ꦫ": 5531, "ꦢ꧀ꦧ꧀ꦫꦸ": 5532, "ꦢ꧀ꦩꦂ": 5533, "ꦢ꧀ꦩ꧀ꦥ꦳꧀": 5534, "ꦢ꧀ꦩ꧀ꦧ꧀": 5535, "ꦢ꧀ꦪꦴ": 5536, "ꦢ꧀ꦪꦶꦁ": 5537, "ꦢ꧀ꦪ꧀ꦏ꧀": 5538, "ꦢ꧀ꦪ꧀ꦥ꧀": 5539, "ꦢ꧀ꦪ꧀ꦩꦶ": 5540, "ꦢ꧀ꦪ꧀ꦩ꧀": 5541, "ꦢ꧀ꦪ꧀ꦱꦸ": 5542, "ꦢ꧀ꦪ꧀ꦲꦼꦂ": 5543, "ꦢ꧀ꦫꦼꦁ": 5544, "ꦢ꧀ꦫ꧀ꦗ꦳": 5545, "ꦢ꧀ꦭꦂ": 5546, "ꦢ꧀ꦭꦺꦴꦁ": 5547, "ꦢ꧀ꦭ꧀ꦏ꧀": 5548, "ꦢ꧀ꦭ꧀ꦕꦼ": 5549, "ꦢ꧀ꦮꦶꦂ": 5550, "ꦢ꧀ꦮꦸ": 5551, "ꦢ꧀ꦮ꧀ꦫ": 5552, "ꦢ꧀ꦯꦺꦴ": 5553, "ꦢ꧀ꦱ꧀ꦏꦶ": 5554, "ꦢ꧀ꦱ꧀ꦏꦺꦴ": 5555, "ꦢ꧀ꦱ꧀ꦢ꧀": 5556, "ꦢ꧀ꦱ꧀ꦭꦼ": 5557, "ꦢ꧀ꦱ꧀ꦮꦺꦴꦂ": 5558, "ꦣꦁ": 5559, "ꦤꦃꦂ": 5560, "ꦤꦶꦁꦃ": 5561, "ꦤꦷꦁ": 5562, "ꦤ꧀ꦏ꦳ꦸ": 5563, "ꦤ꧀ꦏ꦳ꦼ": 5564, "ꦤ꧀ꦏ꧀ꦏꦸ": 5565, "ꦤ꧀ꦏ꧀ꦒꦺꦴ": 5566, "ꦤ꧀ꦏ꧀ꦠ": 5567, "ꦤ꧀ꦏ꧀ꦤ꧀": 5568, "ꦤ꧀ꦏ꧀ꦧ": 5569, "ꦤ꧀ꦏ꧀ꦩ": 5570, "ꦤ꧀ꦏ꧀ꦪꦸ": 5571, "ꦤ꧀ꦏ꧀ꦪꦺꦴ": 5572, "ꦤ꧀ꦏ꧀ꦭꦶꦁ": 5573, "ꦤ꧀ꦏ꧀ꦭꦻ": 5574, "ꦤ꧀ꦏ꧀ꦭꦼꦂ": 5575, "ꦤ꧀ꦏ꧀ꦮ": 5576, "ꦤ꧀ꦔꦁ": 5577, "ꦤ꧀ꦔꦺ": 5578, "ꦤ꧀ꦔ꧀ꦏꦁ": 5579, "ꦤ꧀ꦔ꧀ꦱ": 5580, "ꦤ꧀ꦕꦷ": 5581, "ꦤ꧀ꦕꦹ": 5582, "ꦤ꧀ꦕ꧀ꦕ꧀": 5583, "ꦤ꧀ꦕ꧀ꦠꦼ": 5584, "ꦤ꧀ꦕ꧀ꦥ": 5585, "ꦤ꧀ꦕ꧀ꦭꦺ": 5586, "ꦤ꧀ꦕ꧀ꦯꦼ": 5587, "ꦤ꧀ꦗ꦳ꦴ": 5588, "ꦤ꧀ꦗ꦳꧀ꦢ꧀": 5589, "ꦤ꧀ꦗ꦳꧀ꦧ꧀": 5590, "ꦤ꧀ꦗ꦳꧀ꦭ": 5591, "ꦤ꧀ꦗꦼꦃ": 5592, "ꦤ꧀ꦗ꧀ꦤ": 5593, "ꦤ꧀ꦗ꧀ꦫꦸ": 5594, "ꦤ꧀ꦗ꧀ꦭ꧀": 5595, "ꦤ꧀ꦚꦶ": 5596, "ꦤ꧀ꦚꦺꦴ": 5597, "ꦤ꧀ꦚꦼ": 5598, "ꦤ꧀ꦚ꧀ꦠꦺꦴ": 5599, "ꦤ꧀ꦛꦺꦴꦂ": 5600, "ꦤ꧀ꦛ꧀ꦫꦼ": 5601, "ꦤ꧀ꦛ꧀ꦫ꧀": 5602, "ꦤ꧀ꦝ꧀ꦫꦺꦴꦁ": 5603, "ꦤ꧀ꦠꦼꦃ": 5604, "ꦤ꧀ꦠ꧀ꦗ꦳": 5605, "ꦤ꧀ꦠ꧀ꦗꦶ": 5606, "ꦤ꧀ꦠ꧀ꦤꦺ": 5607, "ꦤ꧀ꦠ꧀ꦤꦼ": 5608, "ꦤ꧀ꦠ꧀ꦥꦂ": 5609, "ꦤ꧀ꦠ꧀ꦥ꦳ꦺꦴ": 5610, "ꦤ꧀ꦠ꧀ꦧ": 5611, "ꦤ꧀ꦠ꧀ꦫꦺꦃ": 5612, "ꦤ꧀ꦠ꧀ꦮꦶ": 5613, "ꦤ꧀ꦠ꧀ꦮꦺꦴꦂ": 5614, "ꦤ꧀ꦠ꧀ꦮ꧀": 5615, "ꦤ꧀ꦠ꧀ꦱꦼꦂ": 5616, "ꦤ꧀ꦢꦺꦴꦃ": 5617, "ꦤ꧀ꦢ꧀ꦏ": 5618, "ꦤ꧀ꦢ꧀ꦏꦺꦴ": 5619, "ꦤ꧀ꦢ꧀ꦒꦁ": 5620, "ꦤ꧀ꦢ꧀ꦗꦼꦂ": 5621, "ꦤ꧀ꦢ꧀ꦝ": 5622, "ꦤ꧀ꦢ꧀ꦠꦺꦴ": 5623, "ꦤ꧀ꦢ꧀ꦤ꧀": 5624, "ꦤ꧀ꦢ꧀ꦥ꦳ꦺꦴꦂ": 5625, "ꦤ꧀ꦢ꧀ꦧꦸ": 5626, "ꦤ꧀ꦢ꧀ꦧꦼꦂ": 5627, "ꦤ꧀ꦢ꧀ꦩꦶ": 5628, "ꦤ꧀ꦢ꧀ꦩꦼ": 5629, "ꦤ꧀ꦢ꧀ꦪꦺꦴ": 5630, "ꦤ꧀ꦢ꧀ꦮꦼ": 5631, "ꦤ꧀ꦢ꧀ꦯ꧀": 5632, "ꦤ꧀ꦤ꧀ꦏ꧀": 5633, "ꦤ꧀ꦤ꧀ꦗꦁ": 5634, "ꦤ꧀ꦤ꧀ꦠꦃ": 5635, "ꦤ꧀ꦤ꧀ꦢꦼ": 5636, "ꦤ꧀ꦤ꧀ꦧ꧀": 5637, "ꦤ꧀ꦤ꧀ꦱꦶ": 5638, "ꦤ꧀ꦥꦂ": 5639, "ꦤ꧀ꦥ꦳꧀ꦕ꧀": 5640, "ꦤ꧀ꦥ꦳꧀ꦥ꦳": 5641, "ꦤ꧀ꦥ꦳꧀ꦥ꧀": 5642, "ꦤ꧀ꦥ꦳꧀ꦱ꧀": 5643, "ꦤ꧀ꦥꦿꦶ": 5644, "ꦤ꧀ꦥ꧀ꦫꦁ": 5645, "ꦤ꧀ꦥ꧀ꦫꦺ": 5646, "ꦤ꧀ꦧꦴ": 5647, "ꦤ꧀ꦧ꧀": 5648, "ꦤ꧀ꦧ꧀ꦩꦶ": 5649, "ꦤ꧀ꦧ꧀ꦪ": 5650, "ꦤ꧀ꦧ꧀ꦫꦸ": 5651, "ꦤ꧀ꦧ꧀ꦭꦼ": 5652, "ꦤ꧀ꦩꦺꦴꦁ": 5653, "ꦤ꧀ꦩ꧀ꦧꦁ": 5654, "ꦤ꧀ꦩ꧀ꦧꦶ": 5655, "ꦤ꧀ꦩ꧀ꦧꦸꦁ": 5656, "ꦤ꧀ꦩ꧀ꦪꦼ": 5657, "ꦤ꧀ꦩ꧀ꦪ꧀": 5658, "ꦤ꧀ꦫꦸꦃ": 5659, "ꦤ꧀ꦫꦺꦴꦁ": 5660, "ꦤ꧀ꦫ꧀ꦏ꧀": 5661, "ꦤ꧀ꦫ꧀ꦧ": 5662, "ꦤ꧀ꦫ꧀ꦪ": 5663, "ꦤ꧀ꦮꦿꦸꦃ": 5664, "ꦤ꧀ꦮ꧀ꦫꦶ": 5665, "ꦤ꧀ꦱꦴ": 5666, "ꦤ꧀ꦱꦶꦃ": 5667, "ꦤ꧀ꦱ꧀ꦏꦂ": 5668, "ꦤ꧀ꦱ꧀ꦏꦸ": 5669, "ꦤ꧀ꦱ꧀ꦒꦂ": 5670, "ꦤ꧀ꦱ꧀ꦒ꧀": 5671, "ꦤ꧀ꦱ꧀ꦕꦴ": 5672, "ꦤ꧀ꦱ꧀ꦠꦸ": 5673, "ꦤ꧀ꦱ꧀ꦢꦺꦴ": 5674, "ꦤ꧀ꦱ꧀ꦢꦺꦴꦂ": 5675, "ꦤ꧀ꦱ꧀ꦤ꧀": 5676, "ꦤ꧀ꦱ꧀ꦥ꦳꧀": 5677, "ꦤ꧀ꦱ꧀ꦧꦺꦴ": 5678, "ꦤ꧀ꦱ꧀ꦧ꧀": 5679, "ꦤ꧀ꦱ꧀ꦩꦸ": 5680, "ꦤ꧀ꦱ꧀ꦭꦼꦁ": 5681, "ꦤ꧀ꦱ꧀ꦮꦼꦂ": 5682, "ꦤ꧀ꦱ꧀ꦱ꧀": 5683, "ꦤ꧀ꦲꦁ": 5684, "ꦤ꧀ꦲ꧀ꦒ": 5685, "ꦤ꧀ꦲ꧀ꦒ꧀": 5686, "ꦥ꦳ꦶꦃ": 5687, "ꦥ꦳ꦸꦃ": 5688, "ꦥ꦳ꦺꦁ": 5689, "ꦥ꦳ꦺꦴꦃꦂ": 5690, "ꦥ꦳꧀ꦏꦁ": 5691, "ꦥ꦳꧀ꦏꦸ": 5692, "ꦥ꦳꧀ꦏꦼ": 5693, "ꦥ꦳꧀ꦒꦺꦴ": 5694, "ꦥ꦳꧀ꦒ꧀ꦫꦼ": 5695, "ꦥ꦳꧀ꦕꦼ": 5696, "ꦥ꦳꧀ꦕ꧀ꦮ꧀": 5697, "ꦥ꦳꧀ꦗ꧀ꦏ꧀": 5698, "ꦥ꦳꧀ꦚꦶ": 5699, "ꦥ꦳꧀ꦛꦺꦴ": 5700, "ꦥ꦳꧀ꦝ": 5701, "ꦥ꦳꧀ꦠꦸꦃ": 5702, "ꦥ꦳꧀ꦠ꧀ꦢ꧀": 5703, "ꦥ꦳꧀ꦠ꧀ꦩ": 5704, "ꦥ꦳꧀ꦢꦶ": 5705, "ꦥ꦳꧀ꦤ꧀": 5706, "ꦥ꦳꧀ꦤ꧀ꦧ꧀": 5707, "ꦥ꦳꧀ꦥ꦳ꦃ": 5708, "ꦥ꦳꧀ꦥ꦳ꦶꦂ": 5709, "ꦥ꦳꧀ꦥ꦳꧀ꦥ꦳꧀": 5710, "ꦥ꦳꧀ꦥ꦳꧀ꦭꦶ": 5711, "ꦥ꦳꧀ꦥ꦳꧀ꦭꦺꦴ": 5712, "ꦥ꦳꧀ꦥ꧀ꦒ": 5713, "ꦥ꦳꧀ꦥ꧀ꦒ꧀": 5714, "ꦥ꦳꧀ꦥ꧀ꦢ꧀": 5715, "ꦥ꦳꧀ꦧꦺꦴ": 5716, "ꦥ꦳꧀ꦧꦼ": 5717, "ꦥ꦳꧀ꦩꦶ": 5718, "ꦥ꦳꧀ꦫ꧀ꦗꦼ": 5719, "ꦥ꦳꧀ꦫ꧀ꦠꦺꦴ": 5720, "ꦥ꦳꧀ꦫ꧀ꦪꦼꦂ": 5721, "ꦥ꦳꧀ꦭ꧀ꦱꦶ": 5722, "ꦥ꦳꧀ꦯ꧀ꦫ꧀": 5723, "ꦥ꦳꧀ꦱ": 5724, "ꦥ꦳꧀ꦱꦸꦂ": 5725, "ꦥ꦳꧀ꦱꦺꦴꦂ": 5726, "ꦥ꦳꧀ꦱ꧀ꦕꦺꦴ": 5727, "ꦥ꦳꧀ꦱ꧀ꦠꦂ": 5728, "ꦥ꦳꧀ꦱ꧀ꦭ꧀": 5729, "ꦥ꦳꧀ꦱ꧀ꦱꦺꦴ": 5730, "ꦥ꦳꧀ꦲꦂ": 5731, "ꦥ꦳꧀ꦲ꧀ꦏ꧀": 5732, "ꦥ꦳꧀ꦲ꧀ꦥ꦳꧀": 5733, "ꦥꦷꦁ": 5734, "ꦥ꧀ꦏꦺꦴ": 5735, "ꦥ꧀ꦏꦺꦴꦂ": 5736, "ꦥ꧀ꦏ꧀ꦧꦶ": 5737, "ꦥ꧀ꦔꦶ": 5738, "ꦥ꧀ꦔ꧀": 5739, "ꦥ꧀ꦕꦸ": 5740, "ꦥ꧀ꦕꦺꦴ": 5741, "ꦥ꧀ꦕ꧀ꦢ꧀": 5742, "ꦥ꧀ꦗ꦳ꦼ": 5743, "ꦥ꧀ꦗ꧀": 5744, "ꦥ꧀ꦗ꧀ꦏ": 5745, "ꦥ꧀ꦚꦶ": 5746, "ꦥ꧀ꦠꦴꦂ": 5747, "ꦥ꧀ꦠꦶꦁ": 5748, "ꦥ꧀ꦠ꧀ꦠ": 5749, "ꦥ꧀ꦠ꧀ꦥ꦳꧀": 5750, "ꦥ꧀ꦠ꧀ꦧ": 5751, "ꦥ꧀ꦠ꧀ꦩ": 5752, "ꦥ꧀ꦢꦸ": 5753, "ꦥ꧀ꦢ꧀ꦏ꧀": 5754, "ꦥ꧀ꦢ꧀ꦫ": 5755, "ꦥ꧀ꦤ꧀ꦥ꧀": 5756, "ꦥ꧀ꦥ꦳ꦼꦂ": 5757, "ꦥ꧀ꦥꦷ": 5758, "ꦥ꧀ꦥ꧀ꦧ": 5759, "ꦥ꧀ꦥ꧀ꦭ": 5760, "ꦥ꧀ꦥ꧀ꦭꦶꦁ": 5761, "ꦥ꧀ꦥ꧀ꦭꦼꦂ": 5762, "ꦥ꧀ꦧꦸꦂ": 5763, "ꦥ꧀ꦧ꧀ꦥ꦳꧀": 5764, "ꦥ꧀ꦩ꧀ꦏ꧀": 5765, "ꦥ꧀ꦩ꧀ꦕ꧀": 5766, "ꦥ꧀ꦩ꧀ꦥ꧀": 5767, "ꦥ꧀ꦩ꧀ꦫꦼ": 5768, "ꦥ꧀ꦪ꧀ꦒꦂ": 5769, "ꦥ꧀ꦪ꧀ꦗ꦳꧀": 5770, "ꦥ꧀ꦪ꧀ꦛ": 5771, "ꦥ꧀ꦪ꧀ꦛꦺꦴ": 5772, "ꦥ꧀ꦪ꧀ꦠꦶ": 5773, "ꦥ꧀ꦪ꧀ꦤ꧀": 5774, "ꦥ꧀ꦪ꧀ꦫꦺꦴ": 5775, "ꦥ꧀ꦪ꧀ꦭꦸ": 5776, "ꦥ꧀ꦫ꧀ꦏ": 5777, "ꦥ꧀ꦫ꧀ꦫꦼ": 5778, "ꦥ꧀ꦫ꧀ꦱ": 5779, "ꦥ꧀ꦫ꧀ꦱꦶ": 5780, "ꦥ꧀ꦭꦺꦴꦂ": 5781, "ꦥ꧀ꦭ꧀ꦕ꧀": 5782, "ꦥ꧀ꦭ꧀ꦧ꧀": 5783, "ꦥ꧀ꦭ꧀ꦭꦶꦁ": 5784, "ꦥ꧀ꦭ꧀ꦭꦼ": 5785, "ꦥ꧀ꦮ꧀ꦕ꧀": 5786, "ꦥ꧀ꦮ꧀ꦩ꧀": 5787, "ꦥ꧀ꦮ꧀ꦭ꧀": 5788, "ꦥ꧀ꦯꦺꦴ": 5789, "ꦥ꧀ꦱ꧀ꦗ꦳꧀": 5790, "ꦥ꧀ꦱ꧀ꦠꦺꦴ": 5791, "ꦥ꧀ꦱ꧀ꦠꦼꦂ": 5792, "ꦥ꧀ꦱ꧀ꦭꦶ": 5793, "ꦥ꧀ꦱ꧀ꦮꦶ": 5794, "ꦥ꧀ꦲ": 5795, "ꦦ": 5796, "ꦧꦁꦃ": 5797, "ꦧꦴꦃ": 5798, "ꦧꦷꦃ": 5799, "ꦧꦸꦃꦂ": 5800, "ꦧꦹ": 5801, "ꦧ꧀ꦏꦺꦴ": 5802, "ꦧ꧀ꦏ꧀ꦤ꧀": 5803, "ꦧ꧀ꦏ꧀ꦥ꧀": 5804, "ꦧ꧀ꦒꦃ": 5805, "ꦧ꧀ꦒ꧀ꦤ꧀": 5806, "ꦧ꧀ꦒ꧀ꦫꦸ": 5807, "ꦧ꧀ꦒ꧀ꦭꦺꦴ": 5808, "ꦧ꧀ꦒ꧀ꦭꦼ": 5809, "ꦧ꧀ꦕꦸ": 5810, "ꦧ꧀ꦕ꧀ꦗ꦳꧀": 5811, "ꦧ꧀ꦕ꧀ꦭ": 5812, "ꦧ꧀ꦗꦂ": 5813, "ꦧ꧀ꦗ꦳ꦶ": 5814, "ꦧ꧀ꦗ꧀ꦥ꧀": 5815, "ꦧ꧀ꦚꦶ": 5816, "ꦧ꧀ꦝ": 5817, "ꦧ꧀ꦝꦺ": 5818, "ꦧ꧀ꦠ꧀ꦫ": 5819, "ꦧ꧀ꦠ꧀ꦮ꧀": 5820, "ꦧ꧀ꦤꦺꦴ": 5821, "ꦧ꧀ꦤ꧀ꦠꦸ": 5822, "ꦧ꧀ꦥ꦳ꦺꦴ": 5823, "ꦧ꧀ꦥ꦳꧀ꦫꦼ": 5824, "ꦧ꧀ꦥꦶ": 5825, "ꦧ꧀ꦥ꧀ꦏ꦳꧀": 5826, "ꦧ꧀ꦥ꧀ꦫꦶ": 5827, "ꦧ꧀ꦥ꧀ꦫꦼ": 5828, "ꦧ꧀ꦥ꧀ꦭ꧀": 5829, "ꦧ꧀ꦧꦂ": 5830, "ꦧ꧀ꦧꦺ": 5831, "ꦧ꧀ꦧ꧀ꦗ꦳꧀": 5832, "ꦧ꧀ꦧ꧀ꦫꦶ": 5833, "ꦧ꧀ꦩꦼꦂ": 5834, "ꦧ꧀ꦩ꧀ꦕ꧀": 5835, "ꦧ꧀ꦩ꧀ꦥ꧀": 5836, "ꦧ꧀ꦪꦁ": 5837, "ꦧ꧀ꦪ꧀ꦗꦺ": 5838, "ꦧ꧀ꦪ꧀ꦠꦺꦴ": 5839, "ꦧ꧀ꦪ꧀ꦫꦶ": 5840, "ꦧ꧀ꦪ꧀ꦫꦼ": 5841, "ꦧ꧀ꦫꦼꦁ": 5842, "ꦧ꧀ꦫ꧀ꦗ꦳": 5843, "ꦧ꧀ꦫ꧀ꦤ꧀": 5844, "ꦧ꧀ꦫ꧀ꦩ꧀": 5845, "ꦧ꧀ꦭ꧀ꦏ꧀": 5846, "ꦧ꧀ꦭ꧀ꦒ": 5847, "ꦧ꧀ꦭ꧀ꦭꦼ": 5848, "ꦧ꧀ꦭ꧀ꦱ꧀": 5849, "ꦧ꧀ꦮꦼꦃꦂ": 5850, "ꦧ꧀ꦮ꧀ꦲ꧀": 5851, "ꦧ꧀ꦯ": 5852, "ꦧ꧀ꦯꦂ": 5853, "ꦧ꧀ꦱꦺꦂ": 5854, "ꦧ꧀ꦱ꧀ꦏꦶ": 5855, "ꦧ꧀ꦱ꧀ꦕ": 5856, "ꦧ꧀ꦱ꧀ꦕꦸ": 5857, "ꦧ꧀ꦱ꧀ꦠꦺ": 5858, "ꦧ꧀ꦱ꧀ꦠꦺꦴ": 5859, "ꦧ꧀ꦱ꧀ꦠꦻ": 5860, "ꦧ꧀ꦱ꧀ꦥ꦳꧀": 5861, "ꦧ꧀ꦱ꧀ꦧ": 5862, "ꦧ꧀ꦱ꧀ꦱ꧀": 5863, "ꦩꦁꦂ": 5864, "ꦩꦿ": 5865, "ꦩꦿꦃ": 5866, "ꦩ꧀ꦏꦁ": 5867, "ꦩ꧀ꦏꦂ": 5868, "ꦩ꧀ꦏꦺꦴꦂ": 5869, "ꦩ꧀ꦏ꧀ꦏ": 5870, "ꦩ꧀ꦏ꧀ꦩ꧀": 5871, "ꦩ꧀ꦐꦶ": 5872, "ꦩ꧀ꦒꦶ": 5873, "ꦩ꧀ꦒꦶꦁ": 5874, "ꦩ꧀ꦒ꧀ꦕꦺꦴ": 5875, "ꦩ꧀ꦒ꧀ꦪꦺꦴꦁ": 5876, "ꦩ꧀ꦒ꧀ꦫꦸ": 5877, "ꦩ꧀ꦒ꧀ꦱ": 5878, "ꦩ꧀ꦔꦼ": 5879, "ꦩ꧀ꦔꦼꦂ": 5880, "ꦩ꧀ꦔ꧀": 5881, "ꦩ꧀ꦕ꧀ꦒꦼ": 5882, "ꦩ꧀ꦕ꧀ꦕꦸꦂ": 5883, "ꦩ꧀ꦕ꧀ꦩ꧀": 5884, "ꦩ꧀ꦕ꧀ꦭꦼ": 5885, "ꦩ꧀ꦗꦺꦴ": 5886, "ꦩ꧀ꦛꦁ": 5887, "ꦩ꧀ꦠꦺ": 5888, "ꦩ꧀ꦠꦺꦴꦂ": 5889, "ꦩ꧀ꦢꦁ": 5890, "ꦩ꧀ꦢꦃ": 5891, "ꦩ꧀ꦢꦶꦃ": 5892, "ꦩ꧀ꦢꦸꦂ": 5893, "ꦩ꧀ꦢꦼꦂ": 5894, "ꦩ꧀ꦢ꧀ꦩ": 5895, "ꦩ꧀ꦢ꧀ꦱ꧀": 5896, "ꦩ꧀ꦤꦁ": 5897, "ꦩ꧀ꦤ꧀ꦠ": 5898, "ꦩ꧀ꦤ꧀ꦧ": 5899, "ꦩ꧀ꦤ꧀ꦱꦺꦴ": 5900, "ꦩ꧀ꦥ꧀ꦕ꧀": 5901, "ꦩ꧀ꦥ꧀ꦝꦼ": 5902, "ꦩ꧀ꦥ꧀ꦠꦼ": 5903, "ꦩ꧀ꦥ꧀ꦢꦼ": 5904, "ꦩ꧀ꦥ꧀ꦤꦶ": 5905, "ꦩ꧀ꦥ꧀ꦤ꧀": 5906, "ꦩ꧀ꦥ꧀ꦥꦺꦴ": 5907, "ꦩ꧀ꦥ꧀ꦧ꧀": 5908, "ꦩ꧀ꦥ꧀ꦭꦻ": 5909, "ꦩ꧀ꦥ꧀ꦭꦼꦃ": 5910, "ꦩ꧀ꦥ꧀ꦱꦼ": 5911, "ꦩ꧀ꦥ꧀ꦲꦶ": 5912, "ꦩ꧀ꦧꦶꦃ": 5913, "ꦩ꧀ꦧ꧀ꦥ꧀": 5914, "ꦩ꧀ꦧ꧀ꦪꦺꦴ": 5915, "ꦩ꧀ꦧ꧀ꦫꦺ": 5916, "ꦩ꧀ꦧ꧀ꦭꦶꦁ": 5917, "ꦩ꧀ꦧ꧀ꦭꦼꦂ": 5918, "ꦩ꧀ꦩ꧀ꦒ꧀": 5919, "ꦩ꧀ꦩ꧀ꦥꦸ": 5920, "ꦩ꧀ꦪ꧀ꦢꦶ": 5921, "ꦩ꧀ꦪ꧀ꦤ꧀": 5922, "ꦩ꧀ꦪ꧀ꦫꦺꦴ": 5923, "ꦩ꧀ꦪ꧀ꦭꦶ": 5924, "ꦩ꧀ꦪ꧀ꦭꦺꦴ": 5925, "ꦩ꧀ꦪ꧀ꦭꦼ": 5926, "ꦩ꧀ꦪ꧀ꦭ꧀": 5927, "ꦩ꧀ꦫꦴ": 5928, "ꦩ꧀ꦫꦼꦁ": 5929, "ꦩ꧀ꦫꦼꦃ": 5930, "ꦩ꧀ꦫ꧀ꦤ꧀": 5931, "ꦩ꧀ꦫ꧀ꦱ": 5932, "ꦩ꧀ꦭ꧀ꦕ꧀": 5933, "ꦩ꧀ꦭ꧀ꦧꦸ": 5934, "ꦩ꧀ꦮꦁ": 5935, "ꦩ꧀ꦮꦸꦁ": 5936, "ꦩ꧀ꦯ": 5937, "ꦩ꧀ꦱꦁ": 5938, "ꦩ꧀ꦱꦂ": 5939, "ꦩ꧀ꦱꦺꦴꦂ": 5940, "ꦩ꧀ꦱꦼꦂ": 5941, "ꦩ꧀ꦱ꧀ꦠꦺꦴ": 5942, "ꦩ꧀ꦱ꧀ꦢ": 5943, "ꦩ꧀ꦱ꧀ꦧꦸꦂ": 5944, "ꦩ꧀ꦱ꧀ꦧ꧀": 5945, "ꦩ꧀ꦱ꧀ꦮꦺꦴꦂ": 5946, "ꦩ꧀ꦲ꧀ꦪꦁ": 5947, "ꦪꦺꦂ": 5948, "ꦪ꧀ꦏ꧀ꦥ꧀": 5949, "ꦪ꧀ꦏ꧀ꦧꦶ": 5950, "ꦪ꧀ꦒ꦳ꦸꦂ": 5951, "ꦪ꧀ꦒ꧀ꦢ": 5952, "ꦪ꧀ꦔ꧀ꦪ꧀": 5953, "ꦪ꧀ꦕꦶꦁ": 5954, "ꦪ꧀ꦕ꧀ꦏꦺꦴ": 5955, "ꦪ꧀ꦗ": 5956, "ꦪ꧀ꦗ꦳꧀ꦫ꧀": 5957, "ꦪ꧀ꦛꦶ": 5958, "ꦪ꧀ꦛꦼ": 5959, "ꦪ꧀ꦛ꧀": 5960, "ꦪ꧀ꦛ꧀ꦫꦶ": 5961, "ꦪ꧀ꦛ꧀ꦮꦻ": 5962, "ꦪ꧀ꦢ꧀ꦫ": 5963, "ꦪ꧀ꦢ꧀ꦫꦸ": 5964, "ꦪ꧀ꦤ꧀ꦩ": 5965, "ꦪ꧀ꦤ꧀ꦯ": 5966, "ꦪ꧀ꦥꦺꦴ": 5967, "ꦪ꧀ꦥꦼ": 5968, "ꦪ꧀ꦥ꧀ꦠ꧀": 5969, "ꦪ꧀ꦥ꧀ꦥ꧀": 5970, "ꦪ꧀ꦥ꧀ꦩ꧀": 5971, "ꦪ꧀ꦧꦁ": 5972, "ꦪ꧀ꦧꦼ": 5973, "ꦪ꧀ꦧ꧀ꦢꦷ": 5974, "ꦪ꧀ꦧ꧀ꦥ꧀": 5975, "ꦪ꧀ꦩꦃ": 5976, "ꦪ꧀ꦩ꧀": 5977, "ꦪ꧀ꦩ꧀ꦒꦹ": 5978, "ꦪ꧀ꦩ꧀ꦧ꧀": 5979, "ꦪ꧀ꦪꦼꦃ": 5980, "ꦪ꧀ꦪ꧀ꦗ꦳꧀": 5981, "ꦪ꧀ꦫꦂ": 5982, "ꦪ꧀ꦭ꧀ꦏꦶꦁ": 5983, "ꦪ꧀ꦭ꧀ꦧꦶ": 5984, "ꦪ꧀ꦱꦸ": 5985, "ꦪ꧀ꦱ꧀ꦏ꧀": 5986, "ꦪ꧀ꦱ꧀ꦠꦸ": 5987, "ꦪ꧀ꦱ꧀ꦠꦼꦂ": 5988, "ꦪ꧀ꦱ꧀ꦠ꧀": 5989, "ꦪ꧀ꦱ꧀ꦤꦼ": 5990, "ꦫ꧀ꦏ": 5991, "ꦫ꧀ꦏ꧀ꦏ꧀": 5992, "ꦫ꧀ꦒ꧀": 5993, "ꦫ꧀ꦒ꧀ꦪ": 5994, "ꦫ꧀ꦕ꧀ꦢ꧀": 5995, "ꦫ꧀ꦗ꦳꧀ꦒ꧀": 5996, "ꦫ꧀ꦗ꦳꧀ꦧꦼꦂ": 5997, "ꦫ꧀ꦗꦸ": 5998, "ꦫ꧀ꦛ꧀ꦏ꧀": 5999, "ꦫ꧀ꦠꦼ": 6000, "ꦫ꧀ꦠ꧀ꦩ꧀": 6001, "ꦫ꧀ꦠ꧀ꦭ꧀": 6002, "ꦫ꧀ꦢꦼ": 6003, "ꦫ꧀ꦤꦶ": 6004, "ꦫ꧀ꦤꦼ": 6005, "ꦫ꧀ꦤ꧀ꦠꦼ": 6006, "ꦫ꧀ꦤ꧀ꦢ꧀": 6007, "ꦫ꧀ꦤ꧀ꦧ꧀": 6008, "ꦫ꧀ꦥ꧀ꦏ꧀": 6009, "ꦫ꧀ꦥ꧀ꦫ꧀": 6010, "ꦫ꧀ꦧꦸꦂ": 6011, "ꦫ꧀ꦧ꧀ꦫ꧀": 6012, "ꦫ꧀ꦩ꧀ꦒ꧀": 6013, "ꦫ꧀ꦩ꧀ꦭ": 6014, "ꦫ꧀ꦪ꧀ꦏꦶ": 6015, "ꦫ꧀ꦪ꧀ꦕ꧀": 6016, "ꦫ꧀ꦪ꧀ꦢꦸ": 6017, "ꦫ꧀ꦪ꧀ꦢ꧀": 6018, "ꦫ꧀ꦪ꧀ꦤ꧀": 6019, "ꦫ꧀ꦪ꧀ꦩ": 6020, "ꦫ꧀ꦪ꧀ꦪ": 6021, "ꦫ꧀ꦪ꧀ꦪ꧀": 6022, "ꦫ꧀ꦫ": 6023, "ꦫ꧀ꦫꦺꦴ": 6024, "ꦫ꧀ꦫ꧀": 6025, "ꦫ꧀ꦭ꧀": 6026, "ꦫ꧀ꦭ꧀ꦕ꧀": 6027, "ꦫ꧀ꦱ꧀ꦠ": 6028, "ꦫ꧀ꦱ꧀ꦥ꦳ꦶ": 6029, "ꦫ꧀ꦱ꧀ꦥ꦳꧀": 6030, "ꦫ꧀ꦲ꧀": 6031, "ꦫ꧀ꦲ꧀ꦱ꧀": 6032, "ꦭꦶꦁꦃ": 6033, "ꦭꦾ": 6034, "ꦭ꧀ꦏꦻ": 6035, "ꦭ꧀ꦏ꧀ꦗ꦳꧀": 6036, "ꦭ꧀ꦏ꧀ꦠ꧀": 6037, "ꦭ꧀ꦏ꧀ꦪ": 6038, "ꦭ꧀ꦏ꧀ꦭ꧀": 6039, "ꦭ꧀ꦏ꧀ꦮꦶ": 6040, "ꦭ꧀ꦐꦸꦂ": 6041, "ꦭ꧀ꦐ꧀": 6042, "ꦭ꧀ꦒ꦳": 6043, "ꦭ꧀ꦒꦸꦁ": 6044, "ꦭ꧀ꦒꦺꦴꦂ": 6045, "ꦭ꧀ꦒ꧀ꦪꦺꦴ": 6046, "ꦭ꧀ꦒ꧀ꦭꦶ": 6047, "ꦭ꧀ꦒ꧀ꦮꦸ": 6048, "ꦭ꧀ꦒ꧀ꦮ꧀": 6049, "ꦭ꧀ꦔ": 6050, "ꦭ꧀ꦔ꧀ꦏꦁ": 6051, "ꦭ꧀ꦕꦶꦁ": 6052, "ꦭ꧀ꦕꦺꦴꦂ": 6053, "ꦭ꧀ꦕꦼꦂ": 6054, "ꦭ꧀ꦕ꧀ꦗ꦳ꦼ": 6055, "ꦭ꧀ꦕ꧀ꦗ꦳꧀": 6056, "ꦭ꧀ꦕ꧀ꦩꦼ": 6057, "ꦭ꧀ꦕ꧀ꦫꦼ": 6058, "ꦭ꧀ꦗ꦳ꦶ": 6059, "ꦭ꧀ꦗ꦳꧀ꦧ꧀": 6060, "ꦭ꧀ꦗ꦳꧀ꦩ": 6061, "ꦭ꧀ꦗ꦳꧀ꦭ꧀": 6062, "ꦭ꧀ꦗ꦳꧀ꦮꦼ": 6063, "ꦭ꧀ꦚ꧀ꦠ꧀": 6064, "ꦭ꧀ꦛꦺꦴ": 6065, "ꦭ꧀ꦝꦼ": 6066, "ꦭ꧀ꦠꦸꦁ": 6067, "ꦭ꧀ꦠ꧀ꦥꦼ": 6068, "ꦭ꧀ꦠ꧀ꦫꦸ": 6069, "ꦭ꧀ꦠ꧀ꦱꦺꦴ": 6070, "ꦭ꧀ꦢ꧀ꦗꦶ": 6071, "ꦭ꧀ꦢ꧀ꦫꦸ": 6072, "ꦭ꧀ꦢ꧀ꦫ꧀": 6073, "ꦭ꧀ꦢ꧀ꦮ꧀": 6074, "ꦭ꧀ꦤ꧀ꦢ": 6075, "ꦭ꧀ꦥ꦳ꦴ": 6076, "ꦭ꧀ꦥ꦳ꦶꦁ": 6077, "ꦭ꧀ꦥ꦳ꦸ": 6078, "ꦭ꧀ꦥ꦳ꦻ": 6079, "ꦭ꧀ꦥ꦳꧀ꦢꦺꦴ": 6080, "ꦭ꧀ꦥ꦳꧀ꦩ": 6081, "ꦭ꧀ꦥ꦳꧀ꦭꦶ": 6082, "ꦭ꧀ꦥ꦳꧀ꦭꦸ": 6083, "ꦭ꧀ꦥ꧀ꦒ꧀": 6084, "ꦭ꧀ꦥ꧀ꦠꦺꦴ": 6085, "ꦭ꧀ꦥ꧀ꦪꦼ": 6086, "ꦭ꧀ꦥ꧀ꦫꦺꦴ": 6087, "ꦭ꧀ꦥ꧀ꦭꦶ": 6088, "ꦭ꧀ꦧꦶꦁ": 6089, "ꦭ꧀ꦧꦸꦁ": 6090, "ꦭ꧀ꦧ꧀ꦏ꧀": 6091, "ꦭ꧀ꦧ꧀ꦠꦶ": 6092, "ꦭ꧀ꦧ꧀ꦥ꦳꧀": 6093, "ꦭ꧀ꦧ꧀ꦩꦶ": 6094, "ꦭ꧀ꦩ꧀ꦏꦼ": 6095, "ꦭ꧀ꦩ꧀ꦠꦂ": 6096, "ꦭ꧀ꦩ꧀ꦢꦺ": 6097, "ꦭ꧀ꦩ꧀ꦥ꦳ꦼ": 6098, "ꦭ꧀ꦩ꧀ꦫꦺꦴ": 6099, "ꦭ꧀ꦩ꧀ꦱꦼ": 6100, "ꦭ꧀ꦪ꧀ꦏꦶ": 6101, "ꦭ꧀ꦪ꧀ꦕꦂ": 6102, "ꦭ꧀ꦪ꧀ꦢꦺꦴꦂ": 6103, "ꦭ꧀ꦪ꧀ꦢ꧀": 6104, "ꦭ꧀ꦪ꧀ꦤꦺ": 6105, "ꦭ꧀ꦪ꧀ꦥ": 6106, "ꦭ꧀ꦪ꧀ꦥ꦳ꦶ": 6107, "ꦭ꧀ꦪ꧀ꦧ": 6108, "ꦭ꧀ꦪ꧀ꦧꦶ": 6109, "ꦭ꧀ꦫꦸ": 6110, "ꦭ꧀ꦫ꧀ꦠ꧀": 6111, "ꦭ꧀ꦫ꧀ꦩ꧀": 6112, "ꦭ꧀ꦭꦶꦂ": 6113, "ꦭ꧀ꦭꦸꦁ": 6114, "ꦭ꧀ꦭ꧀ꦒ꧀": 6115, "ꦭ꧀ꦭ꧀ꦕꦼ": 6116, "ꦭ꧀ꦭ꧀ꦢ꧀": 6117, "ꦭ꧀ꦭ꧀ꦤ": 6118, "ꦭ꧀ꦭ꧀ꦧꦶ": 6119, "ꦭ꧀ꦭ꧀ꦩꦶ": 6120, "ꦭ꧀ꦭ꧀ꦩ꧀": 6121, "ꦭ꧀ꦭ꧀ꦪ": 6122, "ꦭ꧀ꦮꦼꦂ": 6123, "ꦭ꧀ꦮ꧀ꦪꦃ": 6124, "ꦭ꧀ꦱꦁ": 6125, "ꦭ꧀ꦱ꧀ꦏ": 6126, "ꦭ꧀ꦱ꧀ꦕꦸ": 6127, "ꦭ꧀ꦱ꧀ꦕꦺꦴ": 6128, "ꦭ꧀ꦱ꧀ꦗ꧀": 6129, "ꦭ꧀ꦱ꧀ꦠꦶꦁ": 6130, "ꦭ꧀ꦱ꧀ꦢꦶ": 6131, "ꦭ꧀ꦱ꧀ꦥ꦳꧀": 6132, "ꦭ꧀ꦱ꧀ꦭꦶ": 6133, "ꦭ꧀ꦲꦶꦁ": 6134, "ꦭ꧀ꦲꦺꦴꦂ": 6135, "ꦭ꧀ꦲꦺꦴꦃ": 6136, "ꦭ꧀ꦲ꧀ꦫ꧀": 6137, "ꦮꦃꦂ": 6138, "ꦮꦷꦃ": 6139, "ꦮꦹꦁ": 6140, "ꦮꦻꦃ": 6141, "ꦮ꧀ꦏ꧀ꦯꦼ": 6142, "ꦮ꧀ꦐ꧀ꦮ꧀": 6143, "ꦮ꧀ꦒ꧀": 6144, "ꦮ꧀ꦔ꧀ꦱꦸ": 6145, "ꦮ꧀ꦛꦼꦂ": 6146, "ꦮ꧀ꦛ꧀": 6147, "ꦮ꧀ꦠꦼꦂ": 6148, "ꦮ꧀ꦢꦶ": 6149, "ꦮ꧀ꦢꦸ": 6150, "ꦮ꧀ꦢ꧀ꦫ꧀": 6151, "ꦮ꧀ꦤꦺꦃ": 6152, "ꦮ꧀ꦥ꦳ꦺꦴꦂ": 6153, "ꦮ꧀ꦥ꦳꧀ꦥ꧀": 6154, "ꦮ꧀ꦥ꧀": 6155, "ꦮ꧀ꦧꦸꦂ": 6156, "ꦮ꧀ꦧ꧀ꦪ꧀": 6157, "ꦮ꧀ꦧ꧀ꦫꦶ": 6158, "ꦮ꧀ꦫꦺ": 6159, "ꦮ꧀ꦭ꧀ꦧ꧀": 6160, "ꦮ꧀ꦭ꧀ꦮ꧀": 6161, "ꦮ꧀ꦮꦶꦂ": 6162, "ꦮ꧀ꦮ꧀": 6163, "ꦮ꧀ꦲꦶꦂ": 6164, "ꦮ꧀ꦲꦸ": 6165, "ꦮ꧀ꦲ꧀ꦤꦼ": 6166, "ꦯꦹ": 6167, "ꦯ꧀ꦏꦸꦂ": 6168, "ꦯ꧀ꦐ꧀": 6169, "ꦯ꧀ꦔ꧀ꦤ": 6170, "ꦯ꧀ꦕꦶ": 6171, "ꦯ꧀ꦕ꧀": 6172, "ꦯ꧀ꦕ꧀ꦏ꧀": 6173, "ꦯ꧀ꦠꦼ": 6174, "ꦯ꧀ꦡꦶ": 6175, "ꦯ꧀ꦢꦼ": 6176, "ꦯ꧀ꦢ꧀ꦤꦺ": 6177, "ꦯ꧀ꦤꦺꦴ": 6178, "ꦯ꧀ꦤꦼ": 6179, "ꦯ꧀ꦤ꧀ꦠ": 6180, "ꦯ꧀ꦥ": 6181, "ꦯ꧀ꦥ꦳꧀ꦪ꧀": 6182, "ꦯ꧀ꦥꦸ": 6183, "ꦯ꧀ꦩ꧀ꦧ": 6184, "ꦯ꧀ꦪꦶ": 6185, "ꦯ꧀ꦫ꧀ꦠꦼ": 6186, "ꦯ꧀ꦫ꧀ꦩꦶ": 6187, "ꦯ꧀ꦭ꧀ꦮꦼ": 6188, "ꦯ꧀ꦯꦶ": 6189, "ꦯ꧀ꦱ꧀ꦠꦺꦴ": 6190, "ꦱꦴꦃ": 6191, "ꦱꦷꦁ": 6192, "ꦱꦹꦂ": 6193, "ꦱ꧀ꦏꦁ": 6194, "ꦱ꧀ꦏꦸꦂ": 6195, "ꦱ꧀ꦏꦻꦁ": 6196, "ꦱ꧀ꦏ꧀ꦤ꧀": 6197, "ꦱ꧀ꦏ꧀ꦥꦺꦴꦂ": 6198, "ꦱ꧀ꦏ꧀ꦩꦼ": 6199, "ꦱ꧀ꦏ꧀ꦪꦶ": 6200, "ꦱ꧀ꦏ꧀ꦫꦸ": 6201, "ꦱ꧀ꦏ꧀ꦭꦺ": 6202, "ꦱ꧀ꦏ꧀ꦭ꧀": 6203, "ꦱ꧀ꦏ꧀ꦮꦶ": 6204, "ꦱ꧀ꦏ꧀ꦱꦸ": 6205, "ꦱ꧀ꦐ꧀ꦭ꧀": 6206, "ꦱ꧀ꦒ꧀ꦏ꧀": 6207, "ꦱ꧀ꦒ꧀ꦥ꧀": 6208, "ꦱ꧀ꦒ꧀ꦩ꧀": 6209, "ꦱ꧀ꦒ꧀ꦫꦺꦴ": 6210, "ꦱ꧀ꦒ꧀ꦱ꧀": 6211, "ꦱ꧀ꦔ": 6212, "ꦱ꧀ꦕꦴꦂ": 6213, "ꦱ꧀ꦕ꧀ꦕꦼ": 6214, "ꦱ꧀ꦕ꧀ꦤ": 6215, "ꦱ꧀ꦕ꧀ꦧꦼꦂ": 6216, "ꦱ꧀ꦕ꧀ꦭꦶ": 6217, "ꦱ꧀ꦕ꧀ꦭ꧀": 6218, "ꦱ꧀ꦗ꦳꧀ꦏ": 6219, "ꦱ꧀ꦗ꦳꧀ꦏꦶ": 6220, "ꦱ꧀ꦗ꦳꧀ꦤ꧀": 6221, "ꦱ꧀ꦗ꦳꧀ꦭ꧀": 6222, "ꦱ꧀ꦗꦴ": 6223, "ꦱ꧀ꦚ꧀ꦢꦼꦂ": 6224, "ꦱ꧀ꦛꦂ": 6225, "ꦱ꧀ꦛ꧀ꦧ꧀": 6226, "ꦱ꧀ꦛ꧀ꦪ": 6227, "ꦱ꧀ꦝ": 6228, "ꦱ꧀ꦠꦃ": 6229, "ꦱ꧀ꦠꦴꦁ": 6230, "ꦱ꧀ꦠ꧀ꦒꦂ": 6231, "ꦱ꧀ꦠ꧀ꦗ꦳ꦶ": 6232, "ꦱ꧀ꦠ꧀ꦢ": 6233, "ꦱ꧀ꦠ꧀ꦤ": 6234, "ꦱ꧀ꦠ꧀ꦤꦸ": 6235, "ꦱ꧀ꦠ꧀ꦥ꦳ꦺꦴ": 6236, "ꦱ꧀ꦠ꧀ꦥ꦳ꦼ": 6237, "ꦱ꧀ꦠ꧀ꦥꦺꦴ": 6238, "ꦱ꧀ꦠ꧀ꦩꦺꦴ": 6239, "ꦱ꧀ꦠ꧀ꦭꦺ": 6240, "ꦱ꧀ꦠ꧀ꦱꦸ": 6241, "ꦱ꧀ꦠ꧀ꦱꦼ": 6242, "ꦱ꧀ꦢ꧀ꦢ꧀": 6243, "ꦱ꧀ꦢ꧀ꦥ꦳꧀": 6244, "ꦱ꧀ꦢ꧀ꦥ꧀": 6245, "ꦱ꧀ꦢ꧀ꦫ꧀": 6246, "ꦱ꧀ꦤꦶꦁ": 6247, "ꦱ꧀ꦤ꧀ꦏ꧀": 6248, "ꦱ꧀ꦤ꧀ꦢꦼ": 6249, "ꦱ꧀ꦤ꧀ꦧꦼꦂ": 6250, "ꦱ꧀ꦤ꧀ꦩ꧀": 6251, "ꦱ꧀ꦤ꧀ꦱꦼ": 6252, "ꦱ꧀ꦥ꦳ꦻ": 6253, "ꦱ꧀ꦥ꦳꧀ꦒ꧀": 6254, "ꦱ꧀ꦥꦴꦂ": 6255, "ꦱ꧀ꦥ꧀ꦐ꧀": 6256, "ꦱ꧀ꦥ꧀ꦠ꧀": 6257, "ꦱ꧀ꦥ꧀ꦪꦼ": 6258, "ꦱ꧀ꦥ꧀ꦫꦸ": 6259, "ꦱ꧀ꦥ꧀ꦭ꧀": 6260, "ꦱ꧀ꦧ꧀ꦕ꧀": 6261, "ꦱ꧀ꦩꦶꦂ": 6262, "ꦱ꧀ꦩ꧀ꦠꦺꦴ": 6263, "ꦱ꧀ꦩ꧀ꦠ꧀": 6264, "ꦱ꧀ꦩ꧀ꦧꦺꦴ": 6265, "ꦱ꧀ꦫꦺꦴꦃ": 6266, "ꦱ꧀ꦫ꧀ꦒꦼ": 6267, "ꦱ꧀ꦫ꧀ꦠ": 6268, "ꦱ꧀ꦫ꧀ꦤ꧀": 6269, "ꦱ꧀ꦫ꧀ꦧꦶ": 6270, "ꦱ꧀ꦫ꧀ꦪ꧀": 6271, "ꦱ꧀ꦭꦴ": 6272, "ꦱ꧀ꦭꦼꦁ": 6273, "ꦱ꧀ꦭ꧀ꦥ꦳꧀": 6274, "ꦱ꧀ꦭ꧀ꦪꦸ": 6275, "ꦱ꧀ꦭ꧀ꦭꦸ": 6276, "ꦱ꧀ꦮꦻ": 6277, "ꦱ꧀ꦮ꧀ꦥ꦳꧀": 6278, "ꦱ꧀ꦱꦶꦂ": 6279, "ꦱ꧀ꦱꦶꦃ": 6280, "ꦱ꧀ꦱ꧀ꦏ": 6281, "ꦱ꧀ꦱ꧀ꦏ꧀": 6282, "ꦱ꧀ꦱ꧀ꦢ": 6283, "ꦱ꧀ꦱ꧀ꦮ꧀": 6284, "ꦱ꧀ꦲꦶꦁ": 6285, "ꦱ꧀ꦲ꧀": 6286, "ꦱ꧀ꦲ꧀ꦏ꧀": 6287, "ꦱ꧀ꦲ꧀ꦭ꧀": 6288, "ꦱ꧀ꦲ꧀ꦮꦸꦂ": 6289, "ꦲꦁꦂ": 6290, "ꦲꦼꦃꦂ": 6291, "ꦲ꧀ꦏ꧀ꦩ": 6292, "ꦲ꧀ꦐ꧀": 6293, "ꦲ꧀ꦒ꧀ꦕ꧀": 6294, "ꦲ꧀ꦕ": 6295, "ꦲ꧀ꦠ꧀ꦠ꧀": 6296, "ꦲ꧀ꦢ꧀ꦥ꧀": 6297, "ꦲ꧀ꦥ꦳꧀ꦏ꧀": 6298, "ꦲ꧀ꦥ꧀ꦤꦼ": 6299, "ꦲ꧀ꦪ꧀ꦥ": 6300, "ꦲ꧀ꦪ꧀ꦫ": 6301, "ꦲ꧀ꦪ꧀ꦭ": 6302, "ꦲ꧀ꦪ꧀ꦭꦺꦴ": 6303, "ꦲ꧀ꦫꦼ": 6304, "ꦲ꧀ꦫꦼꦂ": 6305, "ꦲ꧀ꦫ꧀ꦧ꧀": 6306, "ꦲ꧀ꦭꦺꦴ": 6307, "ꦲ꧀ꦭꦼ": 6308, "ꦲ꧀ꦭ꧀": 6309, "ꦲ꧀ꦭ꧀ꦠ": 6310, "ꦲ꧀ꦭ꧀ꦲ": 6311, "ꦲ꧀ꦱꦶꦁ": 6312, "ꦲ꧀ꦱ꧀": 6313, "ꦲ꧀ꦱ꧀ꦭ꧀": 6314, "ꦲ꧀ꦱ꧀ꦱꦼ": 6315, "꧋": 6316, "ꦈꦁꦃ": 6317, "ꦈꦹꦁ": 6318, "ꦏ꦳ꦴ": 6319, "ꦏ꦳ꦺꦂ": 6320, "ꦏ꦳ꦺꦴꦂ": 6321, "ꦏ꦳꧀ꦏ꧀": 6322, "ꦏ꦳꧀ꦒ": 6323, "ꦏ꦳꧀ꦠꦼ": 6324, "ꦏ꦳꧀ꦤ": 6325, "ꦏ꦳꧀ꦥ꦳ꦶ": 6326, "ꦏ꦳꧀ꦥꦸꦂ": 6327, "ꦏ꦳꧀ꦧꦼꦂ": 6328, "ꦏ꦳꧀ꦧ꧀ꦫ꧀": 6329, "ꦏ꦳꧀ꦩꦶ": 6330, "ꦏ꦳꧀ꦪ": 6331, "ꦏ꦳꧀ꦪꦂ": 6332, "ꦏ꦳꧀ꦭꦶ": 6333, "ꦏ꦳꧀ꦯ꧀": 6334, "ꦏ꦳꧀ꦱ꧀ꦩꦶ": 6335, "ꦏ꦳꧀ꦲ꧀ꦭ": 6336, "ꦏꦻꦂ": 6337, "ꦏꦼꦃꦂ": 6338, "ꦏꦿ": 6339, "ꦏ꧀ꦏꦶꦂ": 6340, "ꦏ꧀ꦏꦸꦁ": 6341, "ꦏ꧀ꦏꦸꦃ": 6342, "ꦏ꧀ꦏꦺꦃ": 6343, "ꦏ꧀ꦏꦺꦴꦂ": 6344, "ꦏ꧀ꦏ꧀ꦏ꧀": 6345, "ꦏ꧀ꦏ꧀ꦔ꧀": 6346, "ꦏ꧀ꦏ꧀ꦗ꧀": 6347, "ꦏ꧀ꦏ꧀ꦢ꧀": 6348, "ꦏ꧀ꦏ꧀ꦥ꦳꧀": 6349, "ꦏ꧀ꦏ꧀ꦥ꧀": 6350, "ꦏ꧀ꦏ꧀ꦧ꧀": 6351, "ꦏ꧀ꦏ꧀ꦪꦺꦴ": 6352, "ꦏ꧀ꦏ꧀ꦭꦸ": 6353, "ꦏ꧀ꦏ꧀ꦭꦼ": 6354, "ꦏ꧀ꦏ꧀ꦭ꧀": 6355, "ꦏ꧀ꦏ꧀ꦱꦸ": 6356, "ꦏ꧀ꦒꦁ": 6357, "ꦏ꧀ꦒꦸꦁ": 6358, "ꦏ꧀ꦒ꧀ꦤ꧀": 6359, "ꦏ꧀ꦒ꧀ꦧ꧀": 6360, "ꦏ꧀ꦒ꧀ꦫ": 6361, "ꦏ꧀ꦒ꧀ꦭꦶ": 6362, "ꦏ꧀ꦒ꧀ꦮꦺꦴ": 6363, "ꦏ꧀ꦔ꧀ꦒꦼ": 6364, "ꦏ꧀ꦕ꧀ꦩ꧀": 6365, "ꦏ꧀ꦕ꧀ꦪ꧀": 6366, "ꦏ꧀ꦕ꧀ꦫ꧀": 6367, "ꦏ꧀ꦗ꦳ꦴ": 6368, "ꦏ꧀ꦗ꦳ꦺꦴ": 6369, "ꦏ꧀ꦗ꧀ꦥ꦳꧀": 6370, "ꦏ꧀ꦚꦸ": 6371, "ꦏ꧀ꦚ꧀ꦱ꧀": 6372, "ꦏ꧀ꦛ": 6373, "ꦏ꧀ꦛꦃ": 6374, "ꦏ꧀ꦛꦺꦴ": 6375, "ꦏ꧀ꦝꦺꦴ": 6376, "ꦏ꧀ꦝꦼꦁ": 6377, "ꦏ꧀ꦝ꧀": 6378, "ꦏ꧀ꦠ꦳ꦶꦂ": 6379, "ꦏ꧀ꦠꦷ": 6380, "ꦏ꧀ꦠ꧀ꦫꦸꦂ": 6381, "ꦏ꧀ꦠ꧀ꦫꦼ": 6382, "ꦏ꧀ꦠ꧀ꦭꦺ": 6383, "ꦏ꧀ꦠ꧀ꦭ꧀": 6384, "ꦏ꧀ꦢꦶꦃ": 6385, "ꦏ꧀ꦢ꧀": 6386, "ꦏ꧀ꦢ꧀ꦠ꧀": 6387, "ꦏ꧀ꦢ꧀ꦫꦶ": 6388, "ꦏ꧀ꦢ꧀ꦭ": 6389, "ꦏ꧀ꦤꦶꦁ": 6390, "ꦏ꧀ꦤꦸꦂ": 6391, "ꦏ꧀ꦤꦺꦴꦁ": 6392, "ꦏ꧀ꦤ꧀ꦗꦼ": 6393, "ꦏ꧀ꦤ꧀ꦥꦶ": 6394, "ꦏ꧀ꦥ꦳ꦃ": 6395, "ꦏ꧀ꦥ꦳ꦺꦴꦂ": 6396, "ꦏ꧀ꦥ꧀ꦥ꧀": 6397, "ꦏ꧀ꦥ꧀ꦧ": 6398, "ꦏ꧀ꦥ꧀ꦫꦁ": 6399, "ꦏ꧀ꦥ꧀ꦫꦶ": 6400, "ꦏ꧀ꦥ꧀ꦫꦺ": 6401, "ꦏ꧀ꦥ꧀ꦫ꧀": 6402, "ꦏ꧀ꦥ꧀ꦭꦴ": 6403, "ꦏ꧀ꦥ꧀ꦭꦸ": 6404, "ꦏ꧀ꦥ꧀ꦭꦼ": 6405, "ꦏ꧀ꦧꦁ": 6406, "ꦏ꧀ꦧꦸꦁ": 6407, "ꦏ꧀ꦧꦺ": 6408, "ꦏ꧀ꦧ꧀ꦤ꧀": 6409, "ꦏ꧀ꦧ꧀ꦪꦺꦴ": 6410, "ꦏ꧀ꦧ꧀ꦪ꧀": 6411, "ꦏ꧀ꦧ꧀ꦫ": 6412, "ꦏ꧀ꦧ꧀ꦫꦂ": 6413, "ꦏ꧀ꦧ꧀ꦫꦺꦴ": 6414, "ꦏ꧀ꦧ꧀ꦫ꧀": 6415, "ꦏ꧀ꦧ꧀ꦭꦶꦁ": 6416, "ꦏ꧀ꦩꦷ": 6417, "ꦏ꧀ꦩꦸꦁ": 6418, "ꦏ꧀ꦩ꧀ꦠ꧀": 6419, "ꦏ꧀ꦩ꧀ꦢ꧀": 6420, "ꦏ꧀ꦩ꧀ꦤ꧀": 6421, "ꦏ꧀ꦩ꧀ꦥ꧀": 6422, "ꦏ꧀ꦩ꧀ꦫ꧀": 6423, "ꦏ꧀ꦪꦴ": 6424, "ꦏ꧀ꦪꦹ": 6425, "ꦏ꧀ꦪ꧀ꦗ꦳꧀": 6426, "ꦏ꧀ꦪ꧀ꦛꦶ": 6427, "ꦏ꧀ꦪ꧀ꦤꦺꦴ": 6428, "ꦏ꧀ꦪ꧀ꦥꦼ": 6429, "ꦏ꧀ꦪ꧀ꦭ": 6430, "ꦏ꧀ꦪ꧀ꦭꦶ": 6431, "ꦏ꧀ꦪ꧀ꦭ꧀": 6432, "ꦏ꧀ꦫꦶꦃ": 6433, "ꦏ꧀ꦫꦺꦁ": 6434, "ꦏ꧀ꦫꦺꦴꦂ": 6435, "ꦏ꧀ꦫꦺꦴꦃ": 6436, "ꦏ꧀ꦫꦼꦁ": 6437, "ꦏ꧀ꦫ꧀ꦏꦺꦴ": 6438, "ꦏ꧀ꦫ꧀ꦗ꦳": 6439, "ꦏ꧀ꦫ꧀ꦩꦼ": 6440, "ꦏ꧀ꦫ꧀ꦪꦂ": 6441, "ꦏ꧀ꦫ꧀ꦪꦼ": 6442, "ꦏ꧀ꦭꦸꦃ": 6443, "ꦏ꧀ꦭꦺꦂ": 6444, "ꦏ꧀ꦭ꧀ꦗꦸ": 6445, "ꦏ꧀ꦭ꧀ꦥ꧀": 6446, "ꦏ꧀ꦭ꧀ꦫ꧀": 6447, "ꦏ꧀ꦭ꧀ꦲꦸ": 6448, "ꦏ꧀ꦮꦻ": 6449, "ꦏ꧀ꦮꦼꦂ": 6450, "ꦏ꧀ꦮ꧀ꦤ꧀": 6451, "ꦏ꧀ꦮ꧀ꦫ꧀": 6452, "ꦏ꧀ꦮ꧀ꦲ꧀": 6453, "ꦏ꧀ꦯꦂ": 6454, "ꦏ꧀ꦯꦃ": 6455, "ꦏ꧀ꦯ꧀": 6456, "ꦏ꧀ꦯ꧀ꦩꦶ": 6457, "ꦏ꧀ꦱꦃ": 6458, "ꦏ꧀ꦱꦸꦁ": 6459, "ꦏ꧀ꦱꦸꦂ": 6460, "ꦏ꧀ꦱꦻ": 6461, "ꦏ꧀ꦱꦼꦂ": 6462, "ꦏ꧀ꦱ꧀ꦏꦺꦴ": 6463, "ꦏ꧀ꦱ꧀ꦏꦼ": 6464, "ꦏ꧀ꦱ꧀ꦏꦼꦂ": 6465, "ꦏ꧀ꦱ꧀ꦒ": 6466, "ꦏ꧀ꦱ꧀ꦒꦼꦂ": 6467, "ꦏ꧀ꦱ꧀ꦕꦶ": 6468, "ꦏ꧀ꦱ꧀ꦗ꦳ꦼ": 6469, "ꦏ꧀ꦱ꧀ꦗꦶꦁ": 6470, "ꦏ꧀ꦱ꧀ꦗꦼ": 6471, "ꦏ꧀ꦱ꧀ꦛ": 6472, "ꦏ꧀ꦱ꧀ꦢꦺꦴꦂ": 6473, "ꦏ꧀ꦱ꧀ꦢꦼꦂ": 6474, "ꦏ꧀ꦱ꧀ꦤꦼ": 6475, "ꦏ꧀ꦱ꧀ꦥ꦳": 6476, "ꦏ꧀ꦱ꧀ꦧꦶ": 6477, "ꦏ꧀ꦱ꧀ꦧꦺꦴ": 6478, "ꦏ꧀ꦱ꧀ꦩꦺꦴ": 6479, "ꦏ꧀ꦱ꧀ꦪꦃ": 6480, "ꦏ꧀ꦱ꧀ꦪ꧀": 6481, "ꦏ꧀ꦱ꧀ꦫꦸꦁ": 6482, "ꦏ꧀ꦱ꧀ꦫꦺꦴ": 6483, "ꦏ꧀ꦱ꧀ꦭ": 6484, "ꦏ꧀ꦱ꧀ꦮꦶ": 6485, "ꦏ꧀ꦱ꧀ꦮꦺꦴꦂ": 6486, "ꦏ꧀ꦱ꧀ꦯ꧀": 6487, "ꦏ꧀ꦱ꧀ꦱꦸꦁ": 6488, "ꦐꦷ": 6489, "ꦐ꧀ꦐ꧀": 6490, "ꦐ꧀ꦔ꧀": 6491, "ꦐ꧀ꦕ꧀ꦫ꧀": 6492, "ꦐ꧀ꦕ꧀ꦮ꧀": 6493, "ꦐ꧀ꦠ꧀": 6494, "ꦐ꧀ꦢ꧀": 6495, "ꦐ꧀ꦤ꧀": 6496, "ꦐ꧀ꦥ꦳ꦶ": 6497, "ꦐ꧀ꦥ꦳꧀ꦒ": 6498, "ꦐ꧀ꦧꦺꦴ": 6499, "ꦐ꧀ꦧ꧀": 6500, "ꦐ꧀ꦪꦸ": 6501, "ꦐ꧀ꦫꦂ": 6502, "ꦐ꧀ꦫꦺꦴ": 6503, "ꦐ꧀ꦫ꧀ꦮ꧀": 6504, "ꦐ꧀ꦭꦸ": 6505, "ꦐ꧀ꦭ꧀": 6506, "ꦐ꧀ꦭ꧀ꦢ꧀": 6507, "ꦐ꧀ꦮꦶ": 6508, "ꦐ꧀ꦯ": 6509, "ꦐ꧀ꦱꦺꦴ": 6510, "ꦐ꧀ꦱ꧀ꦮ꧀": 6511, "ꦒ꦳ꦃ": 6512, "ꦒ꦳ꦺꦴꦁ": 6513, "ꦒ꦳꧀ꦒꦼ": 6514, "ꦒ꦳꧀ꦠꦂ": 6515, "ꦒ꦳꧀ꦠ꧀ꦧꦺꦴ": 6516, "ꦒ꦳꧀ꦠ꧀ꦪꦼ": 6517, "ꦒ꦳꧀ꦠ꧀ꦫꦶꦁ": 6518, "ꦒ꦳꧀ꦠ꧀ꦫꦻ": 6519, "ꦒ꦳꧀ꦠ꧀ꦭꦼ": 6520, "ꦒ꦳꧀ꦥ": 6521, "ꦒ꦳꧀ꦥ꦳ꦂ": 6522, "ꦒ꦳꧀ꦥ꦳ꦸꦂ": 6523, "ꦒ꦳꧀ꦧꦸ": 6524, "ꦒ꦳꧀ꦧ꧀ꦫꦼ": 6525, "ꦒ꦳꧀ꦫꦶꦂ": 6526, "ꦒ꦳꧀ꦭꦻ": 6527, "ꦒ꦳꧀ꦭ꧀ꦪ꧀": 6528, "ꦒ꦳꧀ꦱ꧀ꦕꦺꦴ": 6529, "ꦒꦴꦁ": 6530, "ꦒꦷꦃ": 6531, "ꦒꦹꦂ": 6532, "ꦒꦻꦃ": 6533, "ꦒꦽ": 6534, "ꦒ꧀ꦏꦸ": 6535, "ꦒ꧀ꦏꦸꦁ": 6536, "ꦒ꧀ꦏ꧀ꦢ꧀": 6537, "ꦒ꧀ꦏ꧀ꦤꦶ": 6538, "ꦒ꧀ꦏ꧀ꦤ꧀": 6539, "ꦒ꧀ꦏ꧀ꦧꦶ": 6540, "ꦒ꧀ꦏ꧀ꦫꦺ": 6541, "ꦒ꧀ꦐꦸ": 6542, "ꦒ꧀ꦒ꧀ꦒꦼ": 6543, "ꦒ꧀ꦒ꧀ꦒ꧀": 6544, "ꦒ꧀ꦒ꧀ꦕ": 6545, "ꦒ꧀ꦒ꧀ꦕ꧀": 6546, "ꦒ꧀ꦒ꧀ꦠ꧀": 6547, "ꦒ꧀ꦒ꧀ꦤꦺꦴ": 6548, "ꦒ꧀ꦒ꧀ꦥ꦳": 6549, "ꦒ꧀ꦒ꧀ꦥꦺꦴ": 6550, "ꦒ꧀ꦒ꧀ꦩ꧀": 6551, "ꦒ꧀ꦒ꧀ꦫꦼ": 6552, "ꦒ꧀ꦔ꧀": 6553, "ꦒ꧀ꦔ꧀ꦒꦼ": 6554, "ꦒ꧀ꦕꦴ": 6555, "ꦒ꧀ꦕꦶ": 6556, "ꦒ꧀ꦕ꧀ꦐ꧀": 6557, "ꦒ꧀ꦗ꦳": 6558, "ꦒ꧀ꦗ꦳ꦶ": 6559, "ꦒ꧀ꦗ꦳꧀": 6560, "ꦒ꧀ꦗ꦳꧀ꦲꦺꦴ": 6561, "ꦒ꧀ꦗ꧀": 6562, "ꦒ꧀ꦗ꧀ꦏ꧀": 6563, "ꦒ꧀ꦠ": 6564, "ꦒ꧀ꦠꦸ": 6565, "ꦒ꧀ꦠꦻ": 6566, "ꦒ꧀ꦠꦼ": 6567, "ꦒ꧀ꦠ꧀ꦧ꧀": 6568, "ꦒ꧀ꦠ꧀ꦩ": 6569, "ꦒ꧀ꦠ꧀ꦪ": 6570, "ꦒ꧀ꦠ꧀ꦫ꧀": 6571, "ꦒ꧀ꦢ꧀ꦪ꧀": 6572, "ꦒ꧀ꦢ꧀ꦮꦸꦂ": 6573, "ꦒ꧀ꦢ꧀ꦱ꧀": 6574, "ꦒ꧀ꦤꦸꦁ": 6575, "ꦒ꧀ꦤꦻ": 6576, "ꦒ꧀ꦤ꧀ꦏ꧀": 6577, "ꦒ꧀ꦤ꧀ꦛꦶ": 6578, "ꦒ꧀ꦤ꧀ꦝ": 6579, "ꦒ꧀ꦤ꧀ꦝꦸ": 6580, "ꦒ꧀ꦤ꧀ꦠꦺꦴ": 6581, "ꦒ꧀ꦤ꧀ꦢꦸ": 6582, "ꦒ꧀ꦤ꧀ꦢ꧀": 6583, "ꦒ꧀ꦤ꧀ꦥ꧀": 6584, "ꦒ꧀ꦤ꧀ꦩ꧀": 6585, "ꦒ꧀ꦤ꧀ꦫ꧀": 6586, "ꦒ꧀ꦤ꧀ꦱ꧀": 6587, "ꦒ꧀ꦥ꦳ꦂ": 6588, "ꦒ꧀ꦥ꦳꧀ꦭ": 6589, "ꦒ꧀ꦥ꧀ꦥ꦳ꦶ": 6590, "ꦒ꧀ꦥ꧀ꦫꦼ": 6591, "ꦒ꧀ꦧꦸꦁ": 6592, "ꦒ꧀ꦧ꧀ꦥ꧀": 6593, "ꦒ꧀ꦧ꧀ꦫꦸ": 6594, "ꦒ꧀ꦧ꧀ꦫꦼ": 6595, "ꦒ꧀ꦧ꧀ꦭ": 6596, "ꦒ꧀ꦩ꧀ꦕ꧀": 6597, "ꦒ꧀ꦩ꧀ꦥꦁ": 6598, "ꦒ꧀ꦪꦃ": 6599, "ꦒ꧀ꦪꦺ": 6600, "ꦒ꧀ꦪ꧀ꦕ": 6601, "ꦒ꧀ꦪ꧀ꦚ꧀": 6602, "ꦒ꧀ꦪ꧀ꦤ꧀": 6603, "ꦒ꧀ꦪ꧀ꦮꦺꦴꦂ": 6604, "ꦒ꧀ꦪ꧀ꦱꦶ": 6605, "ꦒ꧀ꦫꦸꦃ": 6606, "ꦒ꧀ꦫ꧀ꦗ": 6607, "ꦒ꧀ꦫ꧀ꦗ꦳ꦶ": 6608, "ꦒ꧀ꦫ꧀ꦝꦺ": 6609, "ꦒ꧀ꦫ꧀ꦤ꧀": 6610, "ꦒ꧀ꦫ꧀ꦩꦂ": 6611, "ꦒ꧀ꦭꦸꦁ": 6612, "ꦒ꧀ꦭ꧀ꦥ꦳ꦂ": 6613, "ꦒ꧀ꦭ꧀ꦥꦸꦁ": 6614, "ꦒ꧀ꦭ꧀ꦥ꧀": 6615, "ꦒ꧀ꦭ꧀ꦧ꧀": 6616, "ꦒ꧀ꦭ꧀ꦮꦶ": 6617, "ꦒ꧀ꦮꦁꦃ": 6618, "ꦒ꧀ꦮ꧀ꦫ": 6619, "ꦒ꧀ꦮ꧀ꦫꦼ": 6620, "ꦒ꧀ꦯꦶ": 6621, "ꦒ꧀ꦯꦺꦴ": 6622, "ꦒ꧀ꦯ꧀ꦏ꧀": 6623, "ꦒ꧀ꦯ꧀ꦕꦼ": 6624, "ꦒ꧀ꦱꦸꦁ": 6625, "ꦒ꧀ꦱ꧀ꦕꦼ": 6626, "ꦒ꧀ꦱ꧀ꦠꦼ": 6627, "ꦒ꧀ꦱ꧀ꦢꦺꦴꦂ": 6628, "ꦒ꧀ꦱ꧀ꦢ꧀": 6629, "ꦒ꧀ꦱ꧀ꦥ꧀": 6630, "ꦔꦸꦃ": 6631, "ꦔꦺꦃ": 6632, "ꦔꦺꦴꦃ": 6633, "ꦔꦽ": 6634, "ꦔ꧀ꦏꦸ": 6635, "ꦔ꧀ꦏ꧀ꦱꦶ": 6636, "ꦔ꧀ꦐꦶ": 6637, "ꦔ꧀ꦒꦴ": 6638, "ꦔ꧀ꦒꦶꦁ": 6639, "ꦔ꧀ꦒꦺꦁ": 6640, "ꦔ꧀ꦒꦺꦴꦂ": 6641, "ꦔ꧀ꦒꦼꦁ": 6642, "ꦔ꧀ꦒ꧀ꦏ꧀": 6643, "ꦔ꧀ꦒ꧀ꦫꦻ": 6644, "ꦔ꧀ꦒ꧀ꦮ": 6645, "ꦔ꧀ꦔꦺꦴ": 6646, "ꦔ꧀ꦔ꧀ꦒꦺꦴ": 6647, "ꦔ꧀ꦕ": 6648, "ꦔ꧀ꦕ꧀ꦏ꧀": 6649, "ꦔ꧀ꦗ꦳꧀ꦲ꧀": 6650, "ꦔ꧀ꦗꦺꦴ": 6651, "ꦔ꧀ꦗꦼ": 6652, "ꦔ꧀ꦢꦴ": 6653, "ꦔ꧀ꦢ꧀": 6654, "ꦔ꧀ꦤꦸ": 6655, "ꦔ꧀ꦤ꧀ꦗ": 6656, "ꦔ꧀ꦤ꧀ꦝꦸ": 6657, "ꦔ꧀ꦤ꧀ꦠꦺꦴ": 6658, "ꦔ꧀ꦥ꦳꧀": 6659, "ꦔ꧀ꦩꦺꦴꦁ": 6660, "ꦔ꧀ꦩꦼ": 6661, "ꦔ꧀ꦩ꧀ꦧꦃ": 6662, "ꦔ꧀ꦪꦁ": 6663, "ꦔ꧀ꦫꦺꦴꦁ": 6664, "ꦔ꧀ꦫ꧀": 6665, "ꦔ꧀ꦫ꧀ꦩ": 6666, "ꦔ꧀ꦭꦺꦴꦁ": 6667, "ꦔ꧀ꦭ꧀ꦭꦻ": 6668, "ꦔ꧀ꦮꦺꦴ": 6669, "ꦔ꧀ꦯ꧀": 6670, "ꦔ꧀ꦱꦶ": 6671, "ꦔ꧀ꦱꦸ": 6672, "ꦔ꧀ꦱ꧀ꦧꦼꦂ": 6673, "ꦔ꧀ꦲꦺ": 6674, "ꦔ꧀ꦲꦺꦴꦂ": 6675, "ꦔ꧀ꦲ꧀": 6676, "ꦕꦸꦁꦃ": 6677, "ꦕꦺꦴꦁꦂ": 6678, "ꦕ꧀ꦏ꦳ꦸ": 6679, "ꦕ꧀ꦏ꦳꧀ꦭꦺꦴ": 6680, "ꦕ꧀ꦏꦷ": 6681, "ꦕ꧀ꦏ꧀ꦕ꧀": 6682, "ꦕ꧀ꦏ꧀ꦚ": 6683, "ꦕ꧀ꦏ꧀ꦠꦻ": 6684, "ꦕ꧀ꦏ꧀ꦢ꧀": 6685, "ꦕ꧀ꦏ꧀ꦥ꦳": 6686, "ꦕ꧀ꦏ꧀ꦥ꦳ꦼ": 6687, "ꦕ꧀ꦏ꧀ꦧꦶꦂ": 6688, "ꦕ꧀ꦏ꧀ꦧꦸ": 6689, "ꦕ꧀ꦏ꧀ꦧꦼ": 6690, "ꦕ꧀ꦏ꧀ꦫ": 6691, "ꦕ꧀ꦏ꧀ꦫꦼ": 6692, "ꦕ꧀ꦏ꧀ꦭꦸꦁ": 6693, "ꦕ꧀ꦐ꧀ꦲꦺꦴ": 6694, "ꦕ꧀ꦒ": 6695, "ꦕ꧀ꦒꦺꦴ": 6696, "ꦕ꧀ꦒ꧀ꦒ꧀": 6697, "ꦕ꧀ꦒ꧀ꦱ꧀": 6698, "ꦕ꧀ꦕꦶꦁ": 6699, "ꦕ꧀ꦕꦸꦂ": 6700, "ꦕ꧀ꦕ꧀ꦏ꧀": 6701, "ꦕ꧀ꦕ꧀ꦒ꧀": 6702, "ꦕ꧀ꦕ꧀ꦕꦸ": 6703, "ꦕ꧀ꦗ꦳꧀ꦏꦶ": 6704, "ꦕ꧀ꦗ꦳꧀ꦏꦼ": 6705, "ꦕ꧀ꦗ꦳꧀ꦕ꧀": 6706, "ꦕ꧀ꦗ꦳꧀ꦧꦺꦴꦂ": 6707, "ꦕ꧀ꦛꦼ": 6708, "ꦕ꧀ꦠꦹꦂ": 6709, "ꦕ꧀ꦠꦺꦂ": 6710, "ꦕ꧀ꦠ꧀ꦗꦼ": 6711, "ꦕ꧀ꦠ꧀ꦧꦸ": 6712, "ꦕ꧀ꦠ꧀ꦪꦶ": 6713, "ꦕ꧀ꦠ꧀ꦪꦼ": 6714, "ꦕ꧀ꦠ꧀ꦭ": 6715, "ꦕ꧀ꦠ꧀ꦭꦶ": 6716, "ꦕ꧀ꦠ꧀ꦭꦶꦁ": 6717, "ꦕ꧀ꦠ꧀ꦭ꧀": 6718, "ꦕ꧀ꦠ꧀ꦱꦺꦴ": 6719, "ꦕ꧀ꦢ꧀ꦤꦶ": 6720, "ꦕ꧀ꦢ꧀ꦥ꧀": 6721, "ꦕ꧀ꦢ꧀ꦫ꧀": 6722, "ꦕ꧀ꦢ꧀ꦭꦼ": 6723, "ꦕ꧀ꦤꦸ": 6724, "ꦕ꧀ꦤ꧀ꦕ꧀": 6725, "ꦕ꧀ꦤ꧀ꦝꦶ": 6726, "ꦕ꧀ꦤ꧀ꦝꦺ": 6727, "ꦕ꧀ꦤ꧀ꦠꦸ": 6728, "ꦕ꧀ꦤ꧀ꦩꦶ": 6729, "ꦕ꧀ꦥ꦳ꦶ": 6730, "ꦕ꧀ꦥ꦳ꦸ": 6731, "ꦕ꧀ꦥ꦳꧀ꦢ꧀": 6732, "ꦕ꧀ꦥ꦳꧀ꦥ꦳꧀": 6733, "ꦕ꧀ꦥ꦳꧀ꦧ꧀": 6734, "ꦕ꧀ꦥꦼꦂ": 6735, "ꦕ꧀ꦥ꧀": 6736, "ꦕ꧀ꦥ꧀ꦠ꧀": 6737, "ꦕ꧀ꦥ꧀ꦤ꧀": 6738, "ꦕ꧀ꦥ꧀ꦫꦺꦴ": 6739, "ꦕ꧀ꦧ": 6740, "ꦕ꧀ꦧꦺꦴꦂ": 6741, "ꦕ꧀ꦧꦼꦂ": 6742, "ꦕ꧀ꦧ꧀ꦥ꦳꧀": 6743, "ꦕ꧀ꦧ꧀ꦥ꧀": 6744, "ꦕ꧀ꦧ꧀ꦫ꧀": 6745, "ꦕ꧀ꦩꦃ": 6746, "ꦕ꧀ꦩꦸ": 6747, "ꦕ꧀ꦩ꧀ꦥ꧀": 6748, "ꦕ꧀ꦪꦺꦴꦂ": 6749, "ꦕ꧀ꦪꦼꦃ": 6750, "ꦕ꧀ꦪ꧀ꦗ꧀": 6751, "ꦕ꧀ꦪ꧀ꦠꦸ": 6752, "ꦕ꧀ꦪ꧀ꦢꦶ": 6753, "ꦕ꧀ꦪ꧀ꦢꦼꦂ": 6754, "ꦕ꧀ꦪ꧀ꦤꦶ": 6755, "ꦕ꧀ꦪ꧀ꦥꦶ": 6756, "ꦕ꧀ꦪ꧀ꦧꦶ": 6757, "ꦕ꧀ꦪ꧀ꦧꦺꦴꦂ": 6758, "ꦕ꧀ꦫꦴ": 6759, "ꦕ꧀ꦫꦺꦴꦃ": 6760, "ꦕ꧀ꦫ꧀ꦲꦼ": 6761, "ꦕ꧀ꦭꦸꦁ": 6762, "ꦕ꧀ꦭꦺꦴꦂ": 6763, "ꦕ꧀ꦭꦼꦁ": 6764, "ꦕ꧀ꦭ꧀ꦫ꧀": 6765, "ꦕ꧀ꦭ꧀ꦱ꧀": 6766, "ꦕ꧀ꦮꦸꦂ": 6767, "ꦕ꧀ꦮꦺꦴ": 6768, "ꦕ꧀ꦱꦶꦂ": 6769, "ꦕ꧀ꦱꦸ": 6770, "ꦕ꧀ꦱꦺꦴꦁꦂ": 6771, "ꦕ꧀ꦱ꧀ꦏꦼ": 6772, "ꦕ꧀ꦱ꧀ꦠꦺꦴꦂ": 6773, "ꦕ꧀ꦱ꧀ꦥꦼꦂ": 6774, "ꦕ꧀ꦱ꧀ꦥ꧀": 6775, "ꦕ꧀ꦱ꧀ꦩꦂ": 6776, "ꦕ꧀ꦲꦂ": 6777, "ꦕ꧀ꦲ꧀ꦫꦼ": 6778, "ꦗ꦳ꦃꦂ": 6779, "ꦗ꦳ꦼꦃ": 6780, "ꦗ꦳꧀ꦏ꦳": 6781, "ꦗ꦳꧀ꦏꦺꦴ": 6782, "ꦗ꦳꧀ꦏꦻ": 6783, "ꦗ꦳꧀ꦏꦼ": 6784, "ꦗ꦳꧀ꦒꦺꦴ": 6785, "ꦗ꦳꧀ꦗ꦳꧀ꦕꦺꦴ": 6786, "ꦗ꦳꧀ꦗ꦳꧀ꦥ꦳ꦼ": 6787, "ꦗ꦳꧀ꦗ꦳꧀ꦧ꧀": 6788, "ꦗ꦳꧀ꦗ꦳꧀ꦭ꧀": 6789, "ꦗ꦳꧀ꦗ꧀": 6790, "ꦗ꦳꧀ꦠ꧀ꦏꦼ": 6791, "ꦗ꦳꧀ꦢꦶ": 6792, "ꦗ꦳꧀ꦢꦼ": 6793, "ꦗ꦳꧀ꦢ꧀": 6794, "ꦗ꦳꧀ꦢ꧀ꦤꦶ": 6795, "ꦗ꦳꧀ꦤꦃ": 6796, "ꦗ꦳꧀ꦤꦺꦴꦂ": 6797, "ꦗ꦳꧀ꦤꦼꦂ": 6798, "ꦗ꦳꧀ꦤ꧀ꦗ꦳꧀": 6799, "ꦗ꦳꧀ꦥ꦳꧀": 6800, "ꦗ꦳꧀ꦥꦼ": 6801, "ꦗ꦳꧀ꦧ꧀": 6802, "ꦗ꦳꧀ꦩꦺꦴ": 6803, "ꦗ꦳꧀ꦩꦺꦴꦂ": 6804, "ꦗ꦳꧀ꦩ꧀ꦧꦶ": 6805, "ꦗ꦳꧀ꦪ꧀ꦏꦺꦴ": 6806, "ꦗ꦳꧀ꦪ꧀ꦏ꧀": 6807, "ꦗ꦳꧀ꦪ꧀ꦕ": 6808, "ꦗ꦳꧀ꦪ꧀ꦚ꧀": 6809, "ꦗ꦳꧀ꦪ꧀ꦢꦼ": 6810, "ꦗ꦳꧀ꦪ꧀ꦢ꧀": 6811, "ꦗ꦳꧀ꦪ꧀ꦩ": 6812, "ꦗ꦳꧀ꦪ꧀ꦩꦼ": 6813, "ꦗ꦳꧀ꦪ꧀ꦫ": 6814, "ꦗ꦳꧀ꦪ꧀ꦫ꧀": 6815, "ꦗ꦳꧀ꦪ꧀ꦱ꧀": 6816, "ꦗ꦳꧀ꦫꦺꦴ": 6817, "ꦗ꦳꧀ꦭꦶ": 6818, "ꦗ꦳꧀ꦭ꧀ꦏ꧀": 6819, "ꦗ꦳꧀ꦮꦴꦂ": 6820, "ꦗ꦳꧀ꦮꦶꦂ": 6821, "ꦗ꦳꧀ꦱ": 6822, "ꦗ꦳꧀ꦱ꧀ꦏꦺꦴ": 6823, "ꦗ꦳꧀ꦱ꧀ꦏ꧀": 6824, "ꦗ꦳꧀ꦱ꧀ꦭ꧀": 6825, "ꦗ꦳꧀ꦲꦷ": 6826, "ꦗ꦳꧀ꦲ꧀ꦏꦶ": 6827, "ꦗ꦳꧀ꦲ꧀ꦏ꧀": 6828, "ꦗ꦳꧀ꦲ꧀ꦚꦸ": 6829, "ꦗ꦳꧀ꦲ꧀ꦢ": 6830, "ꦗ꦳꧀ꦲ꧀ꦤꦶ": 6831, "ꦗ꦳꧀ꦲ꧀ꦤꦼ": 6832, "ꦗꦺꦴꦁꦃ": 6833, "ꦗꦼꦃ": 6834, "ꦗ꧀ꦏ꦳ꦼ": 6835, "ꦗ꧀ꦏꦶ": 6836, "ꦗ꧀ꦏ꧀ꦩ": 6837, "ꦗ꧀ꦏ꧀ꦮ": 6838, "ꦗ꧀ꦏ꧀ꦯꦼꦂ": 6839, "ꦗ꧀ꦏ꧀ꦱꦶ": 6840, "ꦗ꧀ꦏ꧀ꦱꦸ": 6841, "ꦗ꧀ꦏ꧀ꦱꦼ": 6842, "ꦗ꧀ꦒꦸ": 6843, "ꦗ꧀ꦒ꧀ꦥ": 6844, "ꦗ꧀ꦒ꧀ꦭꦶ": 6845, "ꦗ꧀ꦔꦺꦴ": 6846, "ꦗ꧀ꦕꦷ": 6847, "ꦗ꧀ꦕ꧀ꦕ꧀": 6848, "ꦗ꧀ꦕ꧀ꦭ꧀": 6849, "ꦗ꧀ꦗ꦳ꦶ": 6850, "ꦗ꧀ꦗ꦳ꦼ": 6851, "ꦗ꧀ꦗ꦳ꦼꦂ": 6852, "ꦗ꧀ꦗ꦳꧀": 6853, "ꦗ꧀ꦗꦻ": 6854, "ꦗ꧀ꦗꦼ": 6855, "ꦗ꧀ꦚ꧀": 6856, "ꦗ꧀ꦝ": 6857, "ꦗ꧀ꦠꦸ": 6858, "ꦗ꧀ꦠꦺꦴ": 6859, "ꦗ꧀ꦠꦼꦂ": 6860, "ꦗ꧀ꦠ꧀": 6861, "ꦗ꧀ꦠ꧀ꦧ꧀": 6862, "ꦗ꧀ꦠ꧀ꦪ꧀": 6863, "ꦗ꧀ꦢꦺꦴꦂ": 6864, "ꦗ꧀ꦢꦼꦂ": 6865, "ꦗ꧀ꦤꦂ": 6866, "ꦗ꧀ꦤꦸꦂ": 6867, "ꦗ꧀ꦤ꧀ꦠꦺꦴ": 6868, "ꦗ꧀ꦤ꧀ꦤ꧀": 6869, "ꦗ꧀ꦤ꧀ꦱꦺꦴ": 6870, "ꦗ꧀ꦥ": 6871, "ꦗ꧀ꦥ꦳": 6872, "ꦗ꧀ꦥ꦳ꦶꦁ": 6873, "ꦗ꧀ꦥ꦳꧀ꦏ꧀": 6874, "ꦗ꧀ꦥ꦳꧀ꦕ꧀": 6875, "ꦗ꧀ꦥ꦳꧀ꦤ꧀": 6876, "ꦗ꧀ꦥ꧀ꦤ꧀": 6877, "ꦗ꧀ꦥ꧀ꦩ꧀": 6878, "ꦗ꧀ꦥ꧀ꦪ꧀": 6879, "ꦗ꧀ꦧ": 6880, "ꦗ꧀ꦧꦸ": 6881, "ꦗ꧀ꦩ꧀ꦥ꧀": 6882, "ꦗ꧀ꦩ꧀ꦭ꧀": 6883, "ꦗ꧀ꦩ꧀ꦱ꧀": 6884, "ꦗ꧀ꦫꦴ": 6885, "ꦗ꧀ꦫꦺ": 6886, "ꦗ꧀ꦫꦺꦴꦃ": 6887, "ꦗ꧀ꦫꦼꦃ": 6888, "ꦗ꧀ꦫ꧀ꦤꦶꦁ": 6889, "ꦗ꧀ꦫ꧀ꦱ꧀": 6890, "ꦗ꧀ꦭ꧀ꦫꦺ": 6891, "ꦗ꧀ꦮꦶ": 6892, "ꦗ꧀ꦮꦻ": 6893, "ꦗ꧀ꦯꦼ": 6894, "ꦗ꧀ꦱ꧀ꦏ": 6895, "ꦗ꧀ꦱ꧀ꦏ꧀": 6896, "ꦗ꧀ꦱ꧀ꦕꦺꦴ": 6897, "ꦗ꧀ꦱ꧀ꦠ꧀": 6898, "ꦗ꧀ꦱ꧀ꦢ꧀": 6899, "ꦗ꧀ꦱ꧀ꦥ": 6900, "ꦗ꧀ꦱ꧀ꦥ꦳꧀": 6901, "ꦚꦴꦃ": 6902, "ꦚ꧀ꦏ꧀ꦱ꧀": 6903, "ꦚ꧀ꦕꦂ": 6904, "ꦚ꧀ꦕꦸꦂ": 6905, "ꦚ꧀ꦕꦺ": 6906, "ꦚ꧀ꦗ": 6907, "ꦚ꧀ꦗꦺꦴꦃ": 6908, "ꦚ꧀ꦠꦂ": 6909, "ꦚ꧀ꦠ꧀ꦫꦶ": 6910, "ꦚ꧀ꦢꦶ": 6911, "ꦚ꧀ꦤ": 6912, "ꦚ꧀ꦤ꧀ꦏ": 6913, "ꦚ꧀ꦥꦼ": 6914, "ꦚ꧀ꦩꦸ": 6915, "ꦚ꧀ꦩ꧀": 6916, "ꦚ꧀ꦩ꧀ꦥ꧀": 6917, "ꦚ꧀ꦫꦼꦁ": 6918, "ꦚ꧀ꦫ꧀ꦧ꧀": 6919, "ꦚ꧀ꦭꦶꦁ": 6920, "ꦚ꧀ꦭꦸꦁ": 6921, "ꦚ꧀ꦭ꧀ꦢꦶ": 6922, "ꦚ꧀ꦮꦼ": 6923, "ꦚ꧀ꦱ": 6924, "ꦚ꧀ꦱꦸ": 6925, "ꦚ꧀ꦱ꧀ꦠ꧀": 6926, "ꦛꦴꦃ": 6927, "ꦛꦷ": 6928, "ꦛꦺꦁ": 6929, "ꦛꦻꦁ": 6930, "ꦛꦼꦃ": 6931, "ꦛ꧀ꦏ꧀": 6932, "ꦛ꧀ꦐꦸ": 6933, "ꦛ꧀ꦒ꧀": 6934, "ꦛ꧀ꦠꦃ": 6935, "ꦛ꧀ꦠꦺꦴ": 6936, "ꦛ꧀ꦢ": 6937, "ꦛ꧀ꦤ": 6938, "ꦛ꧀ꦤꦸ": 6939, "ꦛ꧀ꦥ꦳ꦼ": 6940, "ꦛ꧀ꦥꦺꦴꦂ": 6941, "ꦛ꧀ꦧꦸ": 6942, "ꦛ꧀ꦧꦸꦂ": 6943, "ꦛ꧀ꦧꦺꦴ": 6944, "ꦛ꧀ꦧ꧀ꦫ꧀": 6945, "ꦛ꧀ꦩꦺꦴ": 6946, "ꦛ꧀ꦪ": 6947, "ꦛ꧀ꦪ꧀ꦤꦺꦴ": 6948, "ꦛ꧀ꦪ꧀ꦤ꧀": 6949, "ꦛ꧀ꦪ꧀ꦩꦼ": 6950, "ꦛ꧀ꦭꦻ": 6951, "ꦛ꧀ꦭ꧀ꦪ꧀": 6952, "ꦛ꧀ꦮꦶ": 6953, "ꦛ꧀ꦮꦺꦴ": 6954, "ꦛ꧀ꦮꦺꦴꦂ": 6955, "ꦛ꧀ꦯꦶ": 6956, "ꦝꦹꦃ": 6957, "ꦝ꧀ꦏ꧀": 6958, "ꦝ꧀ꦐ꧀": 6959, "ꦝ꧀ꦗ꦳": 6960, "ꦝ꧀ꦠ꧀": 6961, "ꦝ꧀ꦢꦼ": 6962, "ꦝ꧀ꦤꦺ": 6963, "ꦝ꧀ꦤ꧀": 6964, "ꦝ꧀ꦥ꦳꧀": 6965, "ꦝ꧀ꦧ": 6966, "ꦝ꧀ꦧꦶꦃ": 6967, "ꦝ꧀ꦩꦶ": 6968, "ꦝ꧀ꦫꦸ": 6969, "ꦝ꧀ꦫ꧀ꦩ": 6970, "ꦝ꧀ꦱ": 6971, "ꦝ꧀ꦱꦶ": 6972, "ꦝ꧀ꦱ꧀ꦛ": 6973, "ꦝ꧀ꦲꦶ": 6974, "ꦟꦸꦂ": 6975, "ꦟ꧀ꦛ": 6976, "ꦟ꧀ꦛꦸ": 6977, "ꦟ꧀ꦝꦁ": 6978, "ꦟ꧀ꦝꦂ": 6979, "ꦟ꧀ꦝꦶ": 6980, "ꦟ꧀ꦝꦶꦁ": 6981, "ꦟ꧀ꦝꦸ": 6982, "ꦟ꧀ꦝꦺ": 6983, "ꦟ꧀ꦝꦺꦴ": 6984, "ꦠꦴꦁ": 6985, "ꦠꦷꦁ": 6986, "ꦠꦾ": 6987, "ꦠ꧀ꦏ꦳ꦺꦴ": 6988, "ꦠ꧀ꦏꦸꦂ": 6989, "ꦠ꧀ꦏꦺꦴꦂ": 6990, "ꦠ꧀ꦏ꧀ꦒ꧀": 6991, "ꦠ꧀ꦏ꧀ꦕ꧀": 6992, "ꦠ꧀ꦏ꧀ꦤ꧀": 6993, "ꦠ꧀ꦒ꧀ꦒ꧀": 6994, "ꦠ꧀ꦔ": 6995, "ꦠ꧀ꦔ꧀": 6996, "ꦠ꧀ꦔ꧀ꦫ꧀": 6997, "ꦠ꧀ꦕꦂ": 6998, "ꦠ꧀ꦕꦷ": 6999, "ꦠ꧀ꦕ꧀ꦏꦶ": 7000, "ꦠ꧀ꦕ꧀ꦕꦺꦴ": 7001, "ꦠ꧀ꦕ꧀ꦗ꦳ꦼ": 7002, "ꦠ꧀ꦕ꧀ꦠꦺꦴ": 7003, "ꦠ꧀ꦕ꧀ꦢ": 7004, "ꦠ꧀ꦕ꧀ꦤꦶ": 7005, "ꦠ꧀ꦕ꧀ꦧ꧀": 7006, "ꦠ꧀ꦕ꧀ꦪ꧀": 7007, "ꦠ꧀ꦕ꧀ꦫꦸ": 7008, "ꦠ꧀ꦕ꧀ꦭꦸ": 7009, "ꦠ꧀ꦕ꧀ꦱ꧀": 7010, "ꦠ꧀ꦗ꦳꧀ꦠꦺꦴ": 7011, "ꦠ꧀ꦗ꦳꧀ꦠꦼ": 7012, "ꦠ꧀ꦗ꦳꧀ꦤ": 7013, "ꦠ꧀ꦗ꦳꧀ꦥ꦳ꦼ": 7014, "ꦠ꧀ꦗ꦳꧀ꦧꦸ": 7015, "ꦠ꧀ꦗ꦳꧀ꦭꦂ": 7016, "ꦠ꧀ꦗꦶꦁ": 7017, "ꦠ꧀ꦗꦺ": 7018, "ꦠ꧀ꦗꦺꦴꦁ": 7019, "ꦠ꧀ꦗꦼꦃ": 7020, "ꦠ꧀ꦗ꧀ꦮꦼ": 7021, "ꦠ꧀ꦛ꧀ꦫꦺꦴ": 7022, "ꦠ꧀ꦝꦶ": 7023, "ꦠ꧀ꦝꦸꦃ": 7024, "ꦠ꧀ꦠꦻ": 7025, "ꦠ꧀ꦠ꧀ꦕ꧀": 7026, "ꦠ꧀ꦠ꧀ꦠ꧀": 7027, "ꦠ꧀ꦠ꧀ꦤꦼꦂ": 7028, "ꦠ꧀ꦠ꧀ꦧ꧀": 7029, "ꦠ꧀ꦠ꧀ꦭꦺꦴ": 7030, "ꦠ꧀ꦠ꧀ꦮ": 7031, "ꦠ꧀ꦠ꧀ꦮꦸꦂ": 7032, "ꦠ꧀ꦠ꧀ꦮꦺꦴ": 7033, "ꦠ꧀ꦢꦸ": 7034, "ꦠ꧀ꦢ꧀ꦥ꦳꧀": 7035, "ꦠ꧀ꦢ꧀ꦥ꧀": 7036, "ꦠ꧀ꦤ꧀ꦏ꧀": 7037, "ꦠ꧀ꦤ꧀ꦠ": 7038, "ꦠ꧀ꦤ꧀ꦢꦸ": 7039, "ꦠ꧀ꦤ꧀ꦤꦶ": 7040, "ꦠ꧀ꦤ꧀ꦫꦺ": 7041, "ꦠ꧀ꦤ꧀ꦱꦻ": 7042, "ꦠ꧀ꦥꦃ": 7043, "ꦠ꧀ꦥ꦳ꦸꦂ": 7044, "ꦠ꧀ꦥ꦳ꦼꦂ": 7045, "ꦠ꧀ꦥ꦳꧀ꦫꦼ": 7046, "ꦠ꧀ꦥ꦳꧀ꦮ꧀": 7047, "ꦠ꧀ꦥ꦳꧀ꦱꦶ": 7048, "ꦠ꧀ꦥ꦳꧀ꦱ꧀": 7049, "ꦠ꧀ꦥꦻ": 7050, "ꦠ꧀ꦥ꧀ꦕ꧀": 7051, "ꦠ꧀ꦥ꧀ꦥꦶꦁ": 7052, "ꦠ꧀ꦥ꧀ꦥꦺꦴ": 7053, "ꦠ꧀ꦥ꧀ꦥ꧀": 7054, "ꦠ꧀ꦥ꧀ꦩꦶ": 7055, "ꦠ꧀ꦥ꧀ꦪ": 7056, "ꦠ꧀ꦥ꧀ꦫꦶ": 7057, "ꦠ꧀ꦥ꧀ꦫ꧀": 7058, "ꦠ꧀ꦧ꧀ꦐ꧀": 7059, "ꦠ꧀ꦧ꧀ꦗ꧀": 7060, "ꦠ꧀ꦧ꧀ꦠ꧀": 7061, "ꦠ꧀ꦧ꧀ꦤ꧀": 7062, "ꦠ꧀ꦧ꧀ꦫ": 7063, "ꦠ꧀ꦧ꧀ꦫꦸ": 7064, "ꦠ꧀ꦧ꧀ꦫꦺꦴ": 7065, "ꦠ꧀ꦩꦺ": 7066, "ꦠ꧀ꦩ꧀ꦏ꧀": 7067, "ꦠ꧀ꦩ꧀ꦤ꧀": 7068, "ꦠ꧀ꦩ꧀ꦥ꦳꧀": 7069, "ꦠ꧀ꦩ꧀ꦱ꧀": 7070, "ꦠ꧀ꦪꦶ": 7071, "ꦠ꧀ꦪꦺ": 7072, "ꦠ꧀ꦪ꧀ꦒꦶ": 7073, "ꦠ꧀ꦪ꧀ꦒꦼꦂ": 7074, "ꦠ꧀ꦪ꧀ꦕꦶ": 7075, "ꦠ꧀ꦪ꧀ꦕꦺꦴ": 7076, "ꦠ꧀ꦪ꧀ꦤꦶ": 7077, "ꦠ꧀ꦪ꧀ꦥ": 7078, "ꦠ꧀ꦪ꧀ꦧꦼ": 7079, "ꦠ꧀ꦪ꧀ꦭꦶ": 7080, "ꦠ꧀ꦪ꧀ꦮ": 7081, "ꦠ꧀ꦪ꧀ꦱꦼ": 7082, "ꦠ꧀ꦫ꧀ꦢꦶ": 7083, "ꦠ꧀ꦫ꧀ꦤꦺ": 7084, "ꦠ꧀ꦫ꧀ꦤ꧀": 7085, "ꦠ꧀ꦫ꧀ꦥ꦳꧀": 7086, "ꦠ꧀ꦫ꧀ꦧꦼ": 7087, "ꦠ꧀ꦫ꧀ꦩ": 7088, "ꦠ꧀ꦫ꧀ꦪꦼ": 7089, "ꦠ꧀ꦭ꧀ꦏ꧀": 7090, "ꦠ꧀ꦮꦺꦴꦁ": 7091, "ꦠ꧀ꦮ꧀ꦤ꧀": 7092, "ꦠ꧀ꦮ꧀ꦥ꦳": 7093, "ꦠ꧀ꦮ꧀ꦩ꧀": 7094, "ꦠ꧀ꦮ꧀ꦪ꧀": 7095, "ꦠ꧀ꦮ꧀ꦫ꧀": 7096, "ꦠ꧀ꦮ꧀ꦲꦼ": 7097, "ꦠ꧀ꦯꦸ": 7098, "ꦠ꧀ꦱꦷ": 7099, "ꦠ꧀ꦱꦺꦴꦁ": 7100, "ꦠ꧀ꦱꦼꦁ": 7101, "ꦠ꧀ꦱ꧀ꦏꦺ": 7102, "ꦠ꧀ꦱ꧀ꦏꦺꦴ": 7103, "ꦠ꧀ꦱ꧀ꦕꦷ": 7104, "ꦠ꧀ꦱ꧀ꦕꦸ": 7105, "ꦠ꧀ꦱ꧀ꦗꦼꦂ": 7106, "ꦠ꧀ꦱ꧀ꦠꦂ": 7107, "ꦠ꧀ꦱ꧀ꦠꦼ": 7108, "ꦠ꧀ꦱ꧀ꦤ꧀": 7109, "ꦠ꧀ꦱ꧀ꦩꦺꦴꦂ": 7110, "ꦠ꧀ꦱ꧀ꦭ": 7111, "ꦠ꧀ꦱ꧀ꦭꦼ": 7112, "ꦠ꧀ꦱ꧀ꦮꦶ": 7113, "ꦠ꧀ꦱ꧀ꦮꦼ": 7114, "ꦠ꧀ꦲꦶ": 7115, "ꦡ": 7116, "ꦢ꦳ꦴ": 7117, "ꦢ꦳ꦶꦂ": 7118, "ꦢ꦳ꦺ": 7119, "ꦢ꦳ꦺꦴ": 7120, "ꦢ꦳ꦺꦴꦂ": 7121, "ꦢ꦳꧀ꦏꦺꦴ": 7122, "ꦢ꦳꧀ꦢ꦳": 7123, "ꦢ꦳꧀ꦧꦶꦃ": 7124, "ꦢ꦳꧀ꦪꦼ": 7125, "ꦢ꦳꧀ꦪ꧀ꦕ꧀": 7126, "ꦢ꦳꧀ꦪ꧀ꦗ꦳꧀": 7127, "ꦢ꦳꧀ꦪ꧀ꦤ꧀": 7128, "ꦢ꦳꧀ꦪ꧀ꦧ꧀": 7129, "ꦢ꦳꧀ꦪ꧀ꦭꦼ": 7130, "ꦢꦽ": 7131, "ꦢꦽꦁ": 7132, "ꦢꦿ": 7133, "ꦢ꧀ꦏꦁ": 7134, "ꦢ꧀ꦏꦸꦃ": 7135, "ꦢ꧀ꦏ꧀ꦩ꧀": 7136, "ꦢ꧀ꦏ꧀ꦱ": 7137, "ꦢ꧀ꦏ꧀ꦱꦸ": 7138, "ꦢ꧀ꦒꦶꦁ": 7139, "ꦢ꧀ꦒꦸ": 7140, "ꦢ꧀ꦒ꧀ꦠ꧀": 7141, "ꦢ꧀ꦒ꧀ꦧ": 7142, "ꦢ꧀ꦒ꧀ꦮ": 7143, "ꦢ꧀ꦒ꧀ꦮꦶ": 7144, "ꦢ꧀ꦒ꧀ꦱ꧀": 7145, "ꦢ꧀ꦔꦴꦃ": 7146, "ꦢ꧀ꦕꦼ": 7147, "ꦢ꧀ꦕ꧀ꦥ꦳꧀": 7148, "ꦢ꧀ꦗꦴ": 7149, "ꦢ꧀ꦗꦶꦁ": 7150, "ꦢ꧀ꦗꦻꦂ": 7151, "ꦢ꧀ꦛ꧀": 7152, "ꦢ꧀ꦝꦸ": 7153, "ꦢ꧀ꦝꦺꦴ": 7154, "ꦢ꧀ꦠꦺ": 7155, "ꦢ꧀ꦠꦺꦴ": 7156, "ꦢ꧀ꦠꦼꦂ": 7157, "ꦢ꧀ꦠ꧀ꦗ꦳꧀": 7158, "ꦢ꧀ꦠ꧀ꦢ꧀": 7159, "ꦢ꧀ꦠ꧀ꦫ": 7160, "ꦢ꧀ꦠ꧀ꦫꦸ": 7161, "ꦢ꧀ꦠ꧀ꦭ꧀": 7162, "ꦢ꧀ꦢꦁ": 7163, "ꦢ꧀ꦢꦸꦂ": 7164, "ꦢ꧀ꦢ꧀ꦒꦼ": 7165, "ꦢ꧀ꦢ꧀ꦢꦶ": 7166, "ꦢ꧀ꦢ꧀ꦢ꧀": 7167, "ꦢ꧀ꦢ꧀ꦪꦼ": 7168, "ꦢ꧀ꦢ꧀ꦫꦸ": 7169, "ꦢ꧀ꦢ꧀ꦫ꧀": 7170, "ꦢ꧀ꦤꦁ": 7171, "ꦢ꧀ꦤꦺ": 7172, "ꦢ꧀ꦤ꧀ꦠꦺꦴ": 7173, "ꦢ꧀ꦤ꧀ꦱ꧀": 7174, "ꦢ꧀ꦤ꧀ꦲ": 7175, "ꦢ꧀ꦥ꦳꧀ꦕ꧀": 7176, "ꦢ꧀ꦥ꦳꧀ꦥ꦳꧀": 7177, "ꦢ꧀ꦥ꦳꧀ꦫꦺꦴ": 7178, "ꦢ꧀ꦥ꦳꧀ꦱ꧀": 7179, "ꦢ꧀ꦥ꧀ꦫ": 7180, "ꦢ꧀ꦥ꧀ꦫꦶ": 7181, "ꦢ꧀ꦧꦶꦂ": 7182, "ꦢ꧀ꦧꦼꦂ": 7183, "ꦢ꧀ꦧ꧀ꦏ꧀": 7184, "ꦢ꧀ꦧ꧀ꦥ꧀": 7185, "ꦢ꧀ꦧ꧀ꦩ꧀": 7186, "ꦢ꧀ꦧ꧀ꦫꦶ": 7187, "ꦢ꧀ꦧ꧀ꦭꦸ": 7188, "ꦢ꧀ꦧ꧀ꦭꦼ": 7189, "ꦢ꧀ꦧ꧀ꦱ꧀": 7190, "ꦢ꧀ꦩꦸꦂ": 7191, "ꦢ꧀ꦩ꧀ꦕ꧀": 7192, "ꦢ꧀ꦩ꧀ꦗ꦳꧀": 7193, "ꦢ꧀ꦩ꧀ꦪꦼꦂ": 7194, "ꦢ꧀ꦩ꧀ꦭ꧀": 7195, "ꦢ꧀ꦪꦶ": 7196, "ꦢ꧀ꦪꦼꦂ": 7197, "ꦢ꧀ꦪ꧀ꦏꦼ": 7198, "ꦢ꧀ꦪ꧀ꦛꦺꦴ": 7199, "ꦢ꧀ꦪ꧀ꦠꦼ": 7200, "ꦢ꧀ꦪ꧀ꦤꦶ": 7201, "ꦢ꧀ꦪ꧀ꦤ꧀": 7202, "ꦢ꧀ꦪ꧀ꦥ꦳ꦶ": 7203, "ꦢ꧀ꦪ꧀ꦧ": 7204, "ꦢ꧀ꦪ꧀ꦧꦸ": 7205, "ꦢ꧀ꦪ꧀ꦧꦼ": 7206, "ꦢ꧀ꦪ꧀ꦫ": 7207, "ꦢ꧀ꦪ꧀ꦫꦺꦴ": 7208, "ꦢ꧀ꦪ꧀ꦮꦺ": 7209, "ꦢ꧀ꦪ꧀ꦱꦺ": 7210, "ꦢ꧀ꦪ꧀ꦱꦼꦂ": 7211, "ꦢ꧀ꦪ꧀ꦲ꧀": 7212, "ꦢ꧀ꦫꦃ": 7213, "ꦢ꧀ꦫꦺꦁ": 7214, "ꦢ꧀ꦫꦺꦴꦃ": 7215, "ꦢ꧀ꦫ꧀ꦠ꧀": 7216, "ꦢ꧀ꦫ꧀ꦢ꧀": 7217, "ꦢ꧀ꦫ꧀ꦭ꧀": 7218, "ꦢ꧀ꦫ꧀ꦲ": 7219, "ꦢ꧀ꦭꦺ": 7220, "ꦢ꧀ꦭꦺꦴꦃ": 7221, "ꦢ꧀ꦭ꧀ꦗ꦳꧀": 7222, "ꦢ꧀ꦭ꧀ꦠꦺꦴ": 7223, "ꦢ꧀ꦭ꧀ꦥ꧀": 7224, "ꦢ꧀ꦮꦺ": 7225, "ꦢ꧀ꦮꦻ": 7226, "ꦢ꧀ꦮ꧀": 7227, "ꦢ꧀ꦮ꧀ꦒ꧀": 7228, "ꦢ꧀ꦮ꧀ꦤ꧀": 7229, "ꦢ꧀ꦯꦺꦴꦂ": 7230, "ꦢ꧀ꦯ꧀ꦧꦺꦴ": 7231, "ꦢ꧀ꦱꦺꦴꦂ": 7232, "ꦢ꧀ꦱ꧀ꦥꦺꦴ": 7233, "ꦢ꧀ꦱ꧀ꦥꦼ": 7234, "ꦢ꧀ꦱ꧀ꦫ꧀": 7235, "ꦣ": 7236, "ꦤꦹꦂ": 7237, "ꦤ꧀ꦄ": 7238, "ꦤ꧀ꦆ": 7239, "ꦤ꧀ꦉ": 7240, "ꦤ꧀ꦏꦃ": 7241, "ꦤ꧀ꦏ꦳ꦸꦂ": 7242, "ꦤ꧀ꦏ꦳꧀": 7243, "ꦤ꧀ꦏꦴ": 7244, "ꦤ꧀ꦏꦴꦂ": 7245, "ꦤ꧀ꦏꦺꦂ": 7246, "ꦤ꧀ꦏꦺꦴꦁ": 7247, "ꦤ꧀ꦏ꧀ꦒ꧀": 7248, "ꦤ꧀ꦏ꧀ꦗꦼ": 7249, "ꦤ꧀ꦏ꧀ꦢꦼ": 7250, "ꦤ꧀ꦏ꧀ꦤ": 7251, "ꦤ꧀ꦏ꧀ꦥ꦳ꦺꦴꦂ": 7252, "ꦤ꧀ꦏ꧀ꦥ꦳꧀": 7253, "ꦤ꧀ꦏ꧀ꦧꦺꦴ": 7254, "ꦤ꧀ꦏ꧀ꦩꦼ": 7255, "ꦤ꧀ꦏ꧀ꦪꦁ": 7256, "ꦤ꧀ꦏ꧀ꦪꦹ": 7257, "ꦤ꧀ꦏ꧀ꦭꦼꦁ": 7258, "ꦤ꧀ꦏ꧀ꦯ": 7259, "ꦤ꧀ꦐꦶꦁ": 7260, "ꦤ꧀ꦐ꧀ꦏ꧀": 7261, "ꦤ꧀ꦒꦶ": 7262, "ꦤ꧀ꦒꦼ": 7263, "ꦤ꧀ꦔꦶꦂ": 7264, "ꦤ꧀ꦔꦶꦃ": 7265, "ꦤ꧀ꦔꦸ": 7266, "ꦤ꧀ꦔꦼꦁ": 7267, "ꦤ꧀ꦔ꧀ꦒꦼ": 7268, "ꦤ꧀ꦔ꧀ꦭꦼ": 7269, "ꦤ꧀ꦕꦶꦃ": 7270, "ꦤ꧀ꦕ꧀ꦏꦼꦂ": 7271, "ꦤ꧀ꦕ꧀ꦒ": 7272, "ꦤ꧀ꦕ꧀ꦕꦼ": 7273, "ꦤ꧀ꦕ꧀ꦗ꦳ꦼ": 7274, "ꦤ꧀ꦕ꧀ꦗ꦳꧀": 7275, "ꦤ꧀ꦕ꧀ꦗꦸ": 7276, "ꦤ꧀ꦕ꧀ꦤꦺ": 7277, "ꦤ꧀ꦕ꧀ꦥꦺꦴ": 7278, "ꦤ꧀ꦕ꧀ꦥꦺꦴꦂ": 7279, "ꦤ꧀ꦕ꧀ꦩ꧀": 7280, "ꦤ꧀ꦕ꧀ꦪꦁ": 7281, "ꦤ꧀ꦕ꧀ꦭꦶ": 7282, "ꦤ꧀ꦕ꧀ꦭꦶꦁ": 7283, "ꦤ꧀ꦗ꦳ꦶꦂ": 7284, "ꦤ꧀ꦗ꦳ꦷ": 7285, "ꦤ꧀ꦗ꦳ꦺ": 7286, "ꦤ꧀ꦗ꦳ꦻꦁ": 7287, "ꦤ꧀ꦗ꦳꧀ꦮꦼ": 7288, "ꦤ꧀ꦗ꦳꧀ꦲ꧀": 7289, "ꦤ꧀ꦗ꧀ꦏ꧀": 7290, "ꦤ꧀ꦗ꧀ꦗꦁ": 7291, "ꦤ꧀ꦗ꧀ꦤꦼ": 7292, "ꦤ꧀ꦗ꧀ꦥ": 7293, "ꦤ꧀ꦗ꧀ꦥ꦳ꦺꦴ": 7294, "ꦤ꧀ꦗ꧀ꦫ": 7295, "ꦤ꧀ꦗ꧀ꦫꦁ": 7296, "ꦤ꧀ꦗ꧀ꦫꦶꦁ": 7297, "ꦤ꧀ꦗ꧀ꦫ꧀": 7298, "ꦤ꧀ꦚꦂ": 7299, "ꦤ꧀ꦚꦸ": 7300, "ꦤ꧀ꦛꦸꦃ": 7301, "ꦤ꧀ꦛ꧀ꦏ꧀": 7302, "ꦤ꧀ꦛ꧀ꦥꦼ": 7303, "ꦤ꧀ꦛ꧀ꦭꦼꦂ": 7304, "ꦤ꧀ꦛ꧀ꦭ꧀": 7305, "ꦤ꧀ꦝ꧀ꦢꦶ": 7306, "ꦤ꧀ꦝ꧀ꦤꦺ": 7307, "ꦤ꧀ꦝ꧀ꦪ": 7308, "ꦤ꧀ꦝ꧀ꦫꦺꦴ": 7309, "ꦤ꧀ꦠꦶꦃ": 7310, "ꦤ꧀ꦠꦽ": 7311, "ꦤ꧀ꦠ꧀ꦕ": 7312, "ꦤ꧀ꦠ꧀ꦗ꦳ꦺꦴ": 7313, "ꦤ꧀ꦠ꧀ꦗ꦳ꦼ": 7314, "ꦤ꧀ꦠ꧀ꦛꦸ": 7315, "ꦤ꧀ꦠ꧀ꦥ꦳ꦼꦂ": 7316, "ꦤ꧀ꦠ꧀ꦩꦺꦴ": 7317, "ꦤ꧀ꦠ꧀ꦫꦃ": 7318, "ꦤ꧀ꦠ꧀ꦫꦺꦴꦁ": 7319, "ꦤ꧀ꦠ꧀ꦱꦺꦴ": 7320, "ꦤ꧀ꦠ꧀ꦱꦼ": 7321, "ꦤ꧀ꦢ꧀ꦏꦼꦂ": 7322, "ꦤ꧀ꦢ꧀ꦐꦸ": 7323, "ꦤ꧀ꦢ꧀ꦒꦼ": 7324, "ꦤ꧀ꦢ꧀ꦒ꧀": 7325, "ꦤ꧀ꦢ꧀ꦕꦺꦴ": 7326, "ꦤ꧀ꦢ꧀ꦕꦼ": 7327, "ꦤ꧀ꦢ꧀ꦕ꧀": 7328, "ꦤ꧀ꦢ꧀ꦗꦸ": 7329, "ꦤ꧀ꦢ꧀ꦗꦺꦴ": 7330, "ꦤ꧀ꦢ꧀ꦗ꧀": 7331, "ꦤ꧀ꦢ꧀ꦚ": 7332, "ꦤ꧀ꦢ꧀ꦠꦺ": 7333, "ꦤ꧀ꦢ꧀ꦠꦼ": 7334, "ꦤ꧀ꦢ꧀ꦠꦼꦂ": 7335, "ꦤ꧀ꦢ꧀ꦢꦺꦴ": 7336, "ꦤ꧀ꦢ꧀ꦤꦶ": 7337, "ꦤ꧀ꦢ꧀ꦤꦸ": 7338, "ꦤ꧀ꦢ꧀ꦥ꦳ꦺꦴ": 7339, "ꦤ꧀ꦢ꧀ꦥꦶ": 7340, "ꦤ꧀ꦢ꧀ꦥꦺ": 7341, "ꦤ꧀ꦢ꧀ꦥꦺꦴ": 7342, "ꦤ꧀ꦢ꧀ꦩꦺꦴ": 7343, "ꦤ꧀ꦢ꧀ꦫꦺꦃ": 7344, "ꦤ꧀ꦢ꧀ꦫꦼꦂ": 7345, "ꦤ꧀ꦢ꧀ꦭꦂ": 7346, "ꦤ꧀ꦢ꧀ꦭꦶ": 7347, "ꦤ꧀ꦢ꧀ꦭꦶꦁ": 7348, "ꦤ꧀ꦢ꧀ꦭꦺ": 7349, "ꦤ꧀ꦢ꧀ꦭ꧀": 7350, "ꦤ꧀ꦢ꧀ꦮꦂ": 7351, "ꦤ꧀ꦢ꧀ꦮ꧀": 7352, "ꦤ꧀ꦤꦁ": 7353, "ꦤ꧀ꦤꦃꦂ": 7354, "ꦤ꧀ꦤꦴ": 7355, "ꦤ꧀ꦤꦼꦃ": 7356, "ꦤ꧀ꦤ꧀ꦠꦂ": 7357, "ꦤ꧀ꦤ꧀ꦠꦸ": 7358, "ꦤ꧀ꦤ꧀ꦠ꧀": 7359, "ꦤ꧀ꦤ꧀ꦢꦺꦴꦂ": 7360, "ꦤ꧀ꦤ꧀ꦢ꧀": 7361, "ꦤ꧀ꦤ꧀ꦤ": 7362, "ꦤ꧀ꦤ꧀ꦥ꦳꧀": 7363, "ꦤ꧀ꦤ꧀ꦩꦁ": 7364, "ꦤ꧀ꦤ꧀ꦩꦸ": 7365, "ꦤ꧀ꦤ꧀ꦱꦼ": 7366, "ꦤ꧀ꦤ꧀ꦲꦶ": 7367, "ꦤ꧀ꦥꦃ": 7368, "ꦤ꧀ꦥ꦳ꦁ": 7369, "ꦤ꧀ꦥ꦳ꦻ": 7370, "ꦤ꧀ꦥ꦳꧀ꦩ꧀": 7371, "ꦤ꧀ꦥ꦳꧀ꦫ꧀": 7372, "ꦤ꧀ꦥꦶꦁ": 7373, "ꦤ꧀ꦥ꧀ꦥꦁ": 7374, "ꦤ꧀ꦥ꧀ꦥ꦳ꦼ": 7375, "ꦤ꧀ꦥ꧀ꦩꦺꦴ": 7376, "ꦤ꧀ꦥ꧀ꦫꦸ": 7377, "ꦤ꧀ꦥ꧀ꦭꦺ": 7378, "ꦤ꧀ꦧꦃ": 7379, "ꦤ꧀ꦧꦶꦃ": 7380, "ꦤ꧀ꦧꦺꦴꦁ": 7381, "ꦤ꧀ꦧ꧀ꦏꦼ": 7382, "ꦤ꧀ꦧ꧀ꦒ꧀": 7383, "ꦤ꧀ꦧ꧀ꦥ꦳꧀": 7384, "ꦤ꧀ꦧ꧀ꦪ꧀": 7385, "ꦤ꧀ꦧ꧀ꦫ": 7386, "ꦤ꧀ꦧ꧀ꦫꦶ": 7387, "ꦤ꧀ꦩꦃ": 7388, "ꦤ꧀ꦩꦺꦃ": 7389, "ꦤ꧀ꦩ꧀ꦔ꧀": 7390, "ꦤ꧀ꦩ꧀ꦠꦸ": 7391, "ꦤ꧀ꦩ꧀ꦥꦶ": 7392, "ꦤ꧀ꦩ꧀ꦧ": 7393, "ꦤ꧀ꦩ꧀ꦧꦃ": 7394, "ꦤ꧀ꦩ꧀ꦧꦸ": 7395, "ꦤ꧀ꦩ꧀ꦭꦶ": 7396, "ꦤ꧀ꦩ꧀ꦭꦺꦴ": 7397, "ꦤ꧀ꦩ꧀ꦭꦼ": 7398, "ꦤ꧀ꦪꦸ": 7399, "ꦤ꧀ꦫꦃ": 7400, "ꦤ꧀ꦫꦶꦁ": 7401, "ꦤ꧀ꦫꦻ": 7402, "ꦤ꧀ꦫ꧀ꦏꦼ": 7403, "ꦤ꧀ꦫ꧀ꦒꦼ": 7404, "ꦤ꧀ꦫ꧀ꦥ꦳": 7405, "ꦤ꧀ꦫ꧀ꦧꦺ": 7406, "ꦤ꧀ꦫ꧀ꦪꦶ": 7407, "ꦤ꧀ꦫ꧀ꦪꦸ": 7408, "ꦤ꧀ꦫ꧀ꦪꦼ": 7409, "ꦤ꧀ꦫ꧀ꦮ": 7410, "ꦤ꧀ꦫ꧀ꦱ꧀": 7411, "ꦤ꧀ꦫ꧀ꦲꦶ": 7412, "ꦤ꧀ꦭꦶꦂ": 7413, "ꦤ꧀ꦭꦺꦴꦂ": 7414, "ꦤ꧀ꦭ꧀ꦢ": 7415, "ꦤ꧀ꦮꦶꦂ": 7416, "ꦤ꧀ꦮꦷ": 7417, "ꦤ꧀ꦮ꧀": 7418, "ꦤ꧀ꦮ꧀ꦱ": 7419, "ꦤ꧀ꦮ꧀ꦲꦶ": 7420, "ꦤ꧀ꦮ꧀ꦲꦼ": 7421, "ꦤ꧀ꦯ꧀ꦤ꧀": 7422, "ꦤ꧀ꦱꦸꦃ": 7423, "ꦤ꧀ꦱꦼꦃ": 7424, "ꦤ꧀ꦱꦽ": 7425, "ꦤ꧀ꦱ꧀ꦏꦺꦴ": 7426, "ꦤ꧀ꦱ꧀ꦏꦺꦴꦂ": 7427, "ꦤ꧀ꦱ꧀ꦒ꦳ꦺ": 7428, "ꦤ꧀ꦱ꧀ꦕꦂ": 7429, "ꦤ꧀ꦱ꧀ꦗ꦳ꦺꦴ": 7430, "ꦤ꧀ꦱ꧀ꦗꦸ": 7431, "ꦤ꧀ꦱ꧀ꦗꦺꦴ": 7432, "ꦤ꧀ꦱ꧀ꦛ": 7433, "ꦤ꧀ꦱ꧀ꦠꦺꦂ": 7434, "ꦤ꧀ꦱ꧀ꦢ꧀": 7435, "ꦤ꧀ꦱ꧀ꦤꦼ": 7436, "ꦤ꧀ꦱ꧀ꦥ꦳ꦴ": 7437, "ꦤ꧀ꦱ꧀ꦧꦼ": 7438, "ꦤ꧀ꦱ꧀ꦩ꧀": 7439, "ꦤ꧀ꦱ꧀ꦫꦶ": 7440, "ꦤ꧀ꦱ꧀ꦫꦼ": 7441, "ꦤ꧀ꦱ꧀ꦭꦼꦂ": 7442, "ꦤ꧀ꦱ꧀ꦭ꧀": 7443, "ꦤ꧀ꦱ꧀ꦱꦸ": 7444, "ꦤ꧀ꦲ꧀ꦪꦺꦴ": 7445, "ꦤ꧀ꦲ꧀ꦪꦼ": 7446, "ꦤ꧀ꦲ꧀ꦪ꧀": 7447, "ꦥꦁꦂ": 7448, "ꦥꦁꦃ": 7449, "ꦥꦃꦂ": 7450, "ꦥ꦳ꦸꦃꦂ": 7451, "ꦥ꦳꧀ꦏ꦳꧀ꦥ꧀": 7452, "ꦥ꦳꧀ꦏ꧀ꦒ꧀": 7453, "ꦥ꦳꧀ꦏ꧀ꦭ꧀": 7454, "ꦥ꦳꧀ꦏ꧀ꦱꦶ": 7455, "ꦥ꦳꧀ꦐꦶꦃ": 7456, "ꦥ꦳꧀ꦒꦂ": 7457, "ꦥ꦳꧀ꦒ꧀ꦏ꧀": 7458, "ꦥ꦳꧀ꦒ꧀ꦠ꧀": 7459, "ꦥ꦳꧀ꦒ꧀ꦥ꦳꧀": 7460, "ꦥ꦳꧀ꦔ꧀ꦠ꧀": 7461, "ꦥ꦳꧀ꦕ": 7462, "ꦥ꦳꧀ꦕꦶ": 7463, "ꦥ꦳꧀ꦕ꧀ꦠ꧀": 7464, "ꦥ꦳꧀ꦕ꧀ꦧꦺꦴ": 7465, "ꦥ꦳꧀ꦗ꦳": 7466, "ꦥ꦳꧀ꦗ꦳꧀": 7467, "ꦥ꦳꧀ꦗꦶ": 7468, "ꦥ꦳꧀ꦛꦸꦂ": 7469, "ꦥ꦳꧀ꦝꦼ": 7470, "ꦥ꦳꧀ꦠꦃ": 7471, "ꦥ꦳꧀ꦠꦷ": 7472, "ꦥ꦳꧀ꦠꦸꦁ": 7473, "ꦥ꦳꧀ꦠꦸꦂ": 7474, "ꦥ꦳꧀ꦠꦺꦴꦁ": 7475, "ꦥ꦳꧀ꦠꦻ": 7476, "ꦥ꦳꧀ꦠ꧀ꦕꦶ": 7477, "ꦥ꦳꧀ꦠ꧀ꦗ꦳": 7478, "ꦥ꦳꧀ꦠ꧀ꦤꦼ": 7479, "ꦥ꦳꧀ꦠ꧀ꦧ": 7480, "ꦥ꦳꧀ꦠ꧀ꦫ": 7481, "ꦥ꦳꧀ꦠ꧀ꦭꦶ": 7482, "ꦥ꦳꧀ꦠ꧀ꦱꦼ": 7483, "ꦥ꦳꧀ꦢ꦳": 7484, "ꦥ꦳꧀ꦢꦺꦴ": 7485, "ꦥ꦳꧀ꦢ꧀ꦢꦺꦴꦂ": 7486, "ꦥ꦳꧀ꦢ꧀ꦩ": 7487, "ꦥ꦳꧀ꦢ꧀ꦩ꧀": 7488, "ꦥ꦳꧀ꦢ꧀ꦫ꧀": 7489, "ꦥ꦳꧀ꦤꦸꦁ": 7490, "ꦥ꦳꧀ꦤꦺ": 7491, "ꦥ꦳꧀ꦤꦺꦴ": 7492, "ꦥ꦳꧀ꦤ꧀ꦏ꧀": 7493, "ꦥ꦳꧀ꦥ꦳ꦻ": 7494, "ꦥ꦳꧀ꦥ꦳꧀ꦕ꧀": 7495, "ꦥ꦳꧀ꦥ꦳꧀ꦠꦶ": 7496, "ꦥ꦳꧀ꦥ꦳꧀ꦢ꧀": 7497, "ꦥ꦳꧀ꦥ꦳꧀ꦫꦶ": 7498, "ꦥ꦳꧀ꦥ꦳꧀ꦫ꧀": 7499, "ꦥ꦳꧀ꦥ꦳꧀ꦭꦸ": 7500, "ꦥ꦳꧀ꦥ꦳꧀ꦯꦼ": 7501, "ꦥ꦳꧀ꦥ꦳꧀ꦱꦶ": 7502, "ꦥ꦳꧀ꦥ꧀ꦠꦶ": 7503, "ꦥ꦳꧀ꦧ": 7504, "ꦥ꦳꧀ꦧ꧀ꦩ꧀": 7505, "ꦥ꦳꧀ꦩꦴ": 7506, "ꦥ꦳꧀ꦩꦸ": 7507, "ꦥ꦳꧀ꦩ꧀ꦩ꧀": 7508, "ꦥ꦳꧀ꦩ꧀ꦫꦶ": 7509, "ꦥ꦳꧀ꦪ꧀ꦒꦺꦴ": 7510, "ꦥ꦳꧀ꦪ꧀ꦕ꧀": 7511, "ꦥ꦳꧀ꦪ꧀ꦢ꧀": 7512, "ꦥ꦳꧀ꦪ꧀ꦤꦼꦂ": 7513, "ꦥ꦳꧀ꦪ꧀ꦧꦺꦴꦂ": 7514, "ꦥ꦳꧀ꦫꦁ": 7515, "ꦥ꦳꧀ꦫꦺꦴꦃ": 7516, "ꦥ꦳꧀ꦫ꧀ꦩ꧀": 7517, "ꦥ꦳꧀ꦫ꧀ꦪꦼ": 7518, "ꦥ꦳꧀ꦫ꧀ꦭꦶ": 7519, "ꦥ꦳꧀ꦭꦶꦂ": 7520, "ꦥ꦳꧀ꦭꦺꦴꦁ": 7521, "ꦥ꦳꧀ꦭ꧀ꦗ": 7522, "ꦥ꦳꧀ꦭ꧀ꦗꦸ": 7523, "ꦥ꦳꧀ꦭ꧀ꦗꦼ": 7524, "ꦥ꦳꧀ꦭ꧀ꦠꦶ": 7525, "ꦥ꦳꧀ꦭ꧀ꦢ꧀": 7526, "ꦥ꦳꧀ꦭ꧀ꦥ꦳": 7527, "ꦥ꦳꧀ꦭ꧀ꦧꦶ": 7528, "ꦥ꦳꧀ꦭ꧀ꦩ꧀": 7529, "ꦥ꦳꧀ꦭ꧀ꦪꦸ": 7530, "ꦥ꦳꧀ꦭ꧀ꦪꦼ": 7531, "ꦥ꦳꧀ꦭ꧀ꦱ": 7532, "ꦥ꦳꧀ꦭ꧀ꦱ꧀": 7533, "ꦥ꦳꧀ꦮꦃ": 7534, "ꦥ꦳꧀ꦮꦺꦴ": 7535, "ꦥ꦳꧀ꦮ꧀ꦕ꧀": 7536, "ꦥ꦳꧀ꦯꦃ": 7537, "ꦥ꦳꧀ꦱꦃ": 7538, "ꦥ꦳꧀ꦱ꧀ꦏꦺꦴ": 7539, "ꦥ꦳꧀ꦱ꧀ꦢ꧀": 7540, "ꦥ꦳꧀ꦱ꧀ꦧꦸꦂ": 7541, "ꦥ꦳꧀ꦱ꧀ꦩ꧀": 7542, "ꦥ꦳꧀ꦱ꧀ꦫ꧀": 7543, "ꦥ꦳꧀ꦱ꧀ꦭꦸ": 7544, "ꦥ꦳꧀ꦲ": 7545, "ꦥ꦳꧀ꦲꦃ": 7546, "ꦥ꦳꧀ꦲꦼ": 7547, "ꦥ꦳꧀ꦲ꧀ꦥ꧀": 7548, "ꦥꦴꦂ": 7549, "ꦥꦹꦃ": 7550, "ꦥꦼꦁꦃꦂ": 7551, "ꦥꦽ": 7552, "ꦥꦿꦸ": 7553, "ꦥꦿꦺꦴ": 7554, "ꦥ꧀ꦏꦺꦃ": 7555, "ꦥ꧀ꦏ꧀ꦕ꧀": 7556, "ꦥ꧀ꦏ꧀ꦢ꧀": 7557, "ꦥ꧀ꦏ꧀ꦤꦺ": 7558, "ꦥ꧀ꦏ꧀ꦤꦺꦴ": 7559, "ꦥ꧀ꦏ꧀ꦥꦶ": 7560, "ꦥ꧀ꦏ꧀ꦥꦸ": 7561, "ꦥ꧀ꦏ꧀ꦥ꧀": 7562, "ꦥ꧀ꦏ꧀ꦩ꧀": 7563, "ꦥ꧀ꦏ꧀ꦱꦼꦂ": 7564, "ꦥ꧀ꦒꦼ": 7565, "ꦥ꧀ꦒ꧀ꦏ꧀": 7566, "ꦥ꧀ꦒ꧀ꦪꦺꦴ": 7567, "ꦥ꧀ꦒ꧀ꦪꦼ": 7568, "ꦥ꧀ꦔꦺ": 7569, "ꦥ꧀ꦔ꧀ꦒꦺꦴ": 7570, "ꦥ꧀ꦔ꧀ꦫꦶ": 7571, "ꦥ꧀ꦔ꧀ꦭꦻ": 7572, "ꦥ꧀ꦕꦺꦴꦂ": 7573, "ꦥ꧀ꦕ꧀ꦒ꧀": 7574, "ꦥ꧀ꦕ꧀ꦗ꦳꧀": 7575, "ꦥ꧀ꦕ꧀ꦩ꧀": 7576, "ꦥ꧀ꦕ꧀ꦱ꧀": 7577, "ꦥ꧀ꦗ꦳": 7578, "ꦥ꧀ꦗ꦳ꦸ": 7579, "ꦥ꧀ꦗ꦳꧀": 7580, "ꦥ꧀ꦗꦶ": 7581, "ꦥ꧀ꦗ꧀ꦥ꦳꧀": 7582, "ꦥ꧀ꦗ꧀ꦱ꧀": 7583, "ꦥ꧀ꦚꦼ": 7584, "ꦥ꧀ꦚ꧀": 7585, "ꦥ꧀ꦛꦼ": 7586, "ꦥ꧀ꦝ꧀": 7587, "ꦥ꧀ꦠꦺꦁ": 7588, "ꦥ꧀ꦠꦼꦁ": 7589, "ꦥ꧀ꦠ꧀ꦕꦺꦴ": 7590, "ꦥ꧀ꦠ꧀ꦧꦃ": 7591, "ꦥ꧀ꦠ꧀ꦪ": 7592, "ꦥ꧀ꦠ꧀ꦫꦶ": 7593, "ꦥ꧀ꦠ꧀ꦫꦺꦴ": 7594, "ꦥ꧀ꦢꦷ": 7595, "ꦥ꧀ꦢꦺꦴ": 7596, "ꦥ꧀ꦢꦼ": 7597, "ꦥ꧀ꦢ꧀ꦒ꧀": 7598, "ꦥ꧀ꦢ꧀ꦠ꧀": 7599, "ꦥ꧀ꦢ꧀ꦢ꧀": 7600, "ꦥ꧀ꦢ꧀ꦤ꧀": 7601, "ꦥ꧀ꦢ꧀ꦫꦶ": 7602, "ꦥ꧀ꦢ꧀ꦭ꧀": 7603, "ꦥ꧀ꦤꦁ": 7604, "ꦥ꧀ꦤꦃ": 7605, "ꦥ꧀ꦤꦸ": 7606, "ꦥ꧀ꦤꦻ": 7607, "ꦥ꧀ꦤ꧀ꦝꦁ": 7608, "ꦥ꧀ꦤ꧀ꦝꦃ": 7609, "ꦥ꧀ꦤ꧀ꦧ꧀": 7610, "ꦥ꧀ꦥ꦳꧀ꦏ꧀": 7611, "ꦥ꧀ꦥ꦳꧀ꦤ꧀": 7612, "ꦥ꧀ꦥ꦳꧀ꦥ꦳꧀": 7613, "ꦥ꧀ꦥꦴ": 7614, "ꦥ꧀ꦥꦸꦁ": 7615, "ꦥ꧀ꦥꦹ": 7616, "ꦥ꧀ꦥꦺꦂ": 7617, "ꦥ꧀ꦥꦺꦴꦁ": 7618, "ꦥ꧀ꦥꦼꦁ": 7619, "ꦥ꧀ꦥꦼꦃ": 7620, "ꦥ꧀ꦥ꧀ꦏꦼ": 7621, "ꦥ꧀ꦥ꧀ꦒ꧀": 7622, "ꦥ꧀ꦥ꧀ꦠꦶ": 7623, "ꦥ꧀ꦥ꧀ꦧ꧀": 7624, "ꦥ꧀ꦥ꧀ꦱꦺꦴ": 7625, "ꦥ꧀ꦧ꧀ꦠꦶ": 7626, "ꦥ꧀ꦧ꧀ꦠ꧀": 7627, "ꦥ꧀ꦧ꧀ꦤꦸ": 7628, "ꦥ꧀ꦧ꧀ꦭꦺꦴ": 7629, "ꦥ꧀ꦩꦷ": 7630, "ꦥ꧀ꦩꦺꦴ": 7631, "ꦥ꧀ꦩ꧀ꦥꦶ": 7632, "ꦥ꧀ꦩ꧀ꦪ꧀": 7633, "ꦥ꧀ꦩ꧀ꦲ꧀": 7634, "ꦥ꧀ꦪꦻ": 7635, "ꦥ꧀ꦪ꧀ꦒꦺꦴ": 7636, "ꦥ꧀ꦪ꧀ꦠꦼ": 7637, "ꦥ꧀ꦪ꧀ꦤꦺꦴ": 7638, "ꦥ꧀ꦪ꧀ꦭꦶ": 7639, "ꦥ꧀ꦪ꧀ꦮ꧀": 7640, "ꦥ꧀ꦪ꧀ꦱꦼ": 7641, "ꦥ꧀ꦫꦴꦁ": 7642, "ꦥ꧀ꦫꦺꦴꦃ": 7643, "ꦥ꧀ꦫ꧀ꦕ": 7644, "ꦥ꧀ꦫ꧀ꦗ꦳": 7645, "ꦥ꧀ꦫ꧀ꦗ꧀": 7646, "ꦥ꧀ꦫ꧀ꦠꦺ": 7647, "ꦥ꧀ꦫ꧀ꦠꦼꦂ": 7648, "ꦥ꧀ꦫ꧀ꦥ꦳ꦶ": 7649, "ꦥ꧀ꦫ꧀ꦥꦶ": 7650, "ꦥ꧀ꦫ꧀ꦧꦺꦴ": 7651, "ꦥ꧀ꦫ꧀ꦩꦺꦴ": 7652, "ꦥ꧀ꦫ꧀ꦪ": 7653, "ꦥ꧀ꦫ꧀ꦪꦶ": 7654, "ꦥ꧀ꦫ꧀ꦫꦺꦴ": 7655, "ꦥ꧀ꦫ꧀ꦭ": 7656, "ꦥ꧀ꦫ꧀ꦮ꧀": 7657, "ꦥ꧀ꦭꦴ": 7658, "ꦥ꧀ꦭ꧀ꦗ꦳ꦼ": 7659, "ꦥ꧀ꦭ꧀ꦢ꧀": 7660, "ꦥ꧀ꦭ꧀ꦭ": 7661, "ꦥ꧀ꦮꦼꦂ": 7662, "ꦥ꧀ꦮ꧀ꦏ꧀": 7663, "ꦥ꧀ꦮ꧀ꦒ꧀": 7664, "ꦥ꧀ꦮ꧀ꦠ": 7665, "ꦥ꧀ꦯꦸ": 7666, "ꦥ꧀ꦯꦸꦂ": 7667, "ꦥ꧀ꦯ꧀ꦕꦺ": 7668, "ꦥ꧀ꦯ꧀ꦭ꧀": 7669, "ꦥ꧀ꦱꦂ": 7670, "ꦥ꧀ꦱ꧀ꦕꦺꦴ": 7671, "ꦥ꧀ꦱ꧀ꦢ꧀": 7672, "ꦥ꧀ꦱ꧀ꦤ": 7673, "ꦥ꧀ꦱ꧀ꦤ꧀": 7674, "ꦥ꧀ꦱ꧀ꦥ꦳꧀": 7675, "ꦥ꧀ꦱ꧀ꦧꦸꦂ": 7676, "ꦥ꧀ꦱ꧀ꦭ꧀": 7677, "ꦥ꧀ꦱ꧀ꦱ": 7678, "ꦧꦷꦁ": 7679, "ꦧꦼꦃꦂ": 7680, "ꦧꦿꦃ": 7681, "ꦧꦿꦺꦴ": 7682, "ꦧ꧀ꦏꦶꦁ": 7683, "ꦧ꧀ꦏꦼꦂ": 7684, "ꦧ꧀ꦏ꧀ꦏꦶ": 7685, "ꦧ꧀ꦏ꧀ꦠꦼ": 7686, "ꦧ꧀ꦏ꧀ꦧ꧀": 7687, "ꦧ꧀ꦏ꧀ꦭ꧀": 7688, "ꦧ꧀ꦏ꧀ꦱ": 7689, "ꦧ꧀ꦏ꧀ꦱꦶ": 7690, "ꦧ꧀ꦏ꧀ꦱꦼ": 7691, "ꦧ꧀ꦐꦴ": 7692, "ꦧ꧀ꦒꦸ": 7693, "ꦧ꧀ꦒ꧀ꦒꦺꦴ": 7694, "ꦧ꧀ꦒ꧀ꦪ꧀": 7695, "ꦧ꧀ꦒ꧀ꦱ": 7696, "ꦧ꧀ꦔꦃ": 7697, "ꦧ꧀ꦔꦶ": 7698, "ꦧ꧀ꦔꦸ": 7699, "ꦧ꧀ꦔ꧀ꦱ": 7700, "ꦧ꧀ꦕꦶ": 7701, "ꦧ꧀ꦕ꧀ꦒ꧀": 7702, "ꦧ꧀ꦕ꧀ꦠ꧀": 7703, "ꦧ꧀ꦕ꧀ꦧ꧀": 7704, "ꦧ꧀ꦕ꧀ꦱ꧀": 7705, "ꦧ꧀ꦖ": 7706, "ꦧ꧀ꦗ꦳ꦼ": 7707, "ꦧ꧀ꦗ꦳꧀ꦥ꧀": 7708, "ꦧ꧀ꦗ꦳꧀ꦲ": 7709, "ꦧ꧀ꦗꦼꦂ": 7710, "ꦧ꧀ꦚ": 7711, "ꦧ꧀ꦛꦶ": 7712, "ꦧ꧀ꦠꦻ": 7713, "ꦧ꧀ꦠ꧀ꦏ꧀": 7714, "ꦧ꧀ꦠ꧀ꦠ꧀": 7715, "ꦧ꧀ꦠ꧀ꦥ꧀": 7716, "ꦧ꧀ꦠ꧀ꦭ꧀": 7717, "ꦧ꧀ꦢꦁ": 7718, "ꦧ꧀ꦢꦃ": 7719, "ꦧ꧀ꦢꦺ": 7720, "ꦧ꧀ꦢ꧀ꦪ꧀": 7721, "ꦧ꧀ꦤ꧀ꦏ꧀": 7722, "ꦧ꧀ꦥ꦳꧀ꦧ꧀": 7723, "ꦧ꧀ꦥꦸꦂ": 7724, "ꦧ꧀ꦥꦼ": 7725, "ꦧ꧀ꦥ꧀ꦗ꧀": 7726, "ꦧ꧀ꦧꦸꦃ": 7727, "ꦧ꧀ꦧꦼꦃ": 7728, "ꦧ꧀ꦧ꧀ꦕꦺꦴ": 7729, "ꦧ꧀ꦧ꧀ꦥ꦳": 7730, "ꦧ꧀ꦧ꧀ꦥ꦳ꦶ": 7731, "ꦧ꧀ꦧ꧀ꦭꦶꦁ": 7732, "ꦧ꧀ꦧ꧀ꦭꦼꦂ": 7733, "ꦧ꧀ꦩꦸ": 7734, "ꦧ꧀ꦩꦺꦴ": 7735, "ꦧ꧀ꦩ꧀ꦏ꧀": 7736, "ꦧ꧀ꦪꦶ": 7737, "ꦧ꧀ꦪꦼꦂ": 7738, "ꦧ꧀ꦪ꧀ꦕꦺꦴ": 7739, "ꦧ꧀ꦪ꧀ꦕ꧀": 7740, "ꦧ꧀ꦪ꧀ꦠ꧀": 7741, "ꦧ꧀ꦪ꧀ꦢꦺꦴ": 7742, "ꦧ꧀ꦪ꧀ꦢ꧀": 7743, "ꦧ꧀ꦪ꧀ꦱꦶ": 7744, "ꦧ꧀ꦫꦶꦁ": 7745, "ꦧ꧀ꦫꦺꦴꦂ": 7746, "ꦧ꧀ꦫ꧀ꦏꦼ": 7747, "ꦧ꧀ꦫ꧀ꦒ꦳꧀": 7748, "ꦧ꧀ꦫ꧀ꦗ꦳ꦺꦴ": 7749, "ꦧ꧀ꦫ꧀ꦠꦻ": 7750, "ꦧ꧀ꦫ꧀ꦠ꧀": 7751, "ꦧ꧀ꦫ꧀ꦧꦸ": 7752, "ꦧ꧀ꦫ꧀ꦪꦂ": 7753, "ꦧ꧀ꦫ꧀ꦪꦸ": 7754, "ꦧ꧀ꦫ꧀ꦪꦼꦂ": 7755, "ꦧ꧀ꦫ꧀ꦫꦺꦴ": 7756, "ꦧ꧀ꦫ꧀ꦮ꧀": 7757, "ꦧ꧀ꦫ꧀ꦲ": 7758, "ꦧ꧀ꦭꦴ": 7759, "ꦧ꧀ꦭꦸꦁ": 7760, "ꦧ꧀ꦭꦺꦴꦂ": 7761, "ꦧ꧀ꦭꦺꦴꦃ": 7762, "ꦧ꧀ꦭ꧀ꦠꦼ": 7763, "ꦧ꧀ꦭ꧀ꦤ꧀": 7764, "ꦧ꧀ꦭ꧀ꦥ꧀": 7765, "ꦧ꧀ꦭ꧀ꦩ꧀": 7766, "ꦧ꧀ꦭ꧀ꦭ꧀": 7767, "ꦧ꧀ꦭ꧀ꦮ꧀": 7768, "ꦧ꧀ꦮꦺ": 7769, "ꦧ꧀ꦮ꧀ꦒ꧀": 7770, "ꦧ꧀ꦯꦶ": 7771, "ꦧ꧀ꦯ꧀": 7772, "ꦧ꧀ꦱꦁ": 7773, "ꦧ꧀ꦱ꧀ꦏꦺꦴ": 7774, "ꦧ꧀ꦱ꧀ꦭ꧀": 7775, "ꦧ꧀ꦲ꧀": 7776, "ꦩꦷꦃ": 7777, "ꦩꦺꦴꦃꦂ": 7778, "ꦩꦻꦁ": 7779, "ꦩ꧀ꦄ": 7780, "ꦩ꧀ꦏ꦳ꦶ": 7781, "ꦩ꧀ꦏꦶ": 7782, "ꦩ꧀ꦏꦸꦂ": 7783, "ꦩ꧀ꦏꦻ": 7784, "ꦩ꧀ꦏ꧀ꦒ꧀": 7785, "ꦩ꧀ꦏ꧀ꦫ": 7786, "ꦩ꧀ꦏ꧀ꦫꦺꦴ": 7787, "ꦩ꧀ꦏ꧀ꦫꦼ": 7788, "ꦩ꧀ꦏ꧀ꦱꦸ": 7789, "ꦩ꧀ꦐ꧀": 7790, "ꦩ꧀ꦒꦂ": 7791, "ꦩ꧀ꦒ꦳": 7792, "ꦩ꧀ꦒꦶꦂ": 7793, "ꦩ꧀ꦒꦼꦂ": 7794, "ꦩ꧀ꦒ꧀ꦏꦺꦴ": 7795, "ꦩ꧀ꦒ꧀ꦒ": 7796, "ꦩ꧀ꦒ꧀ꦢ": 7797, "ꦩ꧀ꦒ꧀ꦥ꦳ꦼ": 7798, "ꦩ꧀ꦒ꧀ꦫ": 7799, "ꦩ꧀ꦒ꧀ꦭ": 7800, "ꦩ꧀ꦒ꧀ꦮ": 7801, "ꦩ꧀ꦒ꧀ꦱꦸꦁ": 7802, "ꦩ꧀ꦔ꧀ꦒ": 7803, "ꦩ꧀ꦔ꧀ꦒꦸꦁ": 7804, "ꦩ꧀ꦔ꧀ꦧ": 7805, "ꦩ꧀ꦔ꧀ꦭꦶ": 7806, "ꦩ꧀ꦕꦸ": 7807, "ꦩ꧀ꦕꦺꦴꦂ": 7808, "ꦩ꧀ꦕꦻ": 7809, "ꦩ꧀ꦕ꧀ꦒꦸ": 7810, "ꦩ꧀ꦕ꧀ꦗ꦳": 7811, "ꦩ꧀ꦕ꧀ꦠ꧀": 7812, "ꦩ꧀ꦕ꧀ꦢ": 7813, "ꦩ꧀ꦕ꧀ꦤꦼ": 7814, "ꦩ꧀ꦕ꧀ꦥ꦳": 7815, "ꦩ꧀ꦕ꧀ꦥꦼ": 7816, "ꦩ꧀ꦕ꧀ꦧꦼ": 7817, "ꦩ꧀ꦕ꧀ꦩꦸ": 7818, "ꦩ꧀ꦕ꧀ꦩꦼ": 7819, "ꦩ꧀ꦕ꧀ꦫ꧀": 7820, "ꦩ꧀ꦕ꧀ꦭꦸ": 7821, "ꦩ꧀ꦕ꧀ꦮꦼ": 7822, "ꦩ꧀ꦕ꧀ꦱ꧀": 7823, "ꦩ꧀ꦗꦁ": 7824, "ꦩ꧀ꦗ꦳ꦺ": 7825, "ꦩ꧀ꦗꦸꦂ": 7826, "ꦩ꧀ꦗ꧀ꦤ꧀": 7827, "ꦩ꧀ꦚ꧀": 7828, "ꦩ꧀ꦛꦶ": 7829, "ꦩ꧀ꦛꦺꦁ": 7830, "ꦩ꧀ꦝꦶ": 7831, "ꦩ꧀ꦝꦼ": 7832, "ꦩ꧀ꦠ꧀ꦠ꧀": 7833, "ꦩ꧀ꦠ꧀ꦢ꧀": 7834, "ꦩ꧀ꦠ꧀ꦫꦺꦴ": 7835, "ꦩ꧀ꦠ꧀ꦯꦺꦴ": 7836, "ꦩ꧀ꦠ꧀ꦱꦸ": 7837, "ꦩ꧀ꦢꦂ": 7838, "ꦩ꧀ꦢꦺꦴꦁ": 7839, "ꦩ꧀ꦢ꧀ꦒ꧀": 7840, "ꦩ꧀ꦢ꧀ꦪ": 7841, "ꦩ꧀ꦢ꧀ꦫ": 7842, "ꦩ꧀ꦤꦼꦃ": 7843, "ꦩ꧀ꦤ꧀ꦤꦶ": 7844, "ꦩ꧀ꦤ꧀ꦥ꧀": 7845, "ꦩ꧀ꦥ꦳ꦂ": 7846, "ꦩ꧀ꦥ꦳ꦴꦂ": 7847, "ꦩ꧀ꦥ꦳ꦺ": 7848, "ꦩ꧀ꦥ꦳꧀ꦫꦸ": 7849, "ꦩ꧀ꦥ꦳꧀ꦭꦶ": 7850, "ꦩ꧀ꦥ꦳꧀ꦭꦼ": 7851, "ꦩ꧀ꦥ꦳꧀ꦱ꧀": 7852, "ꦩ꧀ꦥ꦳꧀ꦲ꧀": 7853, "ꦩ꧀ꦥꦶꦃ": 7854, "ꦩ꧀ꦥꦷ": 7855, "ꦩ꧀ꦥꦾꦺꦴꦃ": 7856, "ꦩ꧀ꦥꦿ": 7857, "ꦩ꧀ꦥꦿꦸꦁ": 7858, "ꦩ꧀ꦥꦿꦺꦴꦁ": 7859, "ꦩ꧀ꦥ꧀ꦒ꧀": 7860, "ꦩ꧀ꦥ꧀ꦔ꧀": 7861, "ꦩ꧀ꦥ꧀ꦗ꧀": 7862, "ꦩ꧀ꦥ꧀ꦠ": 7863, "ꦩ꧀ꦥ꧀ꦠꦼꦂ": 7864, "ꦩ꧀ꦥ꧀ꦥ꦳ꦼ": 7865, "ꦩ꧀ꦥ꧀ꦥ꦳ꦼꦂ": 7866, "ꦩ꧀ꦥ꧀ꦩ": 7867, "ꦩ꧀ꦥ꧀ꦪꦶꦁ": 7868, "ꦩ꧀ꦥ꧀ꦪꦺꦴꦁ": 7869, "ꦩ꧀ꦥ꧀ꦫꦃ": 7870, "ꦩ꧀ꦥ꧀ꦫꦶꦃ": 7871, "ꦩ꧀ꦥ꧀ꦫꦸꦁ": 7872, "ꦩ꧀ꦥ꧀ꦫꦺꦃ": 7873, "ꦩ꧀ꦥ꧀ꦫꦻ": 7874, "ꦩ꧀ꦥ꧀ꦭ꧀": 7875, "ꦩ꧀ꦥ꧀ꦱꦶ": 7876, "ꦩ꧀ꦧꦴꦃ": 7877, "ꦩ꧀ꦧꦻꦃ": 7878, "ꦩ꧀ꦧꦿ": 7879, "ꦩ꧀ꦧ꧀ꦏꦼ": 7880, "ꦩ꧀ꦧ꧀ꦔ꧀": 7881, "ꦩ꧀ꦧ꧀ꦗꦃ": 7882, "ꦩ꧀ꦧ꧀ꦢꦼ": 7883, "ꦩ꧀ꦧ꧀ꦤ": 7884, "ꦩ꧀ꦧ꧀ꦥꦺꦴ": 7885, "ꦩ꧀ꦧ꧀ꦧꦶ": 7886, "ꦩ꧀ꦧ꧀ꦧꦼ": 7887, "ꦩ꧀ꦧ꧀ꦧꦼꦂ": 7888, "ꦩ꧀ꦧ꧀ꦪꦼ": 7889, "ꦩ꧀ꦧ꧀ꦪ꧀": 7890, "ꦩ꧀ꦧ꧀ꦭꦺꦁ": 7891, "ꦩ꧀ꦧ꧀ꦭꦻ": 7892, "ꦩ꧀ꦧ꧀ꦮꦼ": 7893, "ꦩ꧀ꦩꦁ": 7894, "ꦩ꧀ꦩꦶꦂ": 7895, "ꦩ꧀ꦩ꧀ꦠ꧀": 7896, "ꦩ꧀ꦩ꧀ꦢ꧀": 7897, "ꦩ꧀ꦩ꧀ꦩ": 7898, "ꦩ꧀ꦩ꧀ꦩ꧀": 7899, "ꦩ꧀ꦩ꧀ꦫ꧀": 7900, "ꦩ꧀ꦩ꧀ꦭꦼ": 7901, "ꦩ꧀ꦩ꧀ꦭꦼꦂ": 7902, "ꦩ꧀ꦩ꧀ꦲ꧀": 7903, "ꦩ꧀ꦪꦸ": 7904, "ꦩ꧀ꦪ꧀ꦏ": 7905, "ꦩ꧀ꦪ꧀ꦏꦶ": 7906, "ꦩ꧀ꦪ꧀ꦕ": 7907, "ꦩ꧀ꦪ꧀ꦕꦶ": 7908, "ꦩ꧀ꦪ꧀ꦠꦶ": 7909, "ꦩ꧀ꦪ꧀ꦤꦼ": 7910, "ꦩ꧀ꦪ꧀ꦥ꦳ꦶ": 7911, "ꦩ꧀ꦪ꧀ꦭꦼꦂ": 7912, "ꦩ꧀ꦫꦺꦴꦁ": 7913, "ꦩ꧀ꦫ꧀ꦏ꧀": 7914, "ꦩ꧀ꦫ꧀ꦤꦶ": 7915, "ꦩ꧀ꦫ꧀ꦥ꧀": 7916, "ꦩ꧀ꦭꦶꦁ": 7917, "ꦩ꧀ꦭꦶꦃ": 7918, "ꦩ꧀ꦭꦺꦁ": 7919, "ꦩ꧀ꦭꦺꦴꦁ": 7920, "ꦩ꧀ꦭ꧀ꦒ꧀": 7921, "ꦩ꧀ꦭ꧀ꦥ꧀": 7922, "ꦩ꧀ꦭ꧀ꦩ": 7923, "ꦩ꧀ꦭ꧀ꦩ꧀": 7924, "ꦩ꧀ꦭ꧀ꦭꦂ": 7925, "ꦩ꧀ꦭ꧀ꦭ꧀": 7926, "ꦩ꧀ꦮꦺ": 7927, "ꦩ꧀ꦮ꧀ꦔ꧀": 7928, "ꦩ꧀ꦮ꧀ꦪ꧀": 7929, "ꦩ꧀ꦮ꧀ꦭꦁ": 7930, "ꦩ꧀ꦯꦺꦴ": 7931, "ꦩ꧀ꦯ꧀ꦏ꧀": 7932, "ꦩ꧀ꦱꦃ": 7933, "ꦩ꧀ꦱꦴ": 7934, "ꦩ꧀ꦱꦺ": 7935, "ꦩ꧀ꦱꦻ": 7936, "ꦩ꧀ꦱ꧀ꦒ꧀": 7937, "ꦩ꧀ꦱ꧀ꦕꦼ": 7938, "ꦩ꧀ꦱ꧀ꦗꦂ": 7939, "ꦩ꧀ꦱ꧀ꦗꦃ": 7940, "ꦩ꧀ꦱ꧀ꦗ꦳": 7941, "ꦩ꧀ꦱ꧀ꦗ꦳ꦼ": 7942, "ꦩ꧀ꦱ꧀ꦗ꦳꧀": 7943, "ꦩ꧀ꦱ꧀ꦠꦂ": 7944, "ꦩ꧀ꦱ꧀ꦠꦶ": 7945, "ꦩ꧀ꦱ꧀ꦤ꧀": 7946, "ꦩ꧀ꦱ꧀ꦥ꦳ꦼ": 7947, "ꦩ꧀ꦱ꧀ꦥ꧀": 7948, "ꦩ꧀ꦱ꧀ꦩ꧀": 7949, "ꦩ꧀ꦱ꧀ꦫꦼ": 7950, "ꦩ꧀ꦱ꧀ꦫ꧀": 7951, "ꦩ꧀ꦱ꧀ꦭ": 7952, "ꦩ꧀ꦱ꧀ꦭꦴ": 7953, "ꦩ꧀ꦱ꧀ꦱ": 7954, "ꦩ꧀ꦱ꧀ꦱꦴ": 7955, "ꦩ꧀ꦱ꧀ꦱꦺꦴ": 7956, "ꦩ꧀ꦲꦂ": 7957, "ꦩ꧀ꦲꦴꦂ": 7958, "ꦩ꧀ꦲꦺꦴꦁ": 7959, "ꦩ꧀ꦲꦼꦂ": 7960, "ꦩ꧀ꦲ꧀ꦢ꧀": 7961, "ꦩ꧀ꦲ꧀ꦤ": 7962, "ꦩ꧀ꦲ꧀ꦤꦶ": 7963, "ꦩ꧀ꦲ꧀ꦤꦻ": 7964, "ꦩ꧀ꦲ꧀ꦪꦶ": 7965, "ꦪꦺꦁꦂ": 7966, "ꦪꦻꦁ": 7967, "ꦪ꧀ꦏ": 7968, "ꦪ꧀ꦏꦃ": 7969, "ꦪ꧀ꦏꦸ": 7970, "ꦪ꧀ꦏ꧀ꦤꦺꦴ": 7971, "ꦪ꧀ꦏ꧀ꦫꦺꦴ": 7972, "ꦪ꧀ꦏ꧀ꦱꦺꦴ": 7973, "ꦪ꧀ꦒ": 7974, "ꦪ꧀ꦒꦸ": 7975, "ꦪ꧀ꦒ꧀ꦒ꧀": 7976, "ꦪ꧀ꦔꦷ": 7977, "ꦪ꧀ꦔꦼ": 7978, "ꦪ꧀ꦕꦶ": 7979, "ꦪ꧀ꦕ꧀": 7980, "ꦪ꧀ꦕ꧀ꦭꦶ": 7981, "ꦪ꧀ꦗ꦳ꦶ": 7982, "ꦪ꧀ꦗ꦳ꦸ": 7983, "ꦪ꧀ꦛꦸ": 7984, "ꦪ꧀ꦠꦃ": 7985, "ꦪ꧀ꦠꦸ": 7986, "ꦪ꧀ꦠꦼꦂ": 7987, "ꦪ꧀ꦢ꧀ꦫꦶ": 7988, "ꦪ꧀ꦤꦂ": 7989, "ꦪ꧀ꦤꦸ": 7990, "ꦪ꧀ꦤ꧀ꦕꦶ": 7991, "ꦪ꧀ꦤ꧀ꦕꦸ": 7992, "ꦪ꧀ꦤ꧀ꦢꦶ": 7993, "ꦪ꧀ꦤ꧀ꦧꦺꦴ": 7994, "ꦪ꧀ꦤ꧀ꦱ꧀": 7995, "ꦪ꧀ꦥ꦳": 7996, "ꦪ꧀ꦥ꦳ꦻꦂ": 7997, "ꦪ꧀ꦥ꦳ꦼꦃ": 7998, "ꦪ꧀ꦥ꦳꧀ꦏꦂ": 7999, "ꦪ꧀ꦥ꦳꧀ꦭ": 8000, "ꦪ꧀ꦥ꦳꧀ꦭꦺꦴ": 8001, "ꦪ꧀ꦥ꦳꧀ꦭ꧀": 8002, "ꦪ꧀ꦥꦼꦂ": 8003, "ꦪ꧀ꦥ꧀ꦥ꦳꧀": 8004, "ꦪ꧀ꦥ꧀ꦪꦶ": 8005, "ꦪ꧀ꦥ꧀ꦱ꧀": 8006, "ꦪ꧀ꦧꦼꦂ": 8007, "ꦪ꧀ꦧ꧀ꦕꦺꦴ": 8008, "ꦪ꧀ꦧ꧀ꦢꦶ": 8009, "ꦪ꧀ꦧ꧀ꦫ": 8010, "ꦪ꧀ꦧ꧀ꦫꦶ": 8011, "ꦪ꧀ꦧ꧀ꦮ꧀": 8012, "ꦪ꧀ꦩꦸ": 8013, "ꦪ꧀ꦩ꧀ꦧꦸ": 8014, "ꦪ꧀ꦪꦺꦴ": 8015, "ꦪ꧀ꦪꦺꦴꦃ": 8016, "ꦪ꧀ꦪ꧀ꦱꦃ": 8017, "ꦪ꧀ꦫ꧀ꦯꦶ": 8018, "ꦪ꧀ꦭꦁ": 8019, "ꦪ꧀ꦭꦼꦂ": 8020, "ꦪ꧀ꦭ꧀ꦪ꧀": 8021, "ꦪ꧀ꦭ꧀ꦭꦶ": 8022, "ꦪ꧀ꦭ꧀ꦭ꧀": 8023, "ꦪ꧀ꦮꦂ": 8024, "ꦪ꧀ꦮꦺꦴ": 8025, "ꦪ꧀ꦮ꧀": 8026, "ꦪ꧀ꦮ꧀ꦤꦶ": 8027, "ꦪ꧀ꦯ꧀": 8028, "ꦪ꧀ꦱ꧀ꦏ": 8029, "ꦪ꧀ꦱ꧀ꦕ": 8030, "ꦪ꧀ꦱ꧀ꦗ꦳ꦼ": 8031, "ꦪ꧀ꦱ꧀ꦠꦶ": 8032, "ꦪ꧀ꦱ꧀ꦥꦶ": 8033, "ꦪ꧀ꦱ꧀ꦧꦼꦂ": 8034, "ꦪ꧀ꦱ꧀ꦮ": 8035, "ꦪ꧀ꦱ꧀ꦱꦶ": 8036, "ꦪ꧀ꦱ꧀ꦱꦺꦴ": 8037, "ꦪ꧀ꦲꦸ": 8038, "ꦪ꧀ꦲ꧀": 8039, "ꦪ꧀ꦲ꧀ꦥ꦳꧀": 8040, "ꦫꦴꦁ": 8041, "ꦫꦸꦁꦂ": 8042, "ꦫꦼꦁꦂ": 8043, "ꦫ꧀ꦏꦼ": 8044, "ꦫ꧀ꦏ꧀ꦕ꧀": 8045, "ꦫ꧀ꦏ꧀ꦩꦼ": 8046, "ꦫ꧀ꦏ꧀ꦭꦼ": 8047, "ꦫ꧀ꦏ꧀ꦱꦶ": 8048, "ꦫ꧀ꦒꦼꦂ": 8049, "ꦫ꧀ꦒ꧀ꦕ꧀": 8050, "ꦫ꧀ꦒ꧀ꦮꦼ": 8051, "ꦫ꧀ꦔ꧀": 8052, "ꦫ꧀ꦕ꧀ꦪ꧀": 8053, "ꦫ꧀ꦗ꦳ꦶ": 8054, "ꦫ꧀ꦗ꦳꧀ꦤꦺꦴ": 8055, "ꦫ꧀ꦛꦼꦂ": 8056, "ꦫ꧀ꦠ": 8057, "ꦫ꧀ꦠꦺꦴ": 8058, "ꦫ꧀ꦠ꧀ꦩ": 8059, "ꦫ꧀ꦢ꧀ꦥ꦳꧀": 8060, "ꦫ꧀ꦢ꧀ꦱ꧀": 8061, "ꦫ꧀ꦤꦺ": 8062, "ꦫ꧀ꦤ꧀": 8063, "ꦫ꧀ꦤ꧀ꦏ": 8064, "ꦫ꧀ꦤ꧀ꦏ꧀": 8065, "ꦫ꧀ꦤ꧀ꦥ꧀": 8066, "ꦫ꧀ꦤ꧀ꦱ꧀": 8067, "ꦫ꧀ꦥ꦳ꦸ": 8068, "ꦫ꧀ꦥ꦳ꦸꦂ": 8069, "ꦫ꧀ꦥ꦳꧀": 8070, "ꦫ꧀ꦥꦶ": 8071, "ꦫ꧀ꦥ꧀ꦏ": 8072, "ꦫ꧀ꦧ": 8073, "ꦫ꧀ꦧ꧀ꦒ꧀": 8074, "ꦫ꧀ꦧ꧀ꦪ꧀": 8075, "ꦫ꧀ꦧ꧀ꦱ꧀": 8076, "ꦫ꧀ꦩꦻ": 8077, "ꦫ꧀ꦩ꧀ꦠ꧀": 8078, "ꦫ꧀ꦩ꧀ꦥꦼ": 8079, "ꦫ꧀ꦩ꧀ꦧ꧀": 8080, "ꦫ꧀ꦪꦴ": 8081, "ꦫ꧀ꦪꦼꦂ": 8082, "ꦫ꧀ꦪ꧀ꦒ꧀": 8083, "ꦫ꧀ꦪ꧀ꦢ꦳꧀": 8084, "ꦫ꧀ꦪ꧀ꦢꦼ": 8085, "ꦫ꧀ꦪ꧀ꦥꦶ": 8086, "ꦫ꧀ꦪ꧀ꦧꦶ": 8087, "ꦫ꧀ꦪ꧀ꦱ꧀": 8088, "ꦫ꧀ꦫꦃ": 8089, "ꦫ꧀ꦫꦼ": 8090, "ꦫ꧀ꦫ꧀ꦠ꧀": 8091, "ꦫ꧀ꦫ꧀ꦤ": 8092, "ꦫ꧀ꦯ꧀ꦱ꧀": 8093, "ꦫ꧀ꦱꦺ": 8094, "ꦫ꧀ꦱꦺꦴ": 8095, "ꦫ꧀ꦱꦼ": 8096, "ꦫ꧀ꦱ꧀ꦕ꧀": 8097, "ꦫ꧀ꦱ꧀ꦗ꧀": 8098, "ꦫ꧀ꦱ꧀ꦩ꧀": 8099, "ꦫ꧀ꦲꦁ": 8100, "ꦫ꧀ꦲꦺ": 8101, "ꦫ꧀ꦲ꧀ꦪꦺꦴ": 8102, "ꦭꦁꦃ": 8103, "ꦭꦃꦂ": 8104, "ꦭꦹ": 8105, "ꦭꦹꦂ": 8106, "ꦭ꧀ꦏ꦳": 8107, "ꦭ꧀ꦏ꦳ꦶ": 8108, "ꦭ꧀ꦏ꦳ꦺꦴ": 8109, "ꦭ꧀ꦏꦻꦂ": 8110, "ꦭ꧀ꦏ꧀ꦤꦺꦴ": 8111, "ꦭ꧀ꦏ꧀ꦤꦼꦂ": 8112, "ꦭ꧀ꦏ꧀ꦤ꧀": 8113, "ꦭ꧀ꦏ꧀ꦥ꦳ꦶ": 8114, "ꦭ꧀ꦏ꧀ꦧ꧀": 8115, "ꦭ꧀ꦏ꧀ꦩꦴꦂ": 8116, "ꦭ꧀ꦏ꧀ꦭꦶ": 8117, "ꦭ꧀ꦏ꧀ꦯ": 8118, "ꦭ꧀ꦏ꧀ꦱꦺꦴꦁ": 8119, "ꦭ꧀ꦏ꧀ꦱꦼ": 8120, "ꦭ꧀ꦐ": 8121, "ꦭ꧀ꦐꦂ": 8122, "ꦭ꧀ꦒ꦳ꦺꦴ": 8123, "ꦭ꧀ꦒ꦳ꦼ": 8124, "ꦭ꧀ꦒꦻ": 8125, "ꦭ꧀ꦒ꧀ꦥ꧀": 8126, "ꦭ꧀ꦒ꧀ꦪꦼ": 8127, "ꦭ꧀ꦒ꧀ꦫꦶ": 8128, "ꦭ꧀ꦒ꧀ꦫꦸ": 8129, "ꦭ꧀ꦒ꧀ꦫꦺ": 8130, "ꦭ꧀ꦒ꧀ꦫꦺꦴ": 8131, "ꦭ꧀ꦒ꧀ꦮꦁ": 8132, "ꦭ꧀ꦔꦺ": 8133, "ꦭ꧀ꦔ꧀ꦒ꧀": 8134, "ꦭ꧀ꦔ꧀ꦭꦸ": 8135, "ꦭ꧀ꦕ꧀ꦏ꧀": 8136, "ꦭ꧀ꦕ꧀ꦠ꧀": 8137, "ꦭ꧀ꦕ꧀ꦩ": 8138, "ꦭ꧀ꦕ꧀ꦪꦺꦴ": 8139, "ꦭ꧀ꦕ꧀ꦫꦃ": 8140, "ꦭ꧀ꦕ꧀ꦫꦶ": 8141, "ꦭ꧀ꦕ꧀ꦫꦸ": 8142, "ꦭ꧀ꦗ꦳ꦂ": 8143, "ꦭ꧀ꦗ꦳ꦃ": 8144, "ꦭ꧀ꦗ꦳ꦴ": 8145, "ꦭ꧀ꦗ꦳꧀ꦤꦶ": 8146, "ꦭ꧀ꦗ꦳꧀ꦤꦺꦴ": 8147, "ꦭ꧀ꦗ꦳꧀ꦮ꧀": 8148, "ꦭ꧀ꦛꦂ": 8149, "ꦭ꧀ꦛꦺꦴꦂ": 8150, "ꦭ꧀ꦛꦼꦂ": 8151, "ꦭ꧀ꦝꦶ": 8152, "ꦭ꧀ꦠꦶꦁꦃ": 8153, "ꦭ꧀ꦠꦶꦂ": 8154, "ꦭ꧀ꦠꦼꦁ": 8155, "ꦭ꧀ꦠ꧀ꦗ꦳ꦼꦂ": 8156, "ꦭ꧀ꦠ꧀ꦗꦼ": 8157, "ꦭ꧀ꦠ꧀ꦠ": 8158, "ꦭ꧀ꦠ꧀ꦢꦺꦴꦂ": 8159, "ꦭ꧀ꦠ꧀ꦩ": 8160, "ꦭ꧀ꦠ꧀ꦫꦶꦁ": 8161, "ꦭ꧀ꦠ꧀ꦫ꧀": 8162, "ꦭ꧀ꦠ꧀ꦭꦼꦂ": 8163, "ꦭ꧀ꦠ꧀ꦱꦶ": 8164, "ꦭ꧀ꦢꦂ": 8165, "ꦭ꧀ꦢꦺꦂ": 8166, "ꦭ꧀ꦢ꧀ꦏ꧀": 8167, "ꦭ꧀ꦢ꧀ꦒꦴꦂ": 8168, "ꦭ꧀ꦢ꧀ꦕꦂ": 8169, "ꦭ꧀ꦢ꧀ꦗꦸ": 8170, "ꦭ꧀ꦢ꧀ꦗꦺꦴ": 8171, "ꦭ꧀ꦢ꧀ꦗ꧀": 8172, "ꦭ꧀ꦢ꧀ꦤꦼ": 8173, "ꦭ꧀ꦢ꧀ꦥ꦳ꦶ": 8174, "ꦭ꧀ꦢ꧀ꦧ": 8175, "ꦭ꧀ꦢ꧀ꦧꦺꦴ": 8176, "ꦭ꧀ꦢ꧀ꦩ꧀": 8177, "ꦭ꧀ꦢ꧀ꦮ": 8178, "ꦭ꧀ꦤꦶꦂ": 8179, "ꦭ꧀ꦤ꧀ꦕꦂ": 8180, "ꦭ꧀ꦤ꧀ꦕꦶ": 8181, "ꦭ꧀ꦤ꧀ꦠ": 8182, "ꦭ꧀ꦤ꧀ꦢꦸ": 8183, "ꦭ꧀ꦤ꧀ꦢ꧀": 8184, "ꦭ꧀ꦤ꧀ꦥ꦳꧀": 8185, "ꦭ꧀ꦥ꦳ꦂ": 8186, "ꦭ꧀ꦥ꦳ꦸꦃꦂ": 8187, "ꦭ꧀ꦥ꦳꧀ꦒ꧀": 8188, "ꦭ꧀ꦥ꦳꧀ꦥ": 8189, "ꦭ꧀ꦥ꦳꧀ꦥ꦳ꦼ": 8190, "ꦭ꧀ꦥ꦳꧀ꦥ꦳ꦼꦂ": 8191, "ꦭ꧀ꦥ꦳꧀ꦥꦺꦴꦂ": 8192, "ꦭ꧀ꦥ꦳꧀ꦩꦺꦴ": 8193, "ꦭ꧀ꦥ꦳꧀ꦫꦺ": 8194, "ꦭ꧀ꦥ꦳꧀ꦭ": 8195, "ꦭ꧀ꦥ꦳꧀ꦲꦶ": 8196, "ꦭ꧀ꦥꦺꦴꦂ": 8197, "ꦭ꧀ꦥ꧀ꦠꦼ": 8198, "ꦭ꧀ꦥ꧀ꦥꦸ": 8199, "ꦭ꧀ꦥ꧀ꦥꦺꦴ": 8200, "ꦭ꧀ꦥ꧀ꦫꦺ": 8201, "ꦭ꧀ꦥ꧀ꦫ꧀": 8202, "ꦭ꧀ꦧꦁ": 8203, "ꦭ꧀ꦧꦹ": 8204, "ꦭ꧀ꦧꦺꦴꦁ": 8205, "ꦭ꧀ꦧ꧀ꦗ꧀": 8206, "ꦭ꧀ꦧ꧀ꦥ꧀": 8207, "ꦭ꧀ꦧ꧀ꦧ꧀": 8208, "ꦭ꧀ꦧ꧀ꦫ": 8209, "ꦭ꧀ꦧ꧀ꦭ꧀": 8210, "ꦭ꧀ꦧ꧀ꦮꦸꦂ": 8211, "ꦭ꧀ꦩꦷ": 8212, "ꦭ꧀ꦩ꧀ꦏ": 8213, "ꦭ꧀ꦩ꧀ꦒ꧀": 8214, "ꦭ꧀ꦩ꧀ꦕ꧀": 8215, "ꦭ꧀ꦩ꧀ꦗ꧀": 8216, "ꦭ꧀ꦩ꧀ꦛꦼ": 8217, "ꦭ꧀ꦩ꧀ꦢꦶ": 8218, "ꦭ꧀ꦩ꧀ꦢꦸ": 8219, "ꦭ꧀ꦩ꧀ꦤ": 8220, "ꦭ꧀ꦩ꧀ꦧꦶ": 8221, "ꦭ꧀ꦩ꧀ꦧꦸ": 8222, "ꦭ꧀ꦩ꧀ꦩ꧀": 8223, "ꦭ꧀ꦩ꧀ꦪꦺꦴ": 8224, "ꦭ꧀ꦩ꧀ꦭ": 8225, "ꦭ꧀ꦪꦁ": 8226, "ꦭ꧀ꦪꦸꦁ": 8227, "ꦭ꧀ꦪꦺ": 8228, "ꦭ꧀ꦪꦻ": 8229, "ꦭ꧀ꦪ꧀ꦏꦺꦴ": 8230, "ꦭ꧀ꦪ꧀ꦏꦼ": 8231, "ꦭ꧀ꦪ꧀ꦏ꧀": 8232, "ꦭ꧀ꦪ꧀ꦒꦺꦴ": 8233, "ꦭ꧀ꦪ꧀ꦗ꦳ꦼ": 8234, "ꦭ꧀ꦪ꧀ꦠꦸ": 8235, "ꦭ꧀ꦪ꧀ꦠꦺꦴ": 8236, "ꦭ꧀ꦪ꧀ꦢ": 8237, "ꦭ꧀ꦪ꧀ꦢꦺ": 8238, "ꦭ꧀ꦪ꧀ꦤ": 8239, "ꦭ꧀ꦪ꧀ꦤꦺꦴ": 8240, "ꦭ꧀ꦪ꧀ꦥꦼ": 8241, "ꦭ꧀ꦪ꧀ꦧꦺꦴ": 8242, "ꦭ꧀ꦪ꧀ꦧ꧀": 8243, "ꦭ꧀ꦪ꧀ꦩꦺꦴꦂ": 8244, "ꦭ꧀ꦪ꧀ꦩꦼꦂ": 8245, "ꦭ꧀ꦪ꧀ꦪ꧀": 8246, "ꦭ꧀ꦪ꧀ꦫ꧀": 8247, "ꦭ꧀ꦪ꧀ꦯꦶ": 8248, "ꦭ꧀ꦪ꧀ꦱꦺꦴ": 8249, "ꦭ꧀ꦫꦁ": 8250, "ꦭ꧀ꦫꦃ": 8251, "ꦭ꧀ꦫ꧀ꦠꦶ": 8252, "ꦭ꧀ꦫ꧀ꦤ꧀": 8253, "ꦭ꧀ꦫ꧀ꦪ꧀": 8254, "ꦭ꧀ꦭꦷ": 8255, "ꦭ꧀ꦭꦺꦂ": 8256, "ꦭ꧀ꦭꦼꦁ": 8257, "ꦭ꧀ꦭꦼꦃ": 8258, "ꦭ꧀ꦭ꧀ꦒꦺꦴ": 8259, "ꦭ꧀ꦭ꧀ꦒꦼ": 8260, "ꦭ꧀ꦭ꧀ꦕꦺꦴ": 8261, "ꦭ꧀ꦭ꧀ꦗꦼ": 8262, "ꦭ꧀ꦭ꧀ꦝꦺ": 8263, "ꦭ꧀ꦭ꧀ꦢꦺꦴ": 8264, "ꦭ꧀ꦭ꧀ꦢꦺꦴꦂ": 8265, "ꦭ꧀ꦭ꧀ꦤꦼ": 8266, "ꦭ꧀ꦭ꧀ꦤ꧀": 8267, "ꦭ꧀ꦭ꧀ꦥꦂ": 8268, "ꦭ꧀ꦭ꧀ꦥ꦳ꦶ": 8269, "ꦭ꧀ꦭ꧀ꦥꦸꦂ": 8270, "ꦭ꧀ꦭ꧀ꦧꦃ": 8271, "ꦭ꧀ꦭ꧀ꦧꦸ": 8272, "ꦭ꧀ꦭ꧀ꦧꦼ": 8273, "ꦭ꧀ꦭ꧀ꦧꦼꦂ": 8274, "ꦭ꧀ꦭ꧀ꦩꦼ": 8275, "ꦭ꧀ꦭ꧀ꦩꦼꦂ": 8276, "ꦭ꧀ꦭ꧀ꦭꦶ": 8277, "ꦭ꧀ꦭ꧀ꦮꦺꦴ": 8278, "ꦭ꧀ꦭ꧀ꦱ": 8279, "ꦭ꧀ꦭ꧀ꦲꦺꦴꦂ": 8280, "ꦭ꧀ꦭ꧀ꦲꦼꦂ": 8281, "ꦭ꧀ꦮꦺꦴꦂ": 8282, "ꦭ꧀ꦮ꧀": 8283, "ꦭ꧀ꦯꦶ": 8284, "ꦭ꧀ꦯꦺꦴ": 8285, "ꦭ꧀ꦯ꧀ꦛ꧀": 8286, "ꦭ꧀ꦱꦃ": 8287, "ꦭ꧀ꦱ꧀ꦏꦺ": 8288, "ꦭ꧀ꦱ꧀ꦏꦼ": 8289, "ꦭ꧀ꦱ꧀ꦒꦼ": 8290, "ꦭ꧀ꦱ꧀ꦕ": 8291, "ꦭ꧀ꦱ꧀ꦕꦶ": 8292, "ꦭ꧀ꦱ꧀ꦠꦂ": 8293, "ꦭ꧀ꦱ꧀ꦠꦷ": 8294, "ꦭ꧀ꦱ꧀ꦠꦺꦴꦂ": 8295, "ꦭ꧀ꦱ꧀ꦤꦼ": 8296, "ꦭ꧀ꦱ꧀ꦤꦼꦂ": 8297, "ꦭ꧀ꦱ꧀ꦥꦺꦴꦂ": 8298, "ꦭ꧀ꦱ꧀ꦥꦼ": 8299, "ꦭ꧀ꦱ꧀ꦧ": 8300, "ꦭ꧀ꦱ꧀ꦧꦸꦂ": 8301, "ꦭ꧀ꦱ꧀ꦫꦼ": 8302, "ꦭ꧀ꦱ꧀ꦭ": 8303, "ꦭ꧀ꦱ꧀ꦭꦼ": 8304, "ꦭ꧀ꦱ꧀ꦮꦶ": 8305, "ꦭ꧀ꦱ꧀ꦱ": 8306, "ꦭ꧀ꦱ꧀ꦱꦺꦴ": 8307, "ꦭ꧀ꦱ꧀ꦱꦺꦴꦃ": 8308, "ꦭ꧀ꦲꦺ": 8309, "ꦭ꧀ꦲ꧀ꦮꦶ": 8310, "ꦭ꧀ꦲ꧀ꦱꦶ": 8311, "ꦭ꧀ꦲ꧀ꦱ꧀": 8312, "ꦮꦴꦃ": 8313, "ꦮꦺꦴꦃꦂ": 8314, "ꦮꦻꦁ": 8315, "ꦮꦿꦸ": 8316, "ꦮ꧀ꦏꦺꦴ": 8317, "ꦮ꧀ꦏ꧀ꦏ꧀": 8318, "ꦮ꧀ꦏ꧀ꦪ꧀": 8319, "ꦮ꧀ꦐ": 8320, "ꦮ꧀ꦒ": 8321, "ꦮ꧀ꦒꦶ": 8322, "ꦮ꧀ꦔꦶꦁ": 8323, "ꦮ꧀ꦔꦸ": 8324, "ꦮ꧀ꦔ꧀": 8325, "ꦮ꧀ꦔ꧀ꦫ": 8326, "ꦮ꧀ꦕ꧀ꦮꦁ": 8327, "ꦮ꧀ꦕ꧀ꦱꦼ": 8328, "ꦮ꧀ꦗ꦳": 8329, "ꦮ꧀ꦚ": 8330, "ꦮ꧀ꦝꦃ": 8331, "ꦮ꧀ꦝꦺ": 8332, "ꦮ꧀ꦢꦺꦴꦂ": 8333, "ꦮ꧀ꦤꦼꦃ": 8334, "ꦮ꧀ꦤ꧀ꦏ꧀": 8335, "ꦮ꧀ꦤ꧀ꦠꦂ": 8336, "ꦮ꧀ꦤ꧀ꦠ꧀": 8337, "ꦮ꧀ꦤ꧀ꦢ꧀": 8338, "ꦮ꧀ꦤ꧀ꦥ꦳ꦶ": 8339, "ꦮ꧀ꦤ꧀ꦫꦶ": 8340, "ꦮ꧀ꦤ꧀ꦭꦼ": 8341, "ꦮ꧀ꦤ꧀ꦲ": 8342, "ꦮ꧀ꦥ꦳꧀ꦭ꧀": 8343, "ꦮ꧀ꦥꦶ": 8344, "ꦮ꧀ꦥꦸ": 8345, "ꦮ꧀ꦥ꧀ꦭꦺꦴ": 8346, "ꦮ꧀ꦧꦸ": 8347, "ꦮ꧀ꦧ꧀": 8348, "ꦮ꧀ꦧ꧀ꦧꦶ": 8349, "ꦮ꧀ꦪꦼꦂ": 8350, "ꦮ꧀ꦪ꧀ꦕꦺꦴ": 8351, "ꦮ꧀ꦪ꧀ꦛ꧀": 8352, "ꦮ꧀ꦪ꧀ꦢ꧀": 8353, "ꦮ꧀ꦫꦸꦁ": 8354, "ꦮ꧀ꦫ꧀ꦤ": 8355, "ꦮ꧀ꦫ꧀ꦤꦶ": 8356, "ꦮ꧀ꦫ꧀ꦮ": 8357, "ꦮ꧀ꦭ꧀ꦏꦼꦂ": 8358, "ꦮ꧀ꦭ꧀ꦥ꦳ꦼ": 8359, "ꦮ꧀ꦭ꧀ꦪ꧀": 8360, "ꦮ꧀ꦭ꧀ꦭꦃ": 8361, "ꦮ꧀ꦮꦁ": 8362, "ꦮ꧀ꦮꦸꦂ": 8363, "ꦮ꧀ꦮꦺꦴ": 8364, "ꦮ꧀ꦯ": 8365, "ꦮ꧀ꦯꦺꦴ": 8366, "ꦮ꧀ꦱ": 8367, "ꦮ꧀ꦱꦶꦃ": 8368, "ꦮ꧀ꦱꦼ": 8369, "ꦮ꧀ꦱ꧀ꦏꦺꦴ": 8370, "ꦮ꧀ꦱ꧀ꦏ꧀": 8371, "ꦮ꧀ꦱ꧀ꦕꦺꦴ": 8372, "ꦮ꧀ꦱ꧀ꦢ": 8373, "ꦮ꧀ꦱ꧀ꦥ": 8374, "ꦮ꧀ꦱ꧀ꦧꦸꦂ": 8375, "ꦮ꧀ꦱ꧀ꦧ꧀": 8376, "ꦮ꧀ꦱ꧀ꦭ꧀": 8377, "ꦮ꧀ꦱ꧀ꦮꦼ": 8378, "ꦮ꧀ꦱ꧀ꦯꦼ": 8379, "ꦮ꧀ꦲꦻ": 8380, "ꦮ꧀ꦲꦼꦂ": 8381, "ꦮ꧀ꦲ꧀": 8382, "ꦮ꧀ꦲ꧀ꦪ": 8383, "ꦮ꧀ꦲ꧀ꦲꦶ": 8384, "ꦯꦴꦂ": 8385, "ꦯꦺꦴꦁ": 8386, "ꦯꦻꦃ": 8387, "ꦯ꧀ꦏ꧀": 8388, "ꦯ꧀ꦏ꧀ꦠ꧀": 8389, "ꦯ꧀ꦐꦸ": 8390, "ꦯ꧀ꦐꦻ": 8391, "ꦯ꧀ꦒ": 8392, "ꦯ꧀ꦕꦼ": 8393, "ꦯ꧀ꦗꦶ": 8394, "ꦯ꧀ꦠꦼꦃ": 8395, "ꦯ꧀ꦠ꧀ꦪ": 8396, "ꦯ꧀ꦠ꧀ꦫꦶ": 8397, "ꦯ꧀ꦠ꧀ꦭꦶꦁ": 8398, "ꦯ꧀ꦢꦶ": 8399, "ꦯ꧀ꦢ꧀ꦪ꧀": 8400, "ꦯ꧀ꦤ꧀ꦕꦂ": 8401, "ꦯ꧀ꦤ꧀ꦕꦺꦴ": 8402, "ꦯ꧀ꦤ꧀ꦥ꦳ꦼ": 8403, "ꦯ꧀ꦤ꧀ꦥ꦳꧀": 8404, "ꦯ꧀ꦤ꧀ꦧ꧀": 8405, "ꦯ꧀ꦥ꦳ꦂ": 8406, "ꦯ꧀ꦥ꦳ꦸ": 8407, "ꦯ꧀ꦥ꦳꧀": 8408, "ꦯ꧀ꦥ꧀ꦭ": 8409, "ꦯ꧀ꦧ꧀ꦪ꧀": 8410, "ꦯ꧀ꦧ꧀ꦫꦺꦴ": 8411, "ꦯ꧀ꦩꦺ": 8412, "ꦯ꧀ꦩ꧀": 8413, "ꦯ꧀ꦩ꧀ꦥ꦳ꦺꦴ": 8414, "ꦯ꧀ꦩ꧀ꦩ": 8415, "ꦯ꧀ꦩ꧀ꦩꦼꦂ": 8416, "ꦯ꧀ꦩ꧀ꦪꦼ": 8417, "ꦯ꧀ꦪꦺꦴ": 8418, "ꦯ꧀ꦭꦂ": 8419, "ꦯ꧀ꦭꦶ": 8420, "ꦯ꧀ꦭꦸ": 8421, "ꦯ꧀ꦭꦼꦂ": 8422, "ꦯ꧀ꦭ꧀ꦠ꧀": 8423, "ꦯ꧀ꦱ": 8424, "ꦯ꧀ꦱꦺꦴ": 8425, "ꦯ꧀ꦱ꧀ꦠ": 8426, "ꦯ꧀ꦲꦸ": 8427, "ꦯ꧀ꦲ꧀": 8428, "ꦰ꧀ꦛꦺ": 8429, "ꦱꦴꦂ": 8430, "ꦱꦸꦃꦂ": 8431, "ꦱꦻꦃ": 8432, "ꦱꦿꦺ": 8433, "ꦱ꧀ꦏ꦳": 8434, "ꦱ꧀ꦏ꦳꧀": 8435, "ꦱ꧀ꦏꦼꦁ": 8436, "ꦱ꧀ꦏ꧀ꦗ꧀": 8437, "ꦱ꧀ꦏ꧀ꦥ꦳꧀": 8438, "ꦱ꧀ꦏ꧀ꦥꦸ": 8439, "ꦱ꧀ꦏ꧀ꦥꦺ": 8440, "ꦱ꧀ꦏ꧀ꦥꦼ": 8441, "ꦱ꧀ꦏ꧀ꦩ꧀": 8442, "ꦱ꧀ꦏ꧀ꦪꦼꦂ": 8443, "ꦱ꧀ꦏ꧀ꦫ": 8444, "ꦱ꧀ꦏ꧀ꦭꦸ": 8445, "ꦱ꧀ꦏ꧀ꦱꦶ": 8446, "ꦱ꧀ꦏ꧀ꦱꦸꦂ": 8447, "ꦱ꧀ꦒ꦳": 8448, "ꦱ꧀ꦒꦴꦂ": 8449, "ꦱ꧀ꦒꦶꦂ": 8450, "ꦱ꧀ꦒꦼꦂ": 8451, "ꦱ꧀ꦒ꧀ꦒꦼꦂ": 8452, "ꦱ꧀ꦒ꧀ꦫꦶ": 8453, "ꦱ꧀ꦒ꧀ꦫꦼ": 8454, "ꦱ꧀ꦒ꧀ꦭ꧀": 8455, "ꦱ꧀ꦔꦼ": 8456, "ꦱ꧀ꦔ꧀ꦒꦺꦴ": 8457, "ꦱ꧀ꦔ꧀ꦪꦸ": 8458, "ꦱ꧀ꦔ꧀ꦫꦼ": 8459, "ꦱ꧀ꦔ꧀ꦭꦶ": 8460, "ꦱ꧀ꦔ꧀ꦱꦸ": 8461, "ꦱ꧀ꦕꦸꦂ": 8462, "ꦱ꧀ꦕꦸꦃ": 8463, "ꦱ꧀ꦕꦻ": 8464, "ꦱ꧀ꦕ꧀ꦏꦺꦴ": 8465, "ꦱ꧀ꦕ꧀ꦏꦼꦂ": 8466, "ꦱ꧀ꦕ꧀ꦠꦺꦴꦂ": 8467, "ꦱ꧀ꦕ꧀ꦩꦂ": 8468, "ꦱ꧀ꦕ꧀ꦩ꧀": 8469, "ꦱ꧀ꦕ꧀ꦪꦴ": 8470, "ꦱ꧀ꦕ꧀ꦭꦻ": 8471, "ꦱ꧀ꦕ꧀ꦱ": 8472, "ꦱ꧀ꦗ꦳ꦸ": 8473, "ꦱ꧀ꦗ꦳꧀ꦏꦺꦴ": 8474, "ꦱ꧀ꦗ꦳꧀ꦠ": 8475, "ꦱ꧀ꦗ꦳꧀ꦠꦸ": 8476, "ꦱ꧀ꦗ꦳꧀ꦤꦶ": 8477, "ꦱ꧀ꦗ꦳꧀ꦤꦺꦴ": 8478, "ꦱ꧀ꦗ꦳꧀ꦭꦺ": 8479, "ꦱ꧀ꦗ꦳꧀ꦮꦶ": 8480, "ꦱ꧀ꦗꦻ": 8481, "ꦱ꧀ꦗ꧀ꦏ꧀": 8482, "ꦱ꧀ꦚꦶ": 8483, "ꦱ꧀ꦚ꧀": 8484, "ꦱ꧀ꦚ꧀ꦏ꧀": 8485, "ꦱ꧀ꦝꦂ": 8486, "ꦱ꧀ꦝꦼ": 8487, "ꦱ꧀ꦠꦺꦂ": 8488, "ꦱ꧀ꦠꦻꦁ": 8489, "ꦱ꧀ꦠ꧀ꦏ": 8490, "ꦱ꧀ꦠ꧀ꦏꦶ": 8491, "ꦱ꧀ꦠ꧀ꦏꦺꦴ": 8492, "ꦱ꧀ꦠ꧀ꦒ": 8493, "ꦱ꧀ꦠ꧀ꦒ꧀": 8494, "ꦱ꧀ꦠ꧀ꦕꦂ": 8495, "ꦱ꧀ꦠ꧀ꦗ": 8496, "ꦱ꧀ꦠ꧀ꦗꦼꦂ": 8497, "ꦱ꧀ꦠ꧀ꦛ": 8498, "ꦱ꧀ꦠ꧀ꦠꦂ": 8499, "ꦱ꧀ꦠ꧀ꦠꦶꦂ": 8500, "ꦱ꧀ꦠ꧀ꦢ꧀": 8501, "ꦱ꧀ꦠ꧀ꦤꦼ": 8502, "ꦱ꧀ꦠ꧀ꦥ꦳ꦶꦂ": 8503, "ꦱ꧀ꦠ꧀ꦥꦸꦂ": 8504, "ꦱ꧀ꦠ꧀ꦩꦴ": 8505, "ꦱ꧀ꦠ꧀ꦪꦺꦁ": 8506, "ꦱ꧀ꦠ꧀ꦫꦺꦴꦂ": 8507, "ꦱ꧀ꦠ꧀ꦭꦃ": 8508, "ꦱ꧀ꦠ꧀ꦭ꧀": 8509, "ꦱ꧀ꦠ꧀ꦮꦸꦂ": 8510, "ꦱ꧀ꦢ꦳꧀": 8511, "ꦱ꧀ꦢꦷ": 8512, "ꦱ꧀ꦢꦸꦂ": 8513, "ꦱ꧀ꦢ꧀ꦏ꧀": 8514, "ꦱ꧀ꦢ꧀ꦒ꧀": 8515, "ꦱ꧀ꦢ꧀ꦕ꧀": 8516, "ꦱ꧀ꦢ꧀ꦫꦺꦴ": 8517, "ꦱ꧀ꦢ꧀ꦫꦼ": 8518, "ꦱ꧀ꦢ꧀ꦭ꧀": 8519, "ꦱ꧀ꦤꦂ": 8520, "ꦱ꧀ꦤꦴ": 8521, "ꦱ꧀ꦤꦻ": 8522, "ꦱ꧀ꦤ꧀ꦕꦸ": 8523, "ꦱ꧀ꦤ꧀ꦕꦺꦴ": 8524, "ꦱ꧀ꦤ꧀ꦢ": 8525, "ꦱ꧀ꦤ꧀ꦢꦼꦂ": 8526, "ꦱ꧀ꦤ꧀ꦤ": 8527, "ꦱ꧀ꦤ꧀ꦥꦺꦴꦂ": 8528, "ꦱ꧀ꦤ꧀ꦥꦼ": 8529, "ꦱ꧀ꦤ꧀ꦧ": 8530, "ꦱ꧀ꦤ꧀ꦧ꧀": 8531, "ꦱ꧀ꦤ꧀ꦲ꧀": 8532, "ꦱ꧀ꦥꦁ": 8533, "ꦱ꧀ꦥ꦳꧀ꦕ꧀": 8534, "ꦱ꧀ꦥ꦳꧀ꦧ꧀": 8535, "ꦱ꧀ꦥ꦳꧀ꦫ": 8536, "ꦱ꧀ꦥ꦳꧀ꦱ꧀": 8537, "ꦱ꧀ꦥꦴ": 8538, "ꦱ꧀ꦥꦶꦂ": 8539, "ꦱ꧀ꦥꦸꦃ": 8540, "ꦱ꧀ꦥꦺꦴꦁ": 8541, "ꦱ꧀ꦥꦻꦃ": 8542, "ꦱ꧀ꦥ꧀ꦒ꦳ꦼ": 8543, "ꦱ꧀ꦥ꧀ꦧꦸ": 8544, "ꦱ꧀ꦥ꧀ꦩ꧀": 8545, "ꦱ꧀ꦥ꧀ꦪ": 8546, "ꦱ꧀ꦥ꧀ꦫꦶꦃ": 8547, "ꦱ꧀ꦥ꧀ꦫꦸꦁ": 8548, "ꦱ꧀ꦥ꧀ꦫꦺ": 8549, "ꦱ꧀ꦥ꧀ꦫꦻ": 8550, "ꦱ꧀ꦥ꧀ꦫ꧀": 8551, "ꦱ꧀ꦥ꧀ꦭꦺꦴ": 8552, "ꦱ꧀ꦧꦂ": 8553, "ꦱ꧀ꦧ꧀ꦏ꧀": 8554, "ꦱ꧀ꦧ꧀ꦒ꧀": 8555, "ꦱ꧀ꦧ꧀ꦪꦃ": 8556, "ꦱ꧀ꦧ꧀ꦫꦶ": 8557, "ꦱ꧀ꦧ꧀ꦫꦼ": 8558, "ꦱ꧀ꦧ꧀ꦫ꧀": 8559, "ꦱ꧀ꦧ꧀ꦭꦶ": 8560, "ꦱ꧀ꦩꦺꦴꦂ": 8561, "ꦱ꧀ꦩ꧀ꦏ꦳꧀": 8562, "ꦱ꧀ꦩ꧀ꦕ꧀": 8563, "ꦱ꧀ꦩ꧀ꦢ꧀": 8564, "ꦱ꧀ꦩ꧀ꦤ꧀": 8565, "ꦱ꧀ꦩ꧀ꦥꦸ": 8566, "ꦱ꧀ꦩ꧀ꦧ꧀": 8567, "ꦱ꧀ꦩ꧀ꦪꦼꦂ": 8568, "ꦱ꧀ꦪꦺ": 8569, "ꦱ꧀ꦪ꧀": 8570, "ꦱ꧀ꦫꦂ": 8571, "ꦱ꧀ꦫꦶꦃ": 8572, "ꦱ꧀ꦫꦺꦁ": 8573, "ꦱ꧀ꦫꦼꦂ": 8574, "ꦱ꧀ꦫ꧀ꦒꦸ": 8575, "ꦱ꧀ꦫ꧀ꦕꦺꦴ": 8576, "ꦱ꧀ꦫ꧀ꦕ꧀": 8577, "ꦱ꧀ꦫ꧀ꦗ꦳꧀": 8578, "ꦱ꧀ꦫ꧀ꦠꦶ": 8579, "ꦱ꧀ꦫ꧀ꦤꦼꦂ": 8580, "ꦱ꧀ꦫ꧀ꦫꦺꦴ": 8581, "ꦱ꧀ꦫ꧀ꦫ꧀": 8582, "ꦱ꧀ꦫ꧀ꦭ꧀": 8583, "ꦱ꧀ꦫ꧀ꦱ꧀": 8584, "ꦱ꧀ꦭꦶꦂ": 8585, "ꦱ꧀ꦭꦷ": 8586, "ꦱ꧀ꦭꦸꦁ": 8587, "ꦱ꧀ꦭꦺꦴꦁ": 8588, "ꦱ꧀ꦭꦻ": 8589, "ꦱ꧀ꦭ꧀ꦒꦼ": 8590, "ꦱ꧀ꦭ꧀ꦒ꧀": 8591, "ꦱ꧀ꦭ꧀ꦗ꧀": 8592, "ꦱ꧀ꦭ꧀ꦢ꧀": 8593, "ꦱ꧀ꦭ꧀ꦤꦶ": 8594, "ꦱ꧀ꦭ꧀ꦥ꧀": 8595, "ꦱ꧀ꦭ꧀ꦧ꧀": 8596, "ꦱ꧀ꦭ꧀ꦭ꧀": 8597, "ꦱ꧀ꦭ꧀ꦲ": 8598, "ꦱ꧀ꦮꦶꦂ": 8599, "ꦱ꧀ꦮꦸꦁ": 8600, "ꦱ꧀ꦮꦺꦴꦁ": 8601, "ꦱ꧀ꦮꦼꦂ": 8602, "ꦱ꧀ꦮ꧀ꦏ": 8603, "ꦱ꧀ꦮ꧀ꦤ꧀": 8604, "ꦱ꧀ꦯꦃ": 8605, "ꦱ꧀ꦯꦶ": 8606, "ꦱ꧀ꦯ꧀ꦥꦶ": 8607, "ꦱ꧀ꦯ꧀ꦫ": 8608, "ꦱ꧀ꦱꦴ": 8609, "ꦱ꧀ꦱꦷ": 8610, "ꦱ꧀ꦱꦻꦂ": 8611, "ꦱ꧀ꦱ꧀ꦕꦺꦴ": 8612, "ꦱ꧀ꦱ꧀ꦕꦼ": 8613, "ꦱ꧀ꦱ꧀ꦠꦶ": 8614, "ꦱ꧀ꦱ꧀ꦤꦶ": 8615, "ꦱ꧀ꦱ꧀ꦤꦺꦴ": 8616, "ꦱ꧀ꦱ꧀ꦥ꦳꧀": 8617, "ꦱ꧀ꦱ꧀ꦥꦺꦴꦂ": 8618, "ꦱ꧀ꦱ꧀ꦧꦶ": 8619, "ꦱ꧀ꦱ꧀ꦭ": 8620, "ꦱ꧀ꦲ": 8621, "ꦱ꧀ꦲ꧀ꦤꦼ": 8622, "ꦱ꧀ꦲ꧀ꦫꦸꦁ": 8623, "ꦱ꧀ꦲ꧀ꦭꦶ": 8624, "ꦲꦸꦃ": 8625, "ꦲꦻꦁ": 8626, "ꦲ꧀ꦏ": 8627, "ꦲ꧀ꦏꦶ": 8628, "ꦲ꧀ꦏꦸ": 8629, "ꦲ꧀ꦏ꧀ꦠꦂ": 8630, "ꦲ꧀ꦏ꧀ꦢ꧀": 8631, "ꦲ꧀ꦒꦸ": 8632, "ꦲ꧀ꦒ꧀ꦥ꦳꧀": 8633, "ꦲ꧀ꦕꦷ": 8634, "ꦲ꧀ꦕ꧀": 8635, "ꦲ꧀ꦕ꧀ꦏ꧀": 8636, "ꦲ꧀ꦕ꧀ꦩ꧀": 8637, "ꦲ꧀ꦗꦺꦴꦂ": 8638, "ꦲ꧀ꦠꦶ": 8639, "ꦲ꧀ꦠ꧀ꦭ꧀": 8640, "ꦲ꧀ꦢꦶ": 8641, "ꦲ꧀ꦢꦼ": 8642, "ꦲ꧀ꦢ꧀ꦒ": 8643, "ꦲ꧀ꦢ꧀ꦠ꧀": 8644, "ꦲ꧀ꦢ꧀ꦧ꧀": 8645, "ꦲ꧀ꦢ꧀ꦩꦶ": 8646, "ꦲ꧀ꦤ": 8647, "ꦲ꧀ꦤ꧀": 8648, "ꦲ꧀ꦥ꦳꧀ꦕ꧀": 8649, "ꦲ꧀ꦥ꦳꧀ꦥ꦳꧀": 8650, "ꦲ꧀ꦥ꦳꧀ꦱ꧀": 8651, "ꦲ꧀ꦥ꧀ꦥ꦳꧀": 8652, "ꦲ꧀ꦩꦼ": 8653, "ꦲ꧀ꦩ꧀ꦥ꦳꧀": 8654, "ꦲ꧀ꦩ꧀ꦥꦶ": 8655, "ꦲ꧀ꦪꦸꦁꦂ": 8656, "ꦲ꧀ꦪ꧀": 8657, "ꦲ꧀ꦪ꧀ꦏ꧀": 8658, "ꦲ꧀ꦪ꧀ꦒꦼ": 8659, "ꦲ꧀ꦪ꧀ꦒ꧀": 8660, "ꦲ꧀ꦪ꧀ꦢ": 8661, "ꦲ꧀ꦪ꧀ꦢꦂ": 8662, "ꦲ꧀ꦪ꧀ꦮꦁ": 8663, "ꦲ꧀ꦪ꧀ꦮꦼ": 8664, "ꦲ꧀ꦪ꧀ꦱꦺꦴ": 8665, "ꦲ꧀ꦫꦸꦁ": 8666, "ꦲ꧀ꦫꦺꦴ": 8667, "ꦲ꧀ꦫ꧀ꦥ꦳": 8668, "ꦲ꧀ꦫ꧀ꦥ꦳꧀": 8669, "ꦲ꧀ꦫ꧀ꦥ꧀": 8670, "ꦲ꧀ꦭ꧀ꦪ꧀": 8671, "ꦲ꧀ꦮꦼ": 8672, "ꦲ꧀ꦮ꧀ꦕ꧀": 8673, "ꦲ꧀ꦱ": 8674, "ꦲ꧀ꦱ꧀ꦠ꧀": 8675, "ꦲ꧀ꦱ꧀ꦥ꦳꧀": 8676, "ꦲ꧀ꦱ꧀ꦥ꧀": 8677}, "id2token": {"0": " ", "1": "ꦤ꧀", "2": "ꦏ", "3": "ꦲ", "4": "ꦱ", "5": "ꦭ", "6": "ꦤ", "7": "ꦫ", "8": "ꦠ", "9": "ꦢꦶ", "10": "ꦆꦁ", "11": "ꦈ", "12": "ꦩ", "13": "ꦥ", "14": "ꦆ", "15": "ꦱꦶ", "16": "ꦒ", "17": "ꦱ꧀", "18": "ꦧ", "19": "ꦏꦸ", "20": "ꦏꦁ", "21": "ꦠ꧀", "22": "ꦮ", "23": "ꦤꦶ", "24": "\n", "25": "ꦏ꧀", "26": "ꦭꦶ", "27": "ꦏꦼ", "28": "ꦭ꧀", "29": "ꦥꦸ", "30": "ꦢ", "31": "ꦪ", "32": "ꦔ", "33": "ꦮꦶ", "34": "ꦱꦼ", "35": "ꦏꦶ", "36": "ꦎ", "37": "ꦫꦶ", "38": "ꦤꦼ", "39": "ꦠꦼ", "40": "ꦤꦺ", "41": "ꦩꦶ", "42": "ꦲꦼ", "43": "꧐", "44": "ꦏꦺ", "45": "ꦠꦶ", "46": "꧑", "47": "ꦩ꧀", "48": "ꦥꦼ", "49": "ꦩꦼ", "50": "ꦒꦺꦴ", "51": "ꦗ", "52": "ꦧꦸ", "53": "ꦥꦶ", "54": "ꦱꦶꦁ", "55": "ꦱꦸ", "56": "ꦧꦶ", "57": "ꦠꦸ", "58": "ꦏꦺꦴ", "59": "ꦫꦺꦴ", "60": "ꦒꦼ", "61": "ꦢꦸ", "62": "ꦕ", "63": "꧒", "64": "ꦤꦶꦁ", "65": "ꦫꦼ", "66": "ꦩꦸ", "67": "ꦭꦼ", "68": "ꦫꦸ", "69": "ꦮꦺ", "70": "ꦭꦸ", "71": "ꦮꦼ", "72": "ꦗꦶ", "73": "ꦢꦼ", "74": "ꦧꦼ", "75": "ꦥ꧀", "76": "ꦭꦺꦴ", "77": "ꦒꦶ", "78": "ꦒꦸ", "79": "ꦥ꦳ꦶ", "80": "꧙", "81": "ꦢꦺꦴ", "82": "ꦗꦼ", "83": "ꦢ꧀", "84": "ꦢꦺ", "85": "ꦠꦺꦴ", "86": "ꦗꦸ", "87": "ꦤꦁ", "88": "ꦩ꧀ꦧ", "89": "ꦔꦼ", "90": "ꦤ꧀ꦛꦶ", "91": "ꦫꦁ", "92": "ꦝ", "93": "ꦤꦺꦴ", "94": "ꦔꦶ", "95": "꧕", "96": "ꦤ꧀ꦠꦼ", "97": "ꦧꦺꦴ", "98": "ꦝꦺ", "99": "ꦤꦸ", "100": "ꦩꦺꦴ", "101": "꧓", "102": "ꦥꦺꦴ", "103": "꧘", "104": "ꦤ꧀ꦠꦶ", "105": "꧔", "106": "ꦮꦺꦴ", "107": "ꦲꦶ", "108": "ꦥꦼꦂ", "109": "ꦱꦺ", "110": "ꦫꦺ", "111": "꧖", "112": "ꦭꦃ", "113": "ꦌ", "114": "꧗", "115": "ꦤ꧀ꦠ", "116": "ꦚ", "117": "ꦕꦼ", "118": "ꦕꦶ", "119": "ꦩꦂ", "120": "ꦮꦸ", "121": "ꦠꦺ", "122": "ꦔꦸ", "123": "ꦔꦶꦁ", "124": "ꦤ꧀ꦢꦸ", "125": "ꦥ꧀ꦫꦺꦴ", "126": "ꦝꦼ", "127": "ꦤ꧀ꦢ", "128": "ꦲꦁ", "129": "ꦮꦺꦴꦁ", "130": "ꦱꦺꦴ", "131": "ꦛ", "132": "ꦥ꦳", "133": "ꦪꦻ", "134": "ꦩꦺ", "135": "ꦭꦶꦁ", "136": "ꦥ꧀ꦫ", "137": "ꦤ꧀ꦠꦸ", "138": "ꦧ꧀", "139": "ꦔꦺ", "140": "ꦕꦺꦴ", "141": "ꦝꦸ", "142": "ꦪꦸ", "143": "ꦥ꦳꧀", "144": "ꦲꦂ", "145": "ꦏꦂ", "146": "ꦱ꧀ꦠ", "147": "ꦒꦺ", "148": "ꦩ꧀ꦥꦸ", "149": "ꦤꦸꦁ", "150": "ꦮꦂ", "151": "ꦥꦁ", "152": "ꦠ꧀ꦫ", "153": "ꦩꦁ", "154": "ꦒ꧀", "155": "ꦭꦺ", "156": "ꦮꦶꦃ", "157": "ꦥ꦳ꦼ", "158": "ꦏꦶꦁ", "159": "ꦥꦺ", "160": "ꦏ꧀ꦱꦶ", "161": "ꦤ꧀ꦢꦶ", "162": "ꦫꦃ", "163": "ꦠꦼꦂ", "164": "ꦩ꧀ꦧꦸ", "165": "ꦤ꧀ꦢꦺꦴ", "166": "ꦱꦂ", "167": "ꦚꦼ", "168": "ꦤ꧀ꦗꦸꦂ", "169": "ꦲꦸ", "170": "ꦤ꧀ꦝ", "171": "ꦤꦼꦁ", "172": "ꦩꦸꦁ", "173": "ꦱꦶꦃ", "174": "ꦱ꧀ꦠꦶ", "175": "ꦭꦁ", "176": "ꦕꦸ", "177": "ꦝꦶ", "178": "ꦔꦁ", "179": "ꦠꦁ", "180": "ꦭꦶꦃ", "181": "ꦩ꧀ꦧꦁ", "182": "ꦪ꧀", "183": "ꦲꦺ", "184": "ꦪꦺ", "185": "ꦤ꧀ꦱꦶ", "186": "ꦤ꧀ꦗ", "187": "ꦱꦻ", "188": "ꦮꦸꦂ", "189": "ꦒ꧀ꦫ", "190": "ꦥ꦳ꦺꦴ", "191": "ꦗꦺꦴ", "192": "ꦪꦺꦴ", "193": "ꦚꦸ", "194": "ꦔ꧀ꦒ", "195": "ꦤ꧀ꦕ", "196": "ꦩ꧀ꦥ", "197": "ꦠꦸꦁ", "198": "ꦧꦼꦂ", "199": "ꦪꦁ", "200": "ꦩꦃ", "201": "ꦒꦶꦃ", "202": "ꦥꦶꦁ", "203": "ꦏ꧀ꦱ", "204": "ꦏꦺꦃ", "205": "ꦧꦺ", "206": "ꦱ꧀ꦠꦼ", "207": "ꦩꦻ", "208": "ꦗ꧀ꦫꦺꦴ", "209": "ꦤ꧀ꦠꦺꦴ", "210": "ꦥ꦳ꦼꦂ", "211": "ꦎꦂ", "212": "ꦤ꧀ꦗꦼ", "213": "ꦤ꧀ꦢꦼ", "214": "ꦩ꧀ꦥꦶ", "215": "ꦤ꧀ꦝꦸ", "216": "ꦕ꧀", "217": "ꦪꦼ", "218": "ꦩꦼꦂ", "219": "ꦥꦸꦁ", "220": "ꦩ꧀ꦧꦸꦁ", "221": "ꦧꦁ", "222": "ꦩ꧀ꦧꦼ", "223": "ꦔꦺꦴ", "224": "ꦥ꧀ꦫꦶ", "225": "ꦤ꧀ꦕꦶ", "226": "ꦤ꧀ꦗꦸ", "227": "ꦠ꧀ꦫꦶ", "228": "ꦫꦶꦁ", "229": "ꦤ꧀ꦝꦶ", "230": "ꦭ꧀ꦩ꧀", "231": "ꦪꦃ", "232": "ꦩ꧀ꦧꦼꦂ", "233": "ꦛꦼ", "234": "ꦲꦺꦴ", "235": "ꦏ꧀ꦠꦸ", "236": "ꦏ꧀ꦫ", "237": "ꦠꦼꦁ", "238": "ꦕꦃ", "239": "ꦏ꧀ꦭ", "240": "ꦱ꧀ꦮ", "241": "ꦱꦁ", "242": "ꦚꦁ", "243": "ꦏ꧀ꦠꦶ", "244": "ꦧꦂ", "245": "ꦤ꧀ꦠꦼꦂ", "246": "ꦚꦶ", "247": "ꦯ", "248": "ꦤ꧀ꦢ꧀", "249": "ꦔꦃ", "250": "ꦒꦸꦁ", "251": "ꦲꦃ", "252": "ꦩ꧀ꦫ", "253": "ꦠꦶꦁ", "254": "ꦥꦂ", "255": "ꦔ꧀ꦭ", "256": "ꦫꦼꦁ", "257": "ꦭꦸꦁ", "258": "ꦱ꧀ꦠ꧀ꦫ", "259": "ꦠꦸꦂ", "260": "ꦥ꧀ꦫꦼ", "261": "ꦠꦶꦃ", "262": "ꦩ꧀ꦥꦼ", "263": "ꦩ꧀ꦧꦺꦴ", "264": "ꦩ꧀ꦧꦶ", "265": "ꦠ꧀ꦭ", "266": "ꦠ꧀ꦫꦺꦴ", "267": "ꦮꦼꦂ", "268": "ꦒ꧀ꦫꦶ", "269": "ꦩꦸꦂ", "270": "ꦤꦺꦃ", "271": "ꦝꦃ", "272": "ꦏ꧀ꦫꦶ", "273": "ꦫꦸꦁ", "274": "ꦤ꧀ꦠꦁ", "275": "ꦏꦼꦂ", "276": "ꦩ꧀ꦥꦺꦴ", "277": "ꦏꦸꦁ", "278": "ꦝꦺꦴ", "279": "ꦱ꧀ꦠ꧀ꦫꦶ", "280": "ꦩ꧀ꦧꦂ", "281": "ꦭꦂ", "282": "ꦮꦁ", "283": "ꦠꦃ", "284": "ꦫꦺꦴꦁ", "285": "ꦲꦼꦂ", "286": "ꦒꦁ", "287": "ꦗꦼꦁ", "288": "ꦧꦺꦃ", "289": "ꦩ꧀ꦧꦃ", "290": "ꦱ꧀ꦭ", "291": "ꦤ꧀ꦝꦼ", "292": "ꦗ꦳", "293": "ꦛꦶ", "294": "ꦔꦼꦂ", "295": "ꦱ꧀ꦩ", "296": "ꦤꦼꦂ", "297": "ꦤ꧀ꦥ", "298": "ꦧ꧀ꦫ", "299": "ꦱꦶꦂ", "300": "ꦌꦁ", "301": "ꦱ꧀ꦫꦶꦁ", "302": "ꦥ꧀ꦭ", "303": "ꦏꦻ", "304": "ꦤ꧀ꦕꦼ", "305": "ꦢ꧀ꦪ", "306": "ꦏꦼꦃ", "307": "ꦠꦂ", "308": "ꦮ꧀", "309": "ꦥꦸꦂ", "310": "ꦭꦻ", "311": "ꦏ꧀ꦩ꧀", "312": "ꦤ꧀ꦠꦃ", "313": "ꦯꦶ", "314": "ꦱꦺꦴꦂ", "315": "ꦭꦺꦴꦂ", "316": "ꦮꦃ", "317": "ꦱ꧀ꦠꦸ", "318": "ꦭ꧀ꦩꦸ", "319": "ꦤ꧀ꦝꦁ", "320": "ꦩ꧀ꦭꦼ", "321": "ꦚꦂ", "322": "ꦏ꧀ꦭꦸ", "323": "ꦥ꦳ꦺ", "324": "ꦧ꧀ꦫꦶ", "325": "ꦏꦴ", "326": "ꦏꦸꦂ", "327": "ꦱ꧀ꦭꦶ", "328": "ꦗꦼꦂ", "329": "ꦢ꧀ꦫ", "330": "ꦲꦶꦁ", "331": "ꦤ꧀ꦱꦼ", "332": "ꦤ꧀ꦠ꧀", "333": "ꦤ꧀ꦱ꧀", "334": "ꦮꦼꦁ", "335": "ꦤ꧀ꦠꦺ", "336": "ꦒꦂ", "337": "ꦢꦁ", "338": "ꦝꦁ", "339": "ꦤꦃ", "340": "ꦤ꧀ꦝꦺꦴ", "341": "ꦒꦶꦁ", "342": "ꦭꦸꦂ", "343": "ꦧꦸꦂ", "344": "ꦭꦼꦁ", "345": "ꦱ꧀ꦩꦼ", "346": "ꦒꦼꦂ", "347": "ꦏ꦳", "348": "ꦱ꧀ꦠ꧀", "349": "ꦱ꧀ꦠꦺꦴ", "350": "ꦩ꧀ꦥꦁ", "351": "ꦥꦼꦁ", "352": "ꦲꦼꦁ", "353": "ꦥ꦳ꦺꦴꦂ", "354": "ꦭ꧀ꦭ꧀", "355": "ꦱꦸꦁ", "356": "ꦱ꧀ꦥꦼ", "357": "ꦕ꧀ꦫꦶ", "358": "ꦏ꧀ꦱ꧀", "359": "ꦒꦃ", "360": "ꦧꦸꦁ", "361": "ꦠꦺꦴꦂ", "362": "ꦕꦂ", "363": "ꦝꦺꦴꦁ", "364": "ꦭ꧀ꦭ", "365": "ꦱ꧀ꦩꦶ", "366": "ꦩ꧀ꦧꦺ", "367": "ꦤ꧀ꦠꦂ", "368": "ꦚꦺꦴ", "369": "ꦏꦃ", "370": "ꦒꦼꦁ", "371": "ꦱꦼꦂ", "372": "ꦔ꧀ꦫꦼ", "373": "ꦔ꧀ꦒꦸ", "374": "ꦛꦃ", "375": "ꦪꦶ", "376": "ꦏ꧀ꦠꦸꦂ", "377": "ꦢꦼꦂ", "378": "ꦗꦁ", "379": "ꦕ꧀ꦏ꧀", "380": "ꦠ꧀ꦫꦼ", "381": "ꦭ꧀ꦧꦸ", "382": "ꦭ꧀ꦭꦼ", "383": "ꦭ꧀ꦠ", "384": "ꦏ꧀ꦫꦼ", "385": "ꦭꦻꦂ", "386": "ꦢꦃ", "387": "ꦛꦺꦴ", "388": "ꦧ꧀ꦭꦶ", "389": "ꦔ꧀ꦫ", "390": "ꦆꦷ", "391": "ꦠꦻ", "392": "ꦩ꧀ꦥꦸꦁ", "393": "ꦈꦂ", "394": "ꦤ꧀ꦠꦸꦁ", "395": "ꦧꦃ", "396": "ꦤꦂ", "397": "ꦤ꧀ꦢꦼꦂ", "398": "ꦏ꧀ꦭꦺꦴ", "399": "ꦱ꧀ꦫ", "400": "ꦗ꦳ꦶ", "401": "ꦯ꧀", "402": "ꦤ꧀ꦠ꧀ꦫ", "403": "ꦥ꦳ꦸ", "404": "ꦩꦶꦁ", "405": "ꦏ꧀ꦱꦼ", "406": "ꦏ꧀ꦭꦶ", "407": "ꦮꦸꦃ", "408": "ꦐꦸ", "409": "ꦥ꧀ꦠ", "410": "ꦱꦃ", "411": "ꦥ꦳꧀ꦫ", "412": "ꦱꦸꦂ", "413": "ꦱ꧀ꦱ꧀", "414": "ꦤ꧀ꦱ", "415": "ꦩ꧀ꦭ", "416": "ꦏ꧀ꦠꦺꦴꦂ", "417": "ꦤ꧀ꦠ꧀ꦫꦶ", "418": "ꦩ꧀ꦥꦸꦂ", "419": "ꦫꦻ", "420": "ꦥ꧀ꦫꦺ", "421": "ꦤ꧀ꦝꦺ", "422": "ꦱ꧀ꦏ", "423": "ꦏ꧀ꦫꦺꦴ", "424": "ꦲꦴ", "425": "ꦤꦴ", "426": "ꦩꦼꦁ", "427": "ꦭꦼꦂ", "428": "ꦭꦺꦴꦁ", "429": "ꦤ꧀ꦢꦁ", "430": "ꦧ꧀ꦫꦸ", "431": "ꦎꦁ", "432": "ꦭ꧀ꦭꦶ", "433": "ꦏ꧀ꦠꦺꦴ", "434": "ꦱ꧀ꦤ", "435": "ꦭꦺꦃ", "436": "ꦕꦁ", "437": "ꦱ꧀ꦥ", "438": "ꦫꦸꦃ", "439": "ꦱ꧀ꦱ", "440": "ꦪꦂ", "441": "ꦱ꧀ꦫꦼ", "442": "ꦒ꧀ꦫꦸ", "443": "ꦱ꧀ꦗꦶ", "444": "ꦗ꦳ꦺꦴ", "445": "ꦠ꧀ꦪ꧀", "446": "ꦢꦷ", "447": "ꦩ꧀ꦭꦶ", "448": "ꦤ꧀ꦢ꧀ꦫ", "449": "ꦮꦺꦴꦃ", "450": "ꦤ꧀ꦱꦸ", "451": "ꦏ꧀ꦢ", "452": "ꦒ꧀ꦫꦺ", "453": "ꦭ꧀ꦭꦃ", "454": "ꦏꦶꦂ", "455": "ꦤꦼꦃ", "456": "ꦱ꧀ꦠꦼꦂ", "457": "ꦛ꧀", "458": "ꦛꦸ", "459": "ꦢꦂ", "460": "ꦩ꧀ꦫꦶ", "461": "ꦤ꧀ꦕꦸ", "462": "ꦏ꧀ꦭꦼ", "463": "ꦏ꧀ꦪ", "464": "ꦕ꧀ꦩ꧀", "465": "ꦩ꧀ꦩ꧀", "466": "ꦏ꧀ꦠꦼ", "467": "ꦥꦺꦴꦂ", "468": "ꦤ꧀ꦗꦶ", "469": "ꦥ꦳ꦸꦁ", "470": "ꦩꦺꦴꦂ", "471": "ꦥ꧀ꦱꦶ", "472": "ꦒ꧀ꦪ", "473": "ꦏꦺꦴꦃ", "474": "ꦤ꧀ꦢꦸꦂ", "475": "ꦏ꧀ꦤꦶ", "476": "ꦤ꧀ꦢꦂ", "477": "ꦭ꧀ꦢ꧀", "478": "ꦥꦃ", "479": "ꦥ꦳꧀ꦫꦶ", "480": "ꦱ꧀ꦫꦶ", "481": "ꦧꦼꦃ", "482": "ꦤꦺꦴꦂ", "483": "ꦈꦁ", "484": "ꦧ꧀ꦫꦺꦴ", "485": "ꦤ꧀ꦠꦺꦴꦂ", "486": "ꦤ꧀ꦢꦃ", "487": "ꦤ꧀ꦤꦼ", "488": "ꦗ꦳꧀", "489": "ꦒ꧀ꦫꦼ", "490": "ꦥ꧀ꦠꦼ", "491": "ꦍꦂ", "492": "ꦢ꧀ꦫꦶ", "493": "ꦗ꦳ꦼ", "494": "ꦗꦂ", "495": "ꦏ꦳ꦸ", "496": "ꦂ", "497": "ꦩ꧀ꦩ", "498": "ꦭꦸꦃ", "499": "ꦱ꧀ꦠ꧀ꦫꦸ", "500": "ꦱ꧀ꦥꦺ", "501": "ꦗꦃ", "502": "ꦏ꧀ꦤ", "503": "ꦤ꧀ꦱꦸꦂ", "504": "ꦏ꧀ꦱꦶꦃ", "505": "ꦱ꧀ꦠ꧀ꦫꦺꦴ", "506": "ꦩ꧀ꦥꦃ", "507": "ꦧ꧀ꦭ", "508": "ꦫꦴ", "509": "ꦗꦺ", "510": "ꦤ꧀ꦠ꧀ꦫꦺꦴ", "511": "ꦱ꧀ꦕꦺꦴ", "512": "ꦗꦴ", "513": "ꦱ꧀ꦢ꧀", "514": "ꦩ꧀ꦠꦸ", "515": "ꦤ꧀ꦢꦺ", "516": "ꦥ꧀ꦠꦶ", "517": "ꦏ꧀ꦠꦼꦂ", "518": "ꦍ", "519": "ꦔ꧀ꦫꦸ", "520": "ꦏꦺꦴꦂ", "521": "ꦱꦴ", "522": "ꦱ꧀ꦥꦺꦴ", "523": "ꦱ꧀ꦥꦶ", "524": "ꦒꦸꦂ", "525": "ꦔ꧀ꦭꦶ", "526": "ꦤ꧀ꦥ꦳ꦼ", "527": "ꦤ꧀ꦏ꧀", "528": "ꦱ꧀ꦏꦺꦴ", "529": "ꦠ꧀ꦱ꧀", "530": "ꦤ꧀ꦕꦁ", "531": "ꦠ꧀ꦫꦺ", "532": "ꦒ꧀ꦫꦺꦴ", "533": "ꦤ꧀ꦝꦃ", "534": "ꦏ꧀ꦱꦸ", "535": "ꦤ꧀ꦥ꦳ꦺꦴꦂ", "536": "ꦤ꧀ꦱꦃ", "537": "ꦱ꧀ꦛꦶ", "538": "ꦠ꧀ꦱꦸ", "539": "ꦭ꧀ꦭꦺꦴ", "540": "ꦏ꧀ꦠ꧀ꦫꦺꦴ", "541": "ꦱ꧀ꦱꦶ", "542": "ꦤ꧀ꦠꦶꦁ", "543": "ꦲ꧀", "544": "ꦧ꧀ꦭꦺꦴ", "545": "ꦥꦻ", "546": "ꦱ꧀ꦏꦸ", "547": "ꦢ꧀ꦫꦺꦴ", "548": "ꦤ꧀ꦤ", "549": "ꦧ꧀ꦭꦼ", "550": "ꦧꦺꦴꦁ", "551": "ꦩꦶꦂ", "552": "ꦩ꧀ꦥꦼꦂ", "553": "ꦒ꧀ꦭꦺꦴ", "554": "ꦤꦸꦂ", "555": "ꦱ꧀ꦩ꧀", "556": "ꦗ꧀", "557": "ꦭ꧀ꦥꦺꦴ", "558": "ꦤ꧀ꦱ꧀ꦠꦶ", "559": "ꦠ꧀ꦥ꦳꧀", "560": "ꦯꦼ", "561": "ꦱ꧀ꦱꦼ", "562": "ꦕꦼꦂ", "563": "ꦧꦻ", "564": "ꦱ꧀ꦮꦶ", "565": "ꦭ꧀ꦠꦶ", "566": "ꦤ꧀ꦗꦁ", "567": "ꦱꦸꦃ", "568": "ꦗ꦳ꦸ", "569": "ꦤ꧀ꦠꦻ", "570": "ꦪꦸꦁ", "571": "ꦤ꧀ꦏ", "572": "ꦫꦶꦂ", "573": "꧈", "574": "ꦚ꧀", "575": "ꦏ꧀ꦤꦺꦴ", "576": "ꦱ꧀ꦤꦶ", "577": "ꦤ꧀ꦭ", "578": "ꦗꦸꦂ", "579": "ꦒꦶꦂ", "580": "ꦤ꧀ꦢꦸꦁ", "581": "ꦭ꧀ꦩꦶ", "582": "ꦔ꧀ꦒꦺꦴ", "583": "ꦔ꧀ꦭꦼ", "584": "ꦢ꧀ꦱ꧀", "585": "ꦯꦺꦴ", "586": "ꦥ꦳꧀ꦭ", "587": "ꦗꦺꦴꦃ", "588": "ꦢꦺꦴꦃ", "589": "ꦕꦶꦁ", "590": "ꦤ꧀ꦢ꧀ꦧ꧀", "591": "ꦥ꦳꧀ꦫꦼ", "592": "ꦏꦺꦴꦁ", "593": "ꦏ꧀ꦠ", "594": "ꦠꦺꦂ", "595": "ꦭꦼꦃ", "596": "ꦲꦸꦂ", "597": "ꦱꦼꦁ", "598": "ꦮꦺꦴꦂ", "599": "ꦤ꧀ꦱ꧀ꦠ꧀", "600": "ꦩꦺꦃ", "601": "ꦕꦺꦴꦂ", "602": "ꦠ꧀ꦫꦸ", "603": "ꦥ꧀ꦭꦼ", "604": "ꦤ꧀ꦗꦸꦁ", "605": "ꦩ꧀ꦥ꧀", "606": "ꦧ꧀ꦭꦸ", "607": "ꦏ꦳ꦶ", "608": "ꦫ꧀", "609": "ꦯꦸ", "610": "ꦠ꧀ꦤ", "611": "ꦢ꧀ꦩꦶ", "612": "ꦫꦺꦁ", "613": "ꦢꦶꦁ", "614": "ꦕꦺ", "615": "ꦥ꧀ꦭꦶ", "616": "ꦠꦶꦂ", "617": "ꦠ꧀ꦠ", "618": "ꦕ꧀ꦫꦺꦴ", "619": "ꦔ꧀ꦭꦸ", "620": "ꦧꦺꦴꦂ", "621": "ꦩ꧀ꦠꦺꦴ", "622": "ꦏ꧀ꦠꦂ", "623": "ꦏ꧀ꦫꦸ", "624": "ꦠ꧀ꦪ", "625": "ꦤ꧀ꦤꦶ", "626": "ꦤ꧀ꦱꦺꦴ", "627": "ꦧ꧀ꦫꦼ", "628": "ꦒ꧀ꦭꦼ", "629": "ꦥ꦳ꦂ", "630": "ꦪꦴ", "631": "ꦠ꧀ꦤꦶ", "632": "ꦒ꧀ꦭ", "633": "ꦤ꧀ꦠ꧀ꦫꦼ", "634": "ꦪꦸꦃ", "635": "ꦱ꧀ꦏꦶ", "636": "ꦔ꧀ꦒꦶ", "637": "ꦢꦸꦂ", "638": "ꦏ꧀ꦮꦶ", "639": "ꦤ꧀ꦮ", "640": "ꦏ꧀ꦱꦺ", "641": "ꦩꦺꦴꦁ", "642": "ꦏ꧀ꦠꦶꦁ", "643": "ꦤ꧀ꦧ", "644": "ꦏ꦳ꦶꦂ", "645": "ꦩ꧀ꦭꦃ", "646": "ꦪꦺꦴꦂ", "647": "ꦥꦸꦃ", "648": "ꦥ꧀ꦭꦺꦴ", "649": "ꦢꦻ", "650": "ꦠ꧀ꦠꦼ", "651": "ꦤ꧀ꦏꦼ", "652": "ꦭꦺꦂ", "653": "ꦮ꧀ꦫꦸꦃ", "654": "ꦢꦸꦁ", "655": "ꦤ꧀ꦕꦺ", "656": "ꦱ꧀ꦕ", "657": "ꦱ꧀ꦏꦃ", "658": "ꦤ꧀ꦩ", "659": "ꦒꦴ", "660": "ꦤ꧀ꦱꦺ", "661": "ꦠ꧀ꦠ꧀", "662": "ꦔꦸꦁ", "663": "ꦠꦺꦴꦁ", "664": "ꦩ꧀ꦱꦶ", "665": "ꦤ꧀ꦕꦺꦴ", "666": "ꦭ꧀ꦏ", "667": "ꦆꦂ", "668": "ꦩ꧀ꦥꦺ", "669": "ꦒꦸꦃ", "670": "ꦥ꧀ꦠ꧀", "671": "ꦩꦼꦃ", "672": "ꦢ꧀ꦪ꧀", "673": "ꦔ꧀ꦫꦶ", "674": "ꦤ꧀ꦫꦼ", "675": "ꦥ꦳꧀ꦥ꦳꧀", "676": "ꦩ꧀ꦥꦸꦃ", "677": "ꦝꦂ", "678": "ꦱ꧀ꦏꦼ", "679": "ꦏ꧀ꦠꦺ", "680": "ꦧꦸꦃ", "681": "ꦤꦻ", "682": "ꦤ꧀ꦗꦺꦴ", "683": "ꦐ", "684": "ꦭꦶꦂ", "685": "ꦏ꧀ꦱꦺꦴ", "686": "ꦥ꦳ꦺꦂ", "687": "ꦔ꧀ꦒꦼ", "688": "ꦥ꦳ꦶꦂ", "689": "ꦕꦻ", "690": "ꦤ꧀ꦭꦶ", "691": "ꦩ꧀ꦪ꧀", "692": "ꦐ꧀", "693": "ꦱ꧀ꦠꦂ", "694": "ꦲꦺꦴꦂ", "695": "ꦠ꧀ꦠꦺꦴ", "696": "ꦭ꧀ꦥ꦳", "697": "ꦠ꧀ꦗ꦳꧀", "698": "ꦭ꧀ꦩ", "699": "ꦏ꧀ꦩ", "700": "ꦠ꧀ꦠꦼꦂ", "701": "ꦥ꧀ꦱ꧀", "702": "ꦠꦴ", "703": "ꦤ꧀ꦗꦂ", "704": "ꦥ꦳꧀ꦥ꦳ꦶ", "705": "ꦭ꧀ꦭ꧀ꦪ꧀", "706": "ꦒꦺꦴꦂ", "707": "ꦢ꧀ꦗ", "708": "ꦤ꧀ꦚ꧀", "709": "ꦤ꧀ꦱ꧀ꦠ", "710": "ꦪ꧀ꦱꦶ", "711": "ꦮꦻ", "712": "ꦒ꦳꧀", "713": "ꦕ꧀ꦠꦶ", "714": "ꦤ꧀ꦗ꦳", "715": "ꦤ꧀ꦝꦶꦁ", "716": "ꦥ꦳꧀ꦠꦂ", "717": "ꦩ꧀ꦥ꧀ꦭꦼ", "718": "ꦭ꧀ꦱ꧀", "719": "ꦠꦸꦃ", "720": "ꦩꦴ", "721": "ꦭ꧀ꦪ", "722": "ꦠ꧀ꦱꦶ", "723": "ꦢ꧀ꦢꦶ", "724": "ꦥ꦳꧀ꦭꦺꦴ", "725": "ꦭ꧀ꦢꦼ", "726": "ꦩ꧀ꦧ꧀ꦫ", "727": "ꦤ꧀ꦢꦶꦁ", "728": "ꦤ꧀ꦛꦼ", "729": "ꦤ꧀ꦥ꦳ꦺ", "730": "ꦭ꧀ꦱ", "731": "ꦗꦸꦁ", "732": "ꦗꦶꦁ", "733": "ꦤ꧀ꦏꦼꦂ", "734": "ꦤ꧀ꦤ꧀", "735": "ꦩ꧀ꦫꦼ", "736": "ꦢ꧀ꦫꦸ", "737": "ꦱ꧀ꦏꦺ", "738": "ꦩ꧀ꦫꦺꦴ", "739": "ꦏ꧀ꦠ꧀ꦫꦶ", "740": "ꦢ꧀ꦤ", "741": "ꦤ꧀ꦢ꧀ꦫꦺꦴ", "742": "ꦄꦴ", "743": "ꦤ꧀ꦥꦶ", "744": "ꦥ꧀ꦭꦸ", "745": "ꦤꦺꦂ", "746": "ꦧ꧀ꦢꦸ", "747": "ꦒ꧀ꦤꦼ", "748": "ꦢꦸꦃ", "749": "ꦢ꧀ꦮ", "750": "ꦕ꧀ꦭ", "751": "ꦢꦺꦴꦂ", "752": "ꦤ꧀ꦫꦶ", "753": "ꦩ꧀ꦱ꧀", "754": "ꦭ꧀ꦏꦺꦴ", "755": "ꦭ꧀ꦠ꧀", "756": "ꦒ꦳꧀ꦠ꧀", "757": "ꦒꦻ", "758": "ꦱ꧀ꦠ꧀ꦫꦼ", "759": "ꦏ꦳꧀", "760": "ꦤ꧀ꦝꦼꦂ", "761": "ꦤ꧀ꦱ꧀ꦥꦺꦴꦂ", "762": "ꦱꦺꦴꦁ", "763": "ꦚꦼꦁ", "764": "ꦭ꧀ꦒ", "765": "ꦮ꧀ꦫ", "766": "ꦱ꧀ꦕꦶ", "767": "ꦏ꧀ꦫꦺ", "768": "ꦛꦻ", "769": "ꦩ꧀ꦫꦃ", "770": "ꦫ꧀ꦥ꧀", "771": "ꦕ꧀ꦭꦼ", "772": "ꦧ꧀ꦗꦼ", "773": "ꦭ꧀ꦪ꧀", "774": "ꦲꦻ", "775": "ꦱ꧀ꦩ꧀ꦥ꧀", "776": "ꦱ꧀ꦱꦺꦴ", "777": "ꦥ꧀ꦫꦸ", "778": "ꦱ꧀ꦠꦺ", "779": "ꦒ꧀ꦭꦶ", "780": "ꦤ꧀ꦢ꧀ꦪ꧀", "781": "ꦱ꧀ꦏ꧀ꦫꦶ", "782": "ꦤ꧀ꦩꦼ", "783": "ꦕ꧀ꦠ꧀", "784": "ꦥꦶꦂ", "785": "ꦠꦺꦃ", "786": "ꦠ꧀ꦠꦶ", "787": "ꦤ꧀ꦕꦼꦂ", "788": "ꦝꦸꦁ", "789": "ꦤ꧀ꦥ꦳ꦴ", "790": "ꦢ꧀ꦮꦶ", "791": "ꦥ꦳꧀ꦠ꧀", "792": "ꦧꦶꦂ", "793": "ꦒ꧀ꦤꦶ", "794": "ꦤ꧀ꦠꦼꦁ", "795": "ꦢꦺꦴꦁ", "796": "ꦤ꧀ꦱꦼꦂ", "797": "ꦤ꧀ꦫ", "798": "ꦛꦺ", "799": "ꦏ꧀ꦪꦺꦴ", "800": "ꦧꦼꦁ", "801": "ꦭ꧀ꦠꦼꦂ", "802": "ꦠ꧀ꦩ", "803": "ꦤ꧀ꦢ꧀ꦫꦶ", "804": "ꦪꦼꦂ", "805": "ꦏ꧀ꦱ꧀ꦠ꧀", "806": "ꦏ꧀ꦱ꧀ꦥ꧀", "807": "ꦤ꧀ꦧꦼ", "808": "ꦮ꧀ꦤ꧀", "809": "ꦤ꧀ꦗ꦳ꦶ", "810": "ꦥ꧀ꦠꦺꦴ", "811": "ꦏ꧀ꦮ", "812": "ꦒꦺꦴꦁ", "813": "ꦤ꧀ꦏꦶ", "814": "ꦧ꧀ꦢꦶ", "815": "ꦧ꧀ꦪ꧀", "816": "ꦏꦸꦃ", "817": "ꦛꦼꦂ", "818": "ꦮꦶꦁ", "819": "ꦢ꧀ꦫꦼ", "820": "ꦏ꧀ꦒ꧀", "821": "ꦭ꧀ꦏꦶ", "822": "ꦲꦶꦂ", "823": "ꦕ꧀ꦏꦼ", "824": "ꦤ꧀ꦏꦸ", "825": "ꦤ꧀ꦲ", "826": "ꦩ꧀ꦧꦸꦃ", "827": "ꦕ꧀ꦫꦼ", "828": "ꦢ꧀ꦝ", "829": "ꦭ꧀ꦧ", "830": "ꦥ꦳꧀ꦫꦺꦴ", "831": "ꦏ꧀ꦏ", "832": "ꦚ꧀ꦫꦶ", "833": "ꦤ꧀ꦗꦼꦂ", "834": "ꦢ꧀ꦒꦼ", "835": "ꦏ꧀ꦪꦻ", "836": "ꦕ꧀ꦫ", "837": "ꦱ꧀ꦕꦼ", "838": "ꦱ꧀ꦩꦺꦴ", "839": "ꦱ꧀ꦭꦼ", "840": "ꦤꦶꦂ", "841": "ꦢ꧀ꦫ꧀", "842": "ꦩ꧀ꦥꦶꦁ", "843": "ꦫꦶꦃ", "844": "ꦤ꧀ꦢ꧀ꦫꦼ", "845": "ꦭ꧀ꦱꦶ", "846": "ꦠ꧀ꦭꦼ", "847": "ꦚꦺ", "848": "ꦲꦺꦴꦁ", "849": "ꦥ꦳꧀ꦭꦸ", "850": "ꦩ꧀ꦥ꧀ꦭꦺ", "851": "ꦏ꧀ꦏꦼ", "852": "ꦱ꧀ꦠꦺꦴꦂ", "853": "ꦤꦸꦃ", "854": "ꦥ꦳꧀ꦕ꧀", "855": "ꦤ꧀ꦥꦼ", "856": "ꦠ꧀ꦩꦺꦴ", "857": "ꦤ꧀ꦮꦶ", "858": "ꦥ꦳꧀ꦭꦼ", "859": "ꦥ꧀ꦫꦶꦁ", "860": "ꦏ꧀ꦮꦂ", "861": "ꦐꦶ", "862": "ꦤ꧀ꦏꦺꦴ", "863": "ꦱ꧀ꦐꦸ", "864": "ꦢ꧀ꦗꦺꦴ", "865": "ꦭ꧀ꦭꦸ", "866": "ꦕ꧀ꦠꦺꦴ", "867": "ꦤ꧀ꦥ꦳ꦶ", "868": "ꦭ꧀ꦏꦸ", "869": "ꦭ꧀ꦥ꦳ꦶ", "870": "ꦏ꧀ꦢꦸ", "871": "ꦧꦶꦁ", "872": "ꦕ꧀ꦠꦺꦴꦂ", "873": "ꦥ꧀ꦠꦂ", "874": "ꦏꦴꦁ", "875": "ꦝꦺꦂ", "876": "ꦠꦼꦃ", "877": "ꦭ꧀ꦥ꦳꧀", "878": "ꦢ꧀ꦮꦂ", "879": "ꦪꦺꦴꦁ", "880": "ꦱ꧀ꦏ꧀", "881": "ꦤ꧀ꦥ꦳", "882": "ꦗ꦳ꦻ", "883": "ꦤ꧀ꦥ꦳꧀ꦭꦸ", "884": "ꦕꦼꦁ", "885": "ꦤ꧀ꦢ꧀ꦱ꧀", "886": "ꦮ꧀ꦲꦶ", "887": "ꦔꦂ", "888": "ꦤ꧀ꦕꦂ", "889": "ꦒ꧀ꦤ", "890": "ꦫꦺꦴꦃ", "891": "ꦱ꧀ꦥꦼꦂ", "892": "ꦒ꧀ꦤꦺꦴ", "893": "ꦢꦶꦂ", "894": "ꦕ꧀ꦏ꧀ꦱ꧀", "895": "ꦕ꧀ꦠꦸ", "896": "ꦥ꦳ꦃ", "897": "ꦮꦸꦁ", "898": "ꦕ꧀ꦱ꧀", "899": "ꦠ꧀ꦭꦼꦂ", "900": "ꦧ꧀ꦫꦃ", "901": "ꦩ꧀ꦤ", "902": "ꦒ꦳", "903": "ꦕꦸꦂ", "904": "ꦭ꧀ꦱꦼ", "905": "ꦏ꧀ꦤꦺ", "906": "ꦤ꧀ꦕꦶꦁ", "907": "ꦥ꧀ꦧ꧀ꦧ꧀", "908": "ꦱ꧀ꦭꦺꦴ", "909": "ꦠ꧀ꦏ", "910": "ꦩ꧀ꦧ꧀ꦭꦼ", "911": "ꦩ꧀ꦧ꧀ꦫꦺꦴ", "912": "ꦒ꧀ꦩꦼ", "913": "ꦥ꦳ꦷ", "914": "ꦗꦻ", "915": "ꦭ꧀ꦧꦼꦂ", "916": "ꦭ꧀ꦭꦼꦂ", "917": "ꦤ꧀ꦠ꧀ꦫꦺ", "918": "ꦏ꧀ꦏ꧀ꦱ꧀", "919": "ꦒ꧀ꦗ", "920": "ꦤ꧀ꦝꦸꦁ", "921": "ꦤ꧀ꦝꦼꦁ", "922": "ꦱ꧀ꦤꦼ", "923": "ꦏ꧀ꦱ꧀ꦠꦸꦂ", "924": "ꦕ꧀ꦭꦺꦴ", "925": "ꦧ꧀ꦧ", "926": "ꦧ꧀ꦪꦼ", "927": "ꦢ꧀ꦥ꧀ꦫ꧀", "928": "ꦤ꧀ꦛꦼꦁ", "929": "ꦤ꧀ꦫ꧀ꦪ꧀", "930": "ꦥ꦳꧀ꦥ꦳ꦼ", "931": "ꦲ꧀ꦪꦁ", "932": "ꦏ꧀ꦩꦼ", "933": "ꦤ꧀ꦱ꧀ꦥꦶ", "934": "ꦩ꧀ꦥ꧀ꦫꦺꦴ", "935": "ꦫꦼꦂ", "936": "ꦤ꧀ꦗꦺ", "937": "ꦤ꧀ꦤꦺꦴ", "938": "ꦩ꧀ꦏ꧀ꦱ꧀", "939": "ꦪ꧀ꦱ꧀", "940": "ꦮ꧀ꦱ꧀", "941": "ꦏ꦳꧀ꦭꦸ", "942": "ꦤ꧀ꦕ꧀", "943": "ꦤ꧀ꦥ꦳꧀ꦭꦶ", "944": "ꦭ꧀ꦱꦸ", "945": "ꦏ꧀ꦏꦺ", "946": "ꦥ꧀ꦠꦺ", "947": "ꦧ꧀ꦗꦺ", "948": "ꦩ꧀ꦥꦼꦁ", "949": "ꦤ꧀ꦠ꧀ꦪ꧀", "950": "ꦕꦺꦃ", "951": "ꦠ꧀ꦮꦶ", "952": "ꦥ꧀ꦥꦼ", "953": "ꦤ꧀ꦏ꧀ꦱ꧀", "954": "ꦧ꧀ꦤꦸ", "955": "ꦭ꧀ꦏꦼ", "956": "ꦯꦃ", "957": "ꦗ꦳꧀ꦗ꦳", "958": "ꦧꦺꦂ", "959": "ꦠ꧀ꦭꦶ", "960": "ꦩ꧀ꦧ꧀ꦫꦶ", "961": "ꦤ꧀ꦭꦼ", "962": "ꦤ꧀ꦛꦺꦴ", "963": "ꦧꦶꦃ", "964": "ꦕ꧀ꦭꦸ", "965": "ꦒ꧀ꦭꦸ", "966": "ꦭ꧀ꦠꦺꦴ", "967": "ꦏ꦳ꦺꦴ", "968": "ꦏ꧀ꦪꦸ", "969": "ꦕ꧀ꦏ꧀ꦪ꧀", "970": "ꦭ꧀ꦥꦶ", "971": "ꦐꦸꦂ", "972": "ꦤ꧀ꦱ꧀ꦥ꦳ꦼꦂ", "973": "ꦭ꧀ꦥ", "974": "ꦭ꧀ꦪꦂ", "975": "ꦭ꧀ꦲ", "976": "ꦔ꧀", "977": "ꦭ꧀ꦏ꧀ꦱ꧀", "978": "ꦏ꧀ꦤꦼ", "979": "ꦢꦴ", "980": "ꦱ꧀ꦥ꦳ꦼꦂ", "981": "ꦏ꧀ꦭꦶꦂ", "982": "ꦫꦂ", "983": "ꦠ꧀ꦏ꧀ꦱ꧀", "984": "ꦏ꧀ꦩꦸ", "985": "ꦕꦼꦃ", "986": "ꦤ꧀ꦗꦶꦂ", "987": "ꦥ꧀ꦠꦸ", "988": "ꦭ꧀ꦢꦼꦂ", "989": "ꦏ꧀ꦱ꧀ꦥꦼ", "990": "ꦭ꧀ꦒꦶ", "991": "ꦱ꧀ꦤꦺꦴ", "992": "ꦕ꧀ꦭꦶ", "993": "ꦗ꦳ꦼꦂ", "994": "ꦤ꧀ꦧꦶ", "995": "ꦗ꧀ꦭ꧀", "996": "ꦤ꧀ꦗ꦳꧀", "997": "ꦤ꧀ꦠ꧀ꦱ꧀", "998": "ꦭ꧀ꦗꦸ", "999": "ꦭ꧀ꦱ꧀ꦥ꧀", "1000": "ꦤ꧀ꦗꦶꦁ", "1001": "ꦤ꧀ꦚ", "1002": "ꦤ꧀ꦛꦺꦴꦁ", "1003": "ꦩ꧀ꦧꦶꦁ", "1004": "ꦭꦴ", "1005": "ꦱ꧀ꦏꦺꦴꦂ", "1006": "ꦤ꧀ꦤꦺ", "1007": "ꦥ꧀ꦥ", "1008": "ꦧ꧀ꦭ꧀", "1009": "ꦠ꧀ꦤꦺꦴ", "1010": "ꦭ꧀ꦭ꧀ꦱ꧀", "1011": "ꦏ꧀ꦱ꧀ꦏ꧀", "1012": "ꦤ꧀ꦢꦻ", "1013": "ꦩ꧀ꦩꦼꦂ", "1014": "ꦔ꧀ꦭꦻ", "1015": "ꦠ꧀ꦥ꦳ꦺꦴꦂ", "1016": "ꦎꦃ", "1017": "ꦏ꧀ꦭꦻ", "1018": "ꦏ꧀ꦱ꧀ꦥꦺꦴꦂ", "1019": "ꦥ꧀ꦫꦁ", "1020": "ꦧ꧀ꦫꦁ", "1021": "ꦱ꧀ꦥꦺꦴꦂ", "1022": "ꦤ꧀ꦕꦼꦁ", "1023": "ꦤ꧀ꦥꦸ", "1024": "ꦩ꧀ꦥꦶꦂ", "1025": "ꦩ꧀ꦧꦸꦂ", "1026": "ꦱ꧀ꦕꦂ", "1027": "ꦱ꧀ꦠ꧀ꦪ꧀", "1028": "ꦤ꧀ꦧꦸ", "1029": "ꦤ꧀ꦮꦺꦴ", "1030": "ꦩ꧀ꦫꦺ", "1031": "ꦭ꧀ꦏ꧀", "1032": "ꦱ꧀ꦏ꧀ꦱ꧀", "1033": "ꦱ꧀ꦮꦼ", "1034": "ꦧ꧀ꦪꦺ", "1035": "ꦕ꧀ꦕꦶ", "1036": "ꦤ꧀ꦛꦺꦁ", "1037": "ꦱ꧀ꦕ꧀", "1038": "ꦔꦸꦂ", "1039": "ꦤ꧀ꦝꦺꦁ", "1040": "ꦤ꧀ꦱꦺꦴꦂ", "1041": "ꦤ꧀ꦗꦼꦁ", "1042": "ꦤ꧀ꦧꦸꦂ", "1043": "ꦩ꧀ꦥ꧀ꦭꦶ", "1044": "ꦱ꧀ꦕꦸ", "1045": "ꦠ꧀ꦕ꧀", "1046": "ꦩ꧀ꦥꦺꦴꦂ", "1047": "ꦢ꧀ꦭ", "1048": "ꦱ꧀ꦱꦸ", "1049": "ꦔ꧀ꦒꦁ", "1050": "ꦕꦺꦴꦁ", "1051": "ꦩ꧀ꦩꦼ", "1052": "ꦫꦺꦴꦂ", "1053": "ꦤ꧀ꦛ", "1054": "ꦥ꦳꧀ꦏ", "1055": "ꦭ꧀ꦱꦺꦴ", "1056": "ꦮ꧀ꦫꦼ", "1057": "ꦯꦂ", "1058": "ꦒ꧀ꦩ", "1059": "ꦤ꧀ꦕꦺꦴꦁ", "1060": "ꦧꦴ", "1061": "ꦭ꧀ꦪꦺꦴ", "1062": "ꦭ꧀ꦭꦂ", "1063": "ꦠꦺꦁ", "1064": "ꦩ꧀ꦩꦺꦴ", "1065": "ꦭ꧀ꦢꦸ", "1066": "ꦔꦺꦴꦂ", "1067": "ꦔꦻ", "1068": "ꦧ꧀ꦱ꧀ꦠ꧀", "1069": "ꦩ꧀ꦱ", "1070": "ꦏ꧀ꦮꦺ", "1071": "ꦕꦻꦂ", "1072": "ꦠ꧀ꦱ", "1073": "ꦤ꧀ꦲ꧀", "1074": "ꦭ꧀ꦠꦸ", "1075": "ꦏ꧀ꦪ꧀", "1076": "ꦠ꧀ꦩꦸ", "1077": "ꦱ꧀ꦮꦂ", "1078": "ꦱ꧀ꦮꦺ", "1079": "ꦒ꧀ꦤꦺ", "1080": "ꦗꦺꦴꦁ", "1081": "ꦤ꧀ꦯꦶ", "1082": "ꦥ꧀ꦪ꧀", "1083": "ꦱ꧀ꦛ", "1084": "ꦱ꧀ꦤꦸ", "1085": "ꦒ꧀ꦏ꧀ꦱ꧀", "1086": "ꦔ꧀ꦫꦁ", "1087": "ꦚꦼꦂ", "1088": "ꦢ꧀ꦗꦶ", "1089": "ꦥ꧀ꦥꦺꦴ", "1090": "ꦩ꧀ꦩ꧀ꦪ꧀", "1091": "ꦮ꧀ꦫꦸ", "1092": "ꦤ꧀ꦤꦼꦂ", "1093": "ꦤ꧀ꦥꦁ", "1094": "ꦥ꧀ꦥꦶ", "1095": "ꦧ꧀ꦪ", "1096": "ꦭꦺꦁ", "1097": "ꦈꦹ", "1098": "ꦏ꧀ꦧ꧀", "1099": "ꦕ꧀ꦪ꧀", "1100": "ꦚ꧀ꦭ", "1101": "ꦠ꧀ꦱꦼꦂ", "1102": "ꦥ꧀ꦪ", "1103": "ꦭ꧀ꦥ꦳ꦼ", "1104": "ꦤ꧀ꦕꦸꦂ", "1105": "ꦤ꧀ꦗꦺꦴꦁ", "1106": "ꦤ꧀ꦠꦺꦁ", "1107": "ꦥ꦳꧀ꦥ꦳", "1108": "ꦱ꧀ꦥ꦳", "1109": "ꦱ꧀ꦥ꧀", "1110": "ꦏ꧀ꦱ꧀ꦤ꧀", "1111": "ꦒ꧀ꦒꦶ", "1112": "ꦕ꧀ꦫꦸ", "1113": "ꦤ꧀ꦠꦺꦴꦁ", "1114": "ꦤ꧀ꦱ꧀ꦠꦼ", "1115": "ꦤ꧀ꦕ꧀ꦪ꧀", "1116": "ꦥꦺꦂ", "1117": "ꦩ꧀ꦒ꧀", "1118": "ꦭ꧀ꦢꦶ", "1119": "ꦯꦶꦁ", "1120": "ꦏ꧀ꦏꦶ", "1121": "ꦗ꦳꧀ꦲꦸ", "1122": "ꦤ꧀ꦧꦼꦂ", "1123": "ꦤ꧀ꦲꦺꦴ", "1124": "ꦧ꧀ꦱ꧀", "1125": "ꦩ꧀ꦩꦸ", "1126": "ꦤꦺꦁ", "1127": "ꦥ꦳꧀ꦪ꧀", "1128": "ꦭ꧀ꦗ", "1129": "ꦕ꧀ꦕ꧀", "1130": "ꦤ꧀ꦛꦸ", "1131": "ꦔ꧀ꦫꦺꦴ", "1132": "ꦤ꧀ꦏꦺ", "1133": "ꦩ꧀ꦥꦂ", "1134": "ꦮꦶꦂ", "1135": "ꦒ꧀ꦥ꧀", "1136": "ꦕ꧀ꦏꦼꦂ", "1137": "ꦕ꧀ꦩ", "1138": "ꦩ꧀ꦥ꧀ꦫ", "1139": "ꦠ꧀ꦥ꦳꧀ꦠ꧀", "1140": "ꦤ꧀ꦮꦼ", "1141": "ꦭ꧀ꦏꦺ", "1142": "ꦭ꧀ꦩꦺꦴ", "1143": "ꦥꦺꦴꦁ", "1144": "ꦥ꧀ꦥꦶꦁ", "1145": "ꦧ꧀ꦧ꧀ꦕ꧀", "1146": "ꦩꦺꦂ", "1147": "ꦭ꧀ꦢꦺꦴ", "1148": "ꦭ꧀ꦥꦼ", "1149": "ꦚꦻꦂ", "1150": "ꦤ꧀ꦥ꦳ꦼꦂ", "1151": "ꦧ꧀ꦏ꧀ꦱ꧀", "1152": "ꦭ꧀ꦭꦶꦁ", "1153": "ꦗ꦳ꦃ", "1154": "ꦥ꧀ꦥ꧀", "1155": "ꦒ꧀ꦪ꧀", "1156": "ꦢ꧀ꦪꦃ", "1157": "ꦤꦺꦴꦁ", "1158": "ꦧ꧀ꦱꦼꦂ", "1159": "ꦭ꧀ꦥꦸ", "1160": "ꦠ꧀ꦠ꧀ꦭꦼ", "1161": "ꦭ꧀ꦕꦶ", "1162": "ꦯꦻ", "1163": "ꦠ꧀ꦏꦼ", "1164": "ꦥ꧀ꦱꦸ", "1165": "ꦧ꧀ꦧ꧀ꦪ꧀", "1166": "ꦪꦸꦂ", "1167": "ꦭ꧀ꦱ꧀ꦏꦶ", "1168": "ꦤ꧀ꦱ꧀ꦩꦶ", "1169": "ꦥ꧀ꦠꦺꦴꦂ", "1170": "ꦔ꧀ꦫꦺ", "1171": "ꦗ꦳ꦂ", "1172": "ꦝꦼꦁ", "1173": "ꦠ꧀ꦏꦺ", "1174": "ꦠ꧀ꦫꦻ", "1175": "ꦤ꧀ꦩꦂ", "1176": "ꦥ꧀ꦥꦼꦂ", "1177": "ꦱꦺꦂ", "1178": "ꦢ꧀ꦢ꧀ꦪ꧀", "1179": "ꦤ꧀ꦠꦸꦂ", "1180": "ꦥ꧀ꦏꦶ", "1181": "ꦮꦺꦃ", "1182": "ꦱ꧀ꦏ꧀ꦪ꧀", "1183": "ꦒ꦳ꦶ", "1184": "ꦧ꧀ꦱꦶ", "1185": "ꦩ꧀ꦥ꧀ꦫꦼ", "1186": "ꦮ꧀ꦲꦺꦴ", "1187": "ꦒ꧀ꦩꦺ", "1188": "ꦔ꧀ꦭꦁ", "1189": "ꦩꦴꦃ", "1190": "ꦭ꧀ꦫꦶ", "1191": "ꦱꦻꦁ", "1192": "ꦱ꧀ꦠꦶꦁ", "1193": "ꦗ꦳꧀ꦲ", "1194": "ꦗ꦳꧀ꦲꦁ", "1195": "ꦥ꦳ꦻ", "1196": "ꦱ꧀ꦱꦂ", "1197": "ꦗꦺꦴꦂ", "1198": "ꦩ꧀ꦠ", "1199": "ꦩ꧀ꦱꦸ", "1200": "ꦱ꧀ꦭꦸ", "1201": "꧄", "1202": "ꦆꦃ", "1203": "ꦒ꧀ꦒꦺꦴ", "1204": "ꦚꦸꦂ", "1205": "ꦠ꧀ꦮ", "1206": "ꦤ꧀ꦝꦸꦃ", "1207": "ꦥ꧀ꦠꦴ", "1208": "ꦩ꧀ꦭꦸ", "1209": "ꦭ꧀ꦢ", "1210": "ꦯ꧀ꦱ꧀ꦠꦼ", "1211": "ꦱ꧀ꦩꦺ", "1212": "ꦏ꧀ꦧ", "1213": "ꦚꦻ", "1214": "ꦤ꧀ꦗ꦳ꦼ", "1215": "ꦱ꧀ꦏꦂ", "1216": "ꦏ꧀ꦗꦼ", "1217": "ꦕꦶꦂ", "1218": "ꦕ꧀ꦕ", "1219": "ꦕ꧀ꦠ", "1220": "ꦚꦶꦁ", "1221": "ꦤ꧀ꦲꦶ", "1222": "ꦫ꧀ꦲꦶ", "1223": "ꦱ꧀ꦩꦻ", "1224": "ꦒ꦳ꦼ", "1225": "ꦩ꧀ꦤꦶ", "1226": "ꦩ꧀ꦫꦶꦃ", "1227": "ꦭ꧀ꦥ꧀", "1228": "ꦮ꧀ꦪ", "1229": "ꦱ꧀ꦫꦁ", "1230": "ꦛꦶꦁ", "1231": "ꦠ꧀ꦧ", "1232": "ꦭ꧀ꦠꦸꦂ", "1233": "ꦕꦸꦁ", "1234": "ꦠ꧀ꦠꦶꦁ", "1235": "ꦤ꧀ꦗ꦳ꦺꦴ", "1236": "ꦥ꦳꧀ꦏ꧀ꦱ꧀", "1237": "ꦥ꦳꧀ꦫꦸ", "1238": "ꦧ꧀ꦢ", "1239": "ꦩ꧀ꦥꦻ", "1240": "ꦱ꧀ꦧ꧀ꦤ꧀", "1241": "ꦏ꧀ꦔ꧀", "1242": "ꦠ꧀ꦠ꧀ꦪ꧀", "1243": "ꦢ꧀ꦥ꧀ꦭ꧀", "1244": "ꦤ꧀ꦏ꧀ꦠꦺꦴ", "1245": "ꦥ꦳ꦶꦁ", "1246": "ꦥꦺꦁ", "1247": "ꦧ꧀ꦢꦺꦴ", "1248": "ꦯꦼꦂ", "1249": "ꦱ꧀ꦏ꧀ꦫꦼ", "1250": "ꦱ꧀ꦭꦺ", "1251": "ꦏ꧀ꦧꦼ", "1252": "ꦐꦶꦁ", "1253": "ꦔꦼꦁ", "1254": "ꦤꦶꦃ", "1255": "ꦤ꧀ꦥ꦳꧀ꦫ", "1256": "ꦯ꧀ꦫꦶ", "1257": "ꦏ꧀ꦫꦻ", "1258": "ꦒ꧀ꦢ", "1259": "ꦕ꧀ꦢ꧀", "1260": "ꦤ꧀ꦗ꧀ꦭꦼ", "1261": "ꦥ꦳꧀ꦭꦶ", "1262": "ꦥ꧀ꦠꦼꦂ", "1263": "ꦭ꧀ꦩꦼ", "1264": "ꦮꦴ", "1265": "ꦱ꧀ꦢ", "1266": "ꦈꦃ", "1267": "ꦏ꧀ꦭꦺ", "1268": "ꦤ꧀ꦢ꧀ꦠ꧀", "1269": "ꦏ꧀ꦏꦃ", "1270": "ꦏ꧀ꦮꦼ", "1271": "ꦤ꧀ꦝꦂ", "1272": "ꦤ꧀ꦢꦺꦴꦁ", "1273": "ꦤ꧀ꦲꦼ", "1274": "ꦧ꧀ꦗ", "1275": "ꦩ꧀ꦧꦻ", "1276": "ꦱ꧀ꦱꦼꦂ", "1277": "ꦏ꧀ꦥ", "1278": "ꦏ꧀ꦭꦸꦁ", "1279": "ꦏ꧀ꦱ꧀ꦠꦶ", "1280": "ꦕ꧀ꦏꦶ", "1281": "ꦗ꧀ꦏ꧀", "1282": "ꦝ꧀", "1283": "ꦤ꧀ꦛꦺ", "1284": "ꦧ꧀ꦠ꧀", "1285": "ꦩ꧀ꦧꦺꦴꦁ", "1286": "ꦏ꧀ꦗ꧀ꦫꦺꦴ", "1287": "ꦒ꧀ꦒ", "1288": "ꦝꦶꦁ", "1289": "ꦤ꧀ꦧꦺꦴ", "1290": "ꦤ꧀ꦩꦸ", "1291": "ꦥ꦳꧀ꦪꦺ", "1292": "ꦧ꧀ꦧꦶ", "1293": "ꦩ꧀ꦩꦶ", "1294": "ꦭ꧀ꦪ꧀ꦤ꧀", "1295": "ꦏ꦳ꦼ", "1296": "ꦠ꧀ꦩꦼ", "1297": "ꦤ꧀ꦗ꧀ꦭꦺ", "1298": "ꦥꦴ", "1299": "ꦩ꧀ꦏ", "1300": "ꦪ꧀ꦪꦃ", "1301": "ꦪ꧀ꦭ", "1302": "ꦱ꧀ꦠ꧀ꦭꦼ", "1303": "ꦱ꧀ꦥꦂ", "1304": "ꦏ꧀ꦱꦴ", "1305": "ꦔ꧀ꦭꦺꦴ", "1306": "ꦲ꧀ꦪꦸ", "1307": "ꦗ꦳꧀ꦢ", "1308": "ꦛꦸꦂ", "1309": "ꦠ꧀ꦗ꦳ꦼ", "1310": "ꦤ꧀ꦥ꦳꧀ꦭ", "1311": "ꦩ꧀ꦫ꧀", "1312": "ꦭ꧀ꦧꦶ", "1313": "ꦱ꧀ꦠ꧀ꦫ꧀", "1314": "ꦏꦶꦃ", "1315": "ꦏ꧀ꦱ꧀ꦥꦺ", "1316": "ꦗ꧀ꦏ꧀ꦠ꧀", "1317": "ꦢ꧀ꦠ꧀", "1318": "ꦩ꧀ꦤꦼ", "1319": "ꦩ꧀ꦧꦺꦴꦂ", "1320": "ꦩ꧀ꦧ꧀ꦫꦸ", "1321": "ꦭ꧀ꦧꦺꦴ", "1322": "ꦗ꦳꧀ꦲꦺꦴ", "1323": "ꦗꦺꦁ", "1324": "ꦢ꧀ꦢ", "1325": "ꦱ꧀ꦩꦸ", "1326": "ꦢ꧀ꦥ꦳꧀ꦢ꧀", "1327": "ꦤ꧀ꦢꦼꦁ", "1328": "ꦭ꧀ꦪ꧀ꦩ꧀", "1329": "ꦮꦺꦂ", "1330": "ꦢꦺꦂ", "1331": "ꦢ꧀ꦗꦸ", "1332": "ꦥ꦳꧀ꦠ꧀ꦥ꦳꧀", "1333": "ꦌꦂ", "1334": "ꦔꦺꦁ", "1335": "ꦠ꧀ꦠ꧀ꦱ꧀", "1336": "ꦠ꧀ꦭꦺꦴ", "1337": "ꦤ꧀ꦢ꧀ꦮꦶ", "1338": "ꦩ꧀ꦭꦼꦁ", "1339": "ꦫꦺꦃ", "1340": "ꦭ꧀ꦲꦼ", "1341": "ꦠ꧀ꦱꦺꦴ", "1342": "ꦤ꧀ꦱꦻ", "1343": "ꦤ꧀ꦱ꧀ꦏ꧀", "1344": "ꦮ꧀ꦫꦶ", "1345": "ꦱ꧀ꦫꦸ", "1346": "ꦱ꧀ꦱꦺꦴꦂ", "1347": "ꦕ꧀ꦫ꧀ꦪ꧀", "1348": "ꦤ꧀ꦛꦁ", "1349": "ꦤ꧀ꦥ꧀ꦫ", "1350": "ꦥ꧀ꦏ꧀ꦱ꧀", "1351": "ꦩ꧀ꦢ꧀", "1352": "ꦱꦺꦁ", "1353": "ꦕ꧀ꦠꦼ", "1354": "ꦕ꧀ꦱ꧀ꦱꦺꦴ", "1355": "ꦗ꦳꧀ꦗ꦳꧀", "1356": "ꦗ꧀ꦏ꧀ꦱ꧀", "1357": "ꦗ꧀ꦫꦶ", "1358": "ꦢ꦳ꦶ", "1359": "ꦤ꧀ꦱ꧀ꦠꦼꦂ", "1360": "ꦧ꧀ꦭꦁ", "1361": "ꦧ꧀ꦱꦺꦴ", "1362": "ꦱ꧀ꦫ꧀", "1363": "ꦱ꧀ꦯ꧀", "1364": "ꦲ꧀ꦪ꧀ꦢ꧀", "1365": "ꦠ꧀ꦏ꧀", "1366": "ꦠ꧀ꦫꦃ", "1367": "ꦢꦼꦁ", "1368": "ꦢ꧀ꦕ꧀", "1369": "ꦢ꧀ꦩ", "1370": "ꦤ꧀ꦏ꧀ꦪ꧀", "1371": "ꦤ꧀ꦭꦸ", "1372": "ꦧ꧀ꦥ꧀", "1373": "ꦩ꧀ꦥ꧀ꦫ꧀", "1374": "ꦩ꧀ꦧ꧀", "1375": "ꦭ꧀ꦕꦺꦴ", "1376": "ꦤ꧀ꦏ꧀ꦱꦺꦴ", "1377": "ꦤ꧀ꦢ꧀ꦫꦸꦁ", "1378": "ꦤ꧀ꦤꦶꦁ", "1379": "ꦤ꧀ꦥꦺꦴ", "1380": "ꦧ꧀ꦤ꧀", "1381": "ꦭ꧀ꦠ꧀ꦫ", "1382": "ꦱ꧀ꦧꦺꦴ", "1383": "ꦏ꧀ꦩꦸꦂ", "1384": "ꦏ꧀ꦮꦃ", "1385": "ꦔ꧀ꦒꦶꦃ", "1386": "ꦠ꧀ꦤꦼ", "1387": "ꦥ꧀ꦥ꧀ꦭꦼ", "1388": "ꦧ꧀ꦫꦺ", "1389": "ꦫ꧀ꦲꦺꦴ", "1390": "ꦮꦼꦃ", "1391": "ꦒ꧀ꦤ꧀", "1392": "ꦒ꧀ꦪꦼ", "1393": "ꦕ꧀ꦕꦺꦴ", "1394": "ꦠ꧀ꦭꦸ", "1395": "ꦤ꧀ꦢꦺꦴꦂ", "1396": "ꦤ꧀ꦩꦶ", "1397": "ꦤ꧀ꦱ꧀ꦥ꦳ꦺꦴꦂ", "1398": "ꦩ꧀ꦪ", "1399": "ꦫ꧀ꦏ꧀ꦱ꧀", "1400": "ꦭ꧀ꦮ", "1401": "ꦤ꧀ꦠꦺꦂ", "1402": "ꦤ꧀ꦥꦺ", "1403": "ꦤ꧀ꦥ꧀ꦫꦺꦴ", "1404": "ꦤ꧀ꦱꦺꦂ", "1405": "ꦥ꦳꧀ꦥ꦳ꦺꦴꦂ", "1406": "ꦪ꧀ꦭꦼ", "1407": "ꦏ꧀ꦠ꧀ꦫꦸ", "1408": "ꦛ꧀ꦫꦼ", "1409": "ꦝꦼꦂ", "1410": "ꦢ꦳꧀", "1411": "ꦤ꧀ꦕꦃ", "1412": "ꦤ꧀ꦠ꧀ꦫ꧀", "1413": "ꦤ꧀ꦥꦼꦂ", "1414": "ꦤ꧀ꦮꦂ", "1415": "ꦥꦶꦃ", "1416": "ꦭ꧀ꦥ꦳ꦼꦂ", "1417": "ꦭ꧀ꦥ꦳꧀ꦫꦼ", "1418": "ꦮ꧀ꦏ꧀ꦱ꧀", "1419": "ꦯꦁ", "1420": "ꦒ꧀ꦩ꧀", "1421": "ꦗ꦳ꦺ", "1422": "ꦪ꧀ꦭꦺꦴꦂ", "1423": "ꦲꦸꦁ", "1424": "ꦏ꧀ꦥꦶ", "1425": "ꦏ꧀ꦱ꧀ꦠꦼꦂ", "1426": "ꦔ꧀ꦕ꧀", "1427": "ꦕ꧀ꦠꦼꦂ", "1428": "ꦕ꧀ꦫ꧀ꦗ꧀", "1429": "ꦠ꧀ꦭꦺ", "1430": "ꦢ꧀ꦭꦸ", "1431": "ꦤ꧀ꦤꦃ", "1432": "ꦥ꦳꧀ꦠ", "1433": "ꦥ꧀ꦏꦺ", "1434": "ꦥ꧀ꦥ꧀ꦪ꧀", "1435": "ꦩꦺꦁ", "1436": "ꦩ꧀ꦱ꧀ꦠꦼꦂ", "1437": "ꦫꦷ", "1438": "ꦫ꧀ꦕ꧀ꦠꦶ", "1439": "ꦭꦺꦴꦃ", "1440": "ꦭ꧀ꦠꦼ", "1441": "ꦮ꧀ꦠꦺꦴ", "1442": "ꦲ꧀ꦪꦼ", "1443": "ꦗ꧀ꦫ", "1444": "ꦗ꧀ꦫ꧀", "1445": "ꦚꦃ", "1446": "ꦢ꧀ꦭꦼ", "1447": "ꦩꦶꦃ", "1448": "ꦫ꧀ꦠ꧀", "1449": "ꦱ꧀ꦥ꦳ꦺꦂ", "1450": "ꦏ꧀ꦱ꧀ꦩ", "1451": "ꦕ꧀ꦕꦼ", "1452": "ꦗ꦳ꦻꦂ", "1453": "ꦢ꧀ꦏꦶ", "1454": "ꦥ꦳꧀ꦱꦶ", "1455": "ꦥ꧀ꦒ꧀", "1456": "ꦥ꧀ꦥꦸ", "1457": "ꦥ꧀ꦪ꧀ꦠ", "1458": "ꦭ꧀ꦒꦺꦴ", "1459": "ꦏ꦳꧀ꦭ", "1460": "ꦏ꧀ꦧꦺꦴ", "1461": "ꦕ꧀ꦐꦸ", "1462": "ꦗ꦳꧀ꦏ꧀ꦪ꧀", "1463": "ꦠ꧀ꦠꦸ", "1464": "ꦢ꧀ꦫ꧀ꦱ꧀", "1465": "ꦤ꧀ꦠꦸꦃ", "1466": "ꦥ꧀ꦭꦺ", "1467": "ꦧ꧀ꦏ", "1468": "ꦧ꧀ꦥ꧀ꦱ꧀", "1469": "ꦩꦺꦴꦃ", "1470": "ꦩ꧀ꦒ꧀ꦫ꧀", "1471": "ꦫ꧀ꦲꦼ", "1472": "ꦭ꧀ꦲꦶ", "1473": "ꦱ꧀ꦕ꧀ꦫꦼ", "1474": "ꦏ꧀ꦗ", "1475": "ꦔ꧀ꦭꦼꦁ", "1476": "ꦕ꧀ꦏ꧀ꦱꦺꦴ", "1477": "ꦥ꧀ꦱꦼ", "1478": "ꦫ꧀ꦤ", "1479": "ꦭ꧀ꦤ꧀", "1480": "ꦯ꧀ꦢ꧀ꦤꦼ", "1481": "ꦱ꧀ꦧ", "1482": "ꦠ꧀ꦧꦃ", "1483": "ꦢ꧀ꦏ꧀ꦱ꧀", "1484": "ꦤ꧀ꦏ꧀ꦭꦶ", "1485": "ꦤ꧀ꦥ꦳ꦶꦂ", "1486": "ꦥ꦳꧀ꦥ꦳꧀ꦭꦼ", "1487": "ꦧ꧀ꦱ꧀ꦥꦼ", "1488": "ꦩ꧀ꦲ꧀", "1489": "ꦫꦼꦃ", "1490": "ꦱ꧀ꦮ꧀", "1491": "ꦲꦼꦃ", "1492": "ꦏ꧀ꦏꦺꦴ", "1493": "ꦏ꧀ꦩꦶ", "1494": "ꦒ꧀ꦒ꧀ꦪ꧀", "1495": "ꦕ꧀ꦱ꧀ꦕ꧀", "1496": "ꦗ꦳꧀ꦏ꧀ꦱ꧀", "1497": "ꦛ꧀ꦫꦺꦴ", "1498": "ꦠ꧀ꦚ", "1499": "ꦢ꧀ꦝꦶ", "1500": "ꦤ꧀ꦐꦸ", "1501": "ꦥ꦳ꦸꦂ", "1502": "ꦧ꧀ꦧꦼ", "1503": "ꦩ꧀ꦥ꦳ꦺꦴ", "1504": "ꦩ꧀ꦥ꧀ꦭ", "1505": "ꦮ꧀ꦲꦼ", "1506": "ꦱ꧀ꦥ꧀ꦭ", "1507": "ꦒ꧀ꦏ", "1508": "ꦠ꧀ꦪ꧀ꦭꦼꦂ", "1509": "ꦢꦶꦃ", "1510": "ꦤ꧀ꦫꦺꦴ", "1511": "ꦥ꧀ꦏꦼ", "1512": "ꦧ꧀ꦏꦼ", "1513": "ꦧ꧀ꦧ꧀", "1514": "ꦩ꧀ꦥ꦳ꦶ", "1515": "ꦫꦻꦃ", "1516": "ꦮ꧀ꦤꦶ", "1517": "ꦯꦻꦂ", "1518": "ꦏ꧀ꦱ꧀ꦠꦼ", "1519": "ꦒ꦳ꦺꦴ", "1520": "ꦒ꧀ꦒꦼ", "1521": "ꦔꦺꦴꦁ", "1522": "ꦕ꧀ꦤꦺꦴ", "1523": "ꦕ꧀ꦤ꧀", "1524": "ꦠ꧀ꦗ", "1525": "ꦢ꧀ꦥ꦳ꦼ", "1526": "ꦢ꧀ꦭꦶ", "1527": "ꦤ꧀ꦏꦂ", "1528": "ꦥ꦳꧀ꦥ꦳ꦺꦴ", "1529": "ꦧ꧀ꦢꦸꦂ", "1530": "ꦭ꧀ꦩꦂ", "1531": "ꦱ꧀ꦠꦸꦂ", "1532": "꧇", "1533": "ꦐꦺꦴ", "1534": "ꦒ꧀ꦒ꧀", "1535": "ꦗꦺꦂ", "1536": "ꦠ꧀ꦥ꧀", "1537": "ꦤ꧀ꦱ꧀ꦥ", "1538": "ꦥ꦳꧀ꦠ꧀ꦮ", "1539": "ꦩ꧀ꦕ", "1540": "ꦩ꧀ꦥ꧀ꦭꦸꦁ", "1541": "ꦩ꧀ꦪꦼ", "1542": "ꦩ꧀ꦭꦺꦴ", "1543": "ꦪ꧀ꦧꦺꦴ", "1544": "ꦭ꧀ꦕ", "1545": "ꦭ꧀ꦩ꧀ꦱ꧀", "1546": "ꦮ꧀ꦮꦼ", "1547": "ꦱ꧀ꦛꦺ", "1548": "ꦏ꧀ꦢꦼ", "1549": "ꦒꦺꦁ", "1550": "ꦕ꧀ꦠ꧀ꦫꦺꦴ", "1551": "ꦠ꧀ꦫꦼꦁ", "1552": "ꦤ꧀ꦗ꧀ꦭ", "1553": "ꦤ꧀ꦥ꦳ꦸ", "1554": "ꦤ꧀ꦲꦸ", "1555": "ꦥ꧀ꦢꦶ", "1556": "ꦫ꧀ꦪ", "1557": "ꦭ꧀ꦥ꦳ꦺꦴ", "1558": "ꦭ꧀ꦩꦺ", "1559": "ꦱꦺꦴꦃ", "1560": "ꦠ꧀ꦗꦺꦴ", "1561": "ꦢ꧀ꦢ꧀ꦭꦼ", "1562": "ꦤ꧀ꦗꦻ", "1563": "ꦤ꧀ꦠ꧀ꦪ", "1564": "ꦥ꧀ꦱꦶꦂ", "1565": "ꦧ꧀ꦱ꧀ꦠ", "1566": "ꦩ꧀ꦱꦺꦴ", "1567": "ꦪ꧀ꦩ", "1568": "ꦱ꧀ꦥ꦳ꦺꦴ", "1569": "ꦒ꦳ꦸꦂ", "1570": "ꦕ꧀ꦏ꦳", "1571": "ꦛꦁ", "1572": "ꦝꦶꦃ", "1573": "ꦠ꧀ꦒ", "1574": "ꦤ꧀ꦥ꦳ꦺꦴ", "1575": "ꦧꦺꦁ", "1576": "ꦧ꧀ꦠ꧀ꦫꦺꦴ", "1577": "ꦩ꧀ꦢ", "1578": "ꦪ꧀ꦕꦼ", "1579": "ꦪ꧀ꦤ꧀", "1580": "ꦏ꧀ꦏꦸ", "1581": "ꦏ꧀ꦚ", "1582": "ꦏ꧀ꦱ꧀ꦠꦸ", "1583": "ꦕ꧀ꦤꦶ", "1584": "ꦤ꧀ꦛꦶꦁ", "1585": "ꦤ꧀ꦱꦶꦁ", "1586": "ꦤ꧀ꦱ꧀ꦭ", "1587": "ꦥ꦳ꦻꦂ", "1588": "ꦥ꦳꧀ꦒ", "1589": "ꦥ꧀ꦤꦼ", "1590": "ꦩ꧀ꦫꦶꦁ", "1591": "ꦭ꧀ꦠꦂ", "1592": "ꦱ꧀ꦤ꧀", "1593": "ꦲ꧀ꦮ", "1594": "ꦏ꧀ꦥꦸ", "1595": "ꦔ꧀ꦭꦺ", "1596": "ꦕ꧀ꦕꦸ", "1597": "ꦗ꦳꧀ꦪ꧀", "1598": "ꦗ꦳꧀ꦲꦼꦁ", "1599": "ꦠ꧀ꦫ꧀", "1600": "ꦤ꧀ꦝꦸꦂ", "1601": "ꦤ꧀ꦢꦶꦂ", "1602": "ꦤ꧀ꦯꦃ", "1603": "ꦧ꧀ꦭꦺ", "1604": "ꦩ꧀ꦏꦼ", "1605": "ꦩ꧀ꦤ꧀", "1606": "ꦩ꧀ꦫꦸ", "1607": "ꦱ꧀ꦠ꧀ꦪ", "1608": "ꦱ꧀ꦠ꧀ꦱ꧀", "1609": "ꦱ꧀ꦢꦼ", "1610": "ꦱ꧀ꦥ꧀ꦪ꧀", "1611": "ꦱ꧀ꦩꦂ", "1612": "ꦱ꧀ꦩ꧀ꦏ꧀", "1613": "ꦲ꧀ꦭ꧀ꦩ꧀", "1614": "ꦃ", "1615": "ꦒ꧀ꦫꦃ", "1616": "ꦠ꧀ꦮꦼ", "1617": "ꦤ꧀ꦮꦸ", "1618": "ꦧ꧀ꦫ꧀ꦏ꧀", "1619": "ꦩ꧀ꦭ꧀", "1620": "ꦫ꧀ꦮ꧀", "1621": "ꦱ꧀ꦢꦶ", "1622": "ꦱ꧀ꦧꦸꦂ", "1623": "ꦏ꧀ꦱ꧀ꦥ", "1624": "ꦒꦺꦂ", "1625": "ꦒ꧀ꦪ꧀ꦩ꧀", "1626": "ꦗ꧀ꦫꦶꦃ", "1627": "ꦠꦺꦴꦃ", "1628": "ꦠ꧀ꦗꦼ", "1629": "ꦢ꧀ꦢꦼ", "1630": "ꦢ꧀ꦱꦺꦴ", "1631": "ꦤ꧀ꦝꦺꦴꦁ", "1632": "ꦤ꧀ꦱꦁ", "1633": "ꦥ꦳꧀ꦩ꧀", "1634": "ꦥ꧀ꦩ꧀", "1635": "ꦩ꧀ꦥ꧀ꦫꦶ", "1636": "ꦩ꧀ꦪ꧀ꦕꦺꦴ", "1637": "ꦭ꧀ꦒꦼ", "1638": "ꦭ꧀ꦢꦶꦁ", "1639": "ꦭ꧀ꦪ꧀ꦢꦶ", "1640": "ꦱ꧀ꦧꦶ", "1641": "ꦱ꧀ꦮꦺꦴ", "1642": "ꦒ꧀ꦤꦸ", "1643": "ꦕ꧀ꦏ꧀ꦭꦼ", "1644": "ꦗ꧀ꦫꦃ", "1645": "ꦚꦺꦴꦁ", "1646": "ꦠ꧀ꦪ꧀ꦥꦼ", "1647": "ꦠ꧀ꦱ꧀ꦕꦼ", "1648": "ꦤ꧀ꦛ꧀", "1649": "ꦤ꧀ꦫꦸ", "1650": "ꦩ꧀ꦧꦶꦂ", "1651": "ꦩ꧀ꦪꦺꦴ", "1652": "ꦭ꧀ꦤ", "1653": "ꦏ꧀ꦮꦺꦴ", "1654": "ꦏ꧀ꦱ꧀ꦮ꧀", "1655": "ꦒ꧀ꦒꦼꦂ", "1656": "ꦕ꧀ꦪ꧀ꦤ꧀", "1657": "ꦗ꦳꧀ꦗ꦳ꦺꦴ", "1658": "ꦗ꦳꧀ꦩꦸꦂ", "1659": "ꦛ꧀ꦫꦶ", "1660": "ꦝꦸꦂ", "1661": "ꦠ꧀ꦗꦶ", "1662": "ꦠ꧀ꦧ꧀", "1663": "ꦠ꧀ꦪ꧀ꦠꦺꦴ", "1664": "ꦤ꧀ꦕ꧀ꦠ꧀", "1665": "ꦤ꧀ꦝꦺꦂ", "1666": "ꦤ꧀ꦥꦶꦂ", "1667": "ꦩ꧀ꦲ", "1668": "ꦪ꧀ꦤꦼ", "1669": "ꦪ꧀ꦧ", "1670": "ꦱ꧀ꦕ꧀ꦭꦼ", "1671": "ꦲ꧀ꦥ꧀", "1672": "꧉", "1673": "ꦒ꧀ꦥ꦳", "1674": "ꦕ꧀ꦭꦂ", "1675": "ꦛ꧀ꦪ꧀", "1676": "ꦠ꧀ꦕꦼ", "1677": "ꦠ꧀ꦤꦼꦂ", "1678": "ꦠ꧀ꦩꦶ", "1679": "ꦤ꧀ꦤꦸ", "1680": "ꦥ꧀ꦱ꧀ꦱꦶ", "1681": "ꦩ꧀ꦥꦺꦁ", "1682": "ꦩ꧀ꦥꦺꦴꦁ", "1683": "ꦩ꧀ꦥ꧀ꦠꦺꦴ", "1684": "ꦩ꧀ꦥ꧀ꦭꦺꦴ", "1685": "ꦩ꧀ꦧ꧀ꦭꦺꦴ", "1686": "ꦭ꧀ꦠꦻ", "1687": "ꦭ꧀ꦲꦺꦴ", "1688": "ꦱ꧀ꦥ꦳ꦺꦴꦂ", "1689": "ꦱ꧀ꦥ꧀ꦧꦼꦂ", "1690": "ꦱ꧀ꦭ꧀", "1691": "ꦲꦶꦃ", "1692": "ꦏ꧀ꦝꦸ", "1693": "ꦒ꦳ꦸ", "1694": "ꦒ꧀ꦱ꧀", "1695": "ꦕꦴ", "1696": "ꦕ꧀ꦥ꦳꧀", "1697": "ꦗ꦳꧀ꦲꦼ", "1698": "ꦠ꧀ꦥꦸ", "1699": "ꦠ꧀ꦫ꧀ꦪ꧀", "1700": "ꦤ꧀ꦕꦺꦴꦂ", "1701": "ꦥ꦳꧀ꦭ꧀ꦪ꧀", "1702": "ꦥ꦳꧀ꦱꦸ", "1703": "ꦥ꧀ꦧ꧀", "1704": "ꦥ꧀ꦭꦼꦂ", "1705": "ꦫ꧀ꦪꦸ", "1706": "ꦭ꧀ꦕ꧀ꦏꦼ", "1707": "ꦭ꧀ꦛ꧀", "1708": "ꦮ꧀ꦕ", "1709": "ꦮ꧀ꦤꦼꦂ", "1710": "ꦮ꧀ꦭꦼ", "1711": "ꦱ꧀ꦛꦼ", "1712": "ꦏ꧀ꦗ꧀", "1713": "ꦒ꧀ꦪ꧀ꦥ꧀", "1714": "ꦕ꧀ꦏꦺꦴ", "1715": "ꦕ꧀ꦭꦻ", "1716": "ꦠ꧀ꦫꦴ", "1717": "ꦢ꧀ꦗꦂ", "1718": "ꦤ꧀ꦱꦼꦁ", "1719": "ꦥ꧀ꦏ", "1720": "ꦧ꧀ꦤꦶ", "1721": "ꦮ꧀ꦭ", "1722": "ꦯꦺꦴꦂ", "1723": "ꦱ꧀ꦕ꧀ꦫꦺꦴ", "1724": "ꦲ꧀ꦏ꧀ꦱ꧀", "1725": "ꦲ꧀ꦪ꧀ꦥꦺꦴ", "1726": "ꦏ꧀ꦧꦂ", "1727": "ꦏ꧀ꦮ꧀", "1728": "ꦗꦸꦃ", "1729": "ꦠ꧀ꦤ꧀", "1730": "ꦢ꧀ꦗ꧀", "1731": "ꦢ꧀ꦤꦼ", "1732": "ꦤ꧀ꦕꦺꦂ", "1733": "ꦤ꧀ꦗ꦳ꦻ", "1734": "ꦤ꧀ꦢꦴ", "1735": "ꦤ꧀ꦩꦺꦴ", "1736": "ꦤ꧀ꦩ꧀", "1737": "ꦥ꧀ꦫꦃ", "1738": "ꦩ꧀ꦚ", "1739": "ꦩ꧀ꦲꦺꦴ", "1740": "ꦭ꧀ꦭ꧀ꦧꦺꦴ", "1741": "ꦱ꧀ꦏꦼꦂ", "1742": "ꦐꦶꦃ", "1743": "ꦔ꧀ꦫꦼꦁ", "1744": "ꦢ꧀ꦩꦺꦴ", "1745": "ꦤ꧀ꦔ꧀", "1746": "ꦤ꧀ꦢꦸꦃ", "1747": "ꦤ꧀ꦤ꧀ꦯ꧀", "1748": "ꦥ꦳꧀ꦱ꧀", "1749": "ꦥ꧀ꦱ", "1750": "ꦩ꧀ꦕꦶ", "1751": "ꦩ꧀ꦥ꦳", "1752": "ꦩ꧀ꦥ꧀ꦭꦸ", "1753": "ꦩ꧀ꦧ꧀ꦪꦺꦴꦁ", "1754": "ꦪꦼꦁ", "1755": "ꦭ꧀ꦢ꧀ꦱ꧀", "1756": "ꦱ꧀ꦕ꧀ꦫꦶ", "1757": "ꦱ꧀ꦩ꧀ꦱ꧀", "1758": "ꦱ꧀ꦫꦃ", "1759": "ꦱ꧀ꦮ꧀ꦠ꧀", "1760": "ꦱ꧀ꦱꦶꦁ", "1761": "ꦏ꧀ꦏ꧀", "1762": "ꦔ꧀ꦮ", "1763": "ꦕ꧀ꦏ", "1764": "ꦕ꧀ꦠ꧀ꦫꦶ", "1765": "ꦗ꧀ꦤ꧀", "1766": "ꦠ꧀ꦛꦼ", "1767": "ꦠ꧀ꦥꦶ", "1768": "ꦢ꦳", "1769": "ꦤ꧀ꦢꦺꦂ", "1770": "ꦥ꦳꧀ꦱ꧀ꦏ꧀", "1771": "ꦥ꧀ꦢ꧀", "1772": "ꦥ꧀ꦪ꧀ꦱꦶ", "1773": "ꦧ꧀ꦒ꧀", "1774": "ꦧ꧀ꦠꦶ", "1775": "ꦧ꧀ꦱꦼ", "1776": "ꦩ꧀ꦠ꧀ꦥ꦳꧀", "1777": "ꦮ꧀ꦱ꧀ꦏꦶ", "1778": "ꦯ꧀ꦤ", "1779": "ꦱ꧀ꦥ꦳ꦸꦁ", "1780": "ꦏ꧀ꦧꦸ", "1781": "ꦏ꧀ꦱꦺꦴꦂ", "1782": "ꦒ꧀ꦫꦺꦴꦁ", "1783": "ꦔ꧀ꦪ", "1784": "ꦕ꧀ꦗ꦳꧀", "1785": "ꦗꦶꦃ", "1786": "ꦠ꧀ꦕꦶ", "1787": "ꦢ꧀ꦢ꧀", "1788": "ꦤ꧀ꦠꦺꦴꦃ", "1789": "ꦥ꦳꧀ꦒ꦳", "1790": "ꦥ꧀ꦤꦺꦴ", "1791": "ꦧ꧀ꦪꦺꦴ", "1792": "ꦧ꧀ꦪ꧀ꦯꦶ", "1793": "ꦩ꧀ꦕ꧀ꦭ", "1794": "ꦩ꧀ꦭꦺ", "1795": "ꦪ꧀ꦪ", "1796": "ꦪ꧀ꦪꦶ", "1797": "ꦫ꧀ꦥ꧀ꦩ꧀", "1798": "ꦫ꧀ꦪꦼ", "1799": "ꦭ꧀ꦏꦂ", "1800": "ꦭ꧀ꦫꦺꦴ", "1801": "ꦮ꧀ꦪ꧀", "1802": "ꦱ꧀ꦥ꧀ꦫꦶ", "1803": "ꦱ꧀ꦧ꧀ꦪ꧀", "1804": "ꦏ꦳ꦻ", "1805": "ꦏ꧀ꦢꦶꦂ", "1806": "ꦏ꧀ꦭ꧀ꦪ꧀", "1807": "ꦐꦃ", "1808": "ꦒ꧀ꦫꦻ", "1809": "ꦗ꦳ꦶꦂ", "1810": "ꦗ꧀ꦭꦺ", "1811": "ꦝꦸꦃ", "1812": "ꦢ꦳ꦸ", "1813": "ꦢ꧀ꦭ꧀ꦪ꧀", "1814": "ꦤ꧀ꦏ꧀ꦫꦶ", "1815": "ꦤ꧀ꦕ꧀ꦏ꧀", "1816": "ꦤ꧀ꦠꦶꦂ", "1817": "ꦤ꧀ꦢ꧀ꦫꦺ", "1818": "ꦤ꧀ꦱ꧀ꦕ꧀", "1819": "ꦥ꦳꧀ꦫ꧀", "1820": "ꦥ꧀ꦫꦸꦁ", "1821": "ꦥ꧀ꦭꦻ", "1822": "ꦧꦺꦴꦃ", "1823": "ꦧ꧀ꦕ꧀", "1824": "ꦧ꧀ꦧ꧀ꦭꦼ", "1825": "ꦩ꧀ꦕ꧀", "1826": "ꦩ꧀ꦮ", "1827": "ꦫ꧀ꦭꦶ", "1828": "ꦫ꧀ꦱ꧀", "1829": "ꦱ꧀ꦥ꧀ꦫꦶꦁ", "1830": "ꦲ꧀ꦪꦺꦴ", "1831": "ꦗ꦳꧀ꦲꦂ", "1832": "ꦝ꧀ꦪ", "1833": "ꦠ꧀ꦮꦺꦴ", "1834": "ꦠ꧀ꦮꦺꦴꦂ", "1835": "ꦢ꧀ꦥ꦳꧀ꦧ꧀", "1836": "ꦢ꧀ꦥ꧀ꦢ꧀", "1837": "ꦢ꧀ꦭ꧀", "1838": "ꦤ꧀ꦏꦶꦁ", "1839": "ꦤ꧀ꦢ꧀ꦫꦸ", "1840": "ꦤ꧀ꦭꦁ", "1841": "ꦥ꦳꧀ꦱꦶꦂ", "1842": "ꦧ꧀ꦠꦸ", "1843": "ꦩꦸꦃ", "1844": "ꦩ꧀ꦥ꦳ꦺꦴꦂ", "1845": "ꦩ꧀ꦧꦺꦂ", "1846": "ꦭ꧀ꦧꦼ", "1847": "ꦭ꧀ꦪ꧀ꦱ꧀", "1848": "ꦱ꧀ꦕꦺꦴꦂ", "1849": "ꦱ꧀ꦕ꧀ꦠ꧀", "1850": "ꦁ", "1851": "ꦏꦼꦁ", "1852": "ꦔ꧀ꦒꦂ", "1853": "ꦔ꧀ꦫꦻꦃ", "1854": "ꦕ꧀ꦠꦂ", "1855": "ꦕ꧀ꦪ", "1856": "ꦗ꧀ꦗ", "1857": "ꦛꦺꦴꦂ", "1858": "ꦠ꧀ꦥ꦳ꦶ", "1859": "ꦤ꧀ꦏ꧀ꦫꦼ", "1860": "ꦤ꧀ꦱ꧀ꦥ꧀", "1861": "ꦥ꧀ꦪꦼ", "1862": "ꦥ꧀ꦪ꧀ꦭ꧀", "1863": "ꦧ꧀ꦭꦺꦴꦁ", "1864": "ꦩ꧀ꦧ꧀ꦭꦺ", "1865": "ꦪꦺꦴꦃ", "1866": "ꦭ꧀ꦥ꧀ꦱ꧀", "1867": "ꦮ꧀ꦤꦼ", "1868": "ꦱ꧀ꦠꦻ", "1869": "ꦱ꧀ꦠ꧀ꦫꦴ", "1870": "ꦱ꧀ꦥꦸ", "1871": "ꦱ꧀ꦥ꧀ꦥ꧀", "1872": "ꦲ꧀ꦧ꧀", "1873": "ꦏ꧀ꦫꦶꦁ", "1874": "ꦒ꧀ꦤ꧀ꦩꦼ", "1875": "ꦕ꧀ꦪ꧀ꦥ꧀", "1876": "ꦠ꧀ꦏꦺꦴ", "1877": "ꦠ꧀ꦠꦂ", "1878": "ꦠ꧀ꦪꦺꦴ", "1879": "ꦤ꧀ꦠꦴ", "1880": "ꦤ꧀ꦥꦸꦁ", "1881": "ꦤ꧀ꦫꦺ", "1882": "ꦤ꧀ꦲ꧀ꦪꦁ", "1883": "ꦥ꦳ꦴ", "1884": "ꦥ꧀ꦥ꧀ꦥ꧀", "1885": "ꦥ꧀ꦪꦂ", "1886": "ꦩ꧀ꦏꦺ", "1887": "ꦩ꧀ꦧ꧀ꦭꦁ", "1888": "ꦩ꧀ꦪ꧀ꦱ꧀", "1889": "ꦭ꧀ꦕꦼ", "1890": "ꦭ꧀ꦮꦶ", "1891": "ꦱꦷ", "1892": "ꦱꦼꦃ", "1893": "ꦲ꧀ꦠ꧀ꦩ꧀", "1894": "ꦏ꦳꧀ꦠ", "1895": "ꦏ꧀ꦱ꧀ꦗ", "1896": "ꦒ꧀ꦩꦶ", "1897": "ꦒ꧀ꦪꦸ", "1898": "ꦕ꧀ꦏꦶꦁ", "1899": "ꦕ꧀ꦪ꧀ꦕ꧀", "1900": "ꦕ꧀ꦭ꧀", "1901": "ꦛꦺꦴꦁ", "1902": "ꦠ꧀ꦏꦶ", "1903": "ꦠ꧀ꦱꦂ", "1904": "ꦢ꧀ꦗꦃ", "1905": "ꦤꦷ", "1906": "ꦤ꧀ꦭꦺꦴ", "1907": "ꦥꦷ", "1908": "ꦥ꧀ꦕ꧀", "1909": "ꦧ꧀ꦧꦺꦴ", "1910": "ꦧ꧀ꦧꦼꦂ", "1911": "ꦧ꧀ꦱ", "1912": "ꦩ꧀ꦒ꧀ꦩ꧀", "1913": "ꦩ꧀ꦕꦼ", "1914": "ꦩ꧀ꦠ꧀ꦱ꧀", "1915": "ꦩ꧀ꦥ꧀ꦫꦺ", "1916": "ꦩ꧀ꦥ꧀ꦱꦺꦴ", "1917": "ꦩ꧀ꦥ꧀ꦱ꧀", "1918": "ꦩ꧀ꦧꦼꦁ", "1919": "ꦪꦶꦁ", "1920": "ꦪ꧀ꦏ꧀ꦱ꧀", "1921": "ꦭ꧀ꦢ꧀ꦠ꧀", "1922": "ꦭ꧀ꦯ꧀", "1923": "ꦱ꧀ꦧ꧀ꦫꦺꦴ", "1924": "ꦲ꧀ꦗ꧀", "1925": "ꦲ꧀ꦧ꧀ꦱ꧀", "1926": "ꦏ꧀ꦏ꧀ꦪ꧀", "1927": "ꦏ꧀ꦢꦶ", "1928": "ꦏ꧀ꦯꦶ", "1929": "ꦒꦼꦃ", "1930": "ꦔꦴ", "1931": "ꦕ꧀ꦱꦼ", "1932": "ꦕ꧀ꦱ꧀ꦠ꧀", "1933": "ꦛ꧀ꦭꦼ", "1934": "ꦠꦷ", "1935": "ꦠ꧀ꦱꦼ", "1936": "ꦢ꧀ꦥ꦳", "1937": "ꦢ꧀ꦥ꧀", "1938": "ꦢ꧀ꦩꦼ", "1939": "ꦤ꧀ꦏ꧀ꦥ꦳ꦸꦂ", "1940": "ꦤ꧀ꦩꦶꦁ", "1941": "ꦤ꧀ꦱ꧀ꦏꦶ", "1942": "ꦥ꦳꧀ꦥ꦳꧀ꦫꦼ", "1943": "ꦥ꧀ꦥꦺꦴꦂ", "1944": "ꦧ꧀ꦤꦺꦴꦂ", "1945": "ꦩ꧀ꦕ꧀ꦢꦺꦴ", "1946": "ꦩ꧀ꦗ꦳ꦃ", "1947": "ꦭ꧀ꦒꦸ", "1948": "ꦭ꧀ꦕ꧀ꦢ꧀", "1949": "ꦭ꧀ꦲ꧀", "1950": "ꦯꦶꦂ", "1951": "ꦯ꧀ꦩ", "1952": "ꦱ꧀ꦗ꦳ꦼ", "1953": "ꦱ꧀ꦚ", "1954": "ꦱ꧀ꦠ꧀ꦫꦶꦁ", "1955": "ꦱ꧀ꦥ꦳꧀", "1956": "ꦏ꦳꧀ꦫꦶ", "1957": "ꦏ꧀ꦫ꧀ꦪ", "1958": "ꦐ꧀ꦱ", "1959": "ꦕ꧀ꦏꦂ", "1960": "ꦕ꧀ꦗ꦳ꦼ", "1961": "ꦕ꧀ꦪ꧀ꦧꦼꦂ", "1962": "ꦕ꧀ꦫ꧀", "1963": "ꦗ꧀ꦭ", "1964": "ꦚꦶꦂ", "1965": "ꦛ꧀ꦏ꧀ꦱ꧀", "1966": "ꦠ꧀ꦗ꦳ꦼꦂ", "1967": "ꦠ꧀ꦱ꧀ꦏ꧀", "1968": "ꦠ꧀ꦱ꧀ꦕ꧀", "1969": "ꦠ꧀ꦱ꧀ꦥꦺꦴ", "1970": "ꦠ꧀ꦱ꧀ꦩ", "1971": "ꦢꦼꦃ", "1972": "ꦢ꧀ꦪ꧀ꦤ", "1973": "ꦢ꧀ꦭꦼꦂ", "1974": "ꦤ꧀ꦏ꧀ꦭ", "1975": "ꦤ꧀ꦠ꧀ꦫꦸ", "1976": "ꦤ꧀ꦱ꧀ꦏ", "1977": "ꦤ꧀ꦱ꧀ꦭꦶ", "1978": "ꦤ꧀ꦲꦂ", "1979": "ꦥ꦳꧀ꦭꦺ", "1980": "ꦥ꦳꧀ꦭ꧀ꦪꦶꦁ", "1981": "ꦥ꧀ꦤ꧀ꦱ꧀", "1982": "ꦥ꧀ꦩꦼ", "1983": "ꦥ꧀ꦫ꧀", "1984": "ꦧ꧀ꦱ꧀ꦠꦶ", "1985": "ꦧ꧀ꦱ꧀ꦠꦼꦂ", "1986": "ꦩ꧀ꦢꦼ", "1987": "ꦩ꧀ꦥꦺꦂ", "1988": "ꦩ꧀ꦥ꧀ꦭꦂ", "1989": "ꦩ꧀ꦪ꧀ꦕꦼ", "1990": "ꦫꦹ", "1991": "ꦫꦺꦂ", "1992": "ꦭꦴꦂ", "1993": "ꦭ꧀ꦏꦼꦂ", "1994": "ꦭ꧀ꦕ꧀", "1995": "ꦮ꧀ꦭ꧀", "1996": "ꦱ꧀ꦗ꦳꧀", "1997": "ꦱ꧀ꦥ꦳ꦶ", "1998": "ꦱ꧀ꦥ꦳ꦼ", "1999": "ꦏ꧀ꦤꦸ", "2000": "ꦏ꧀ꦩꦺꦴ", "2001": "ꦏ꧀ꦱ꧀ꦭ꧀", "2002": "ꦒ꧀ꦫꦶꦁ", "2003": "ꦒ꧀ꦮ", "2004": "ꦕ꧀ꦫꦻ", "2005": "ꦗ꦳꧀ꦗ꦳ꦶ", "2006": "ꦗ꧀ꦗꦃ", "2007": "ꦗ꧀ꦗꦶ", "2008": "ꦠ꧀ꦪ꧀ꦫ", "2009": "ꦢ꧀ꦥ꦳ꦶ", "2010": "ꦢ꧀ꦫꦺ", "2011": "ꦢ꧀ꦫꦻ", "2012": "ꦤ꧀ꦕ꧀ꦫ", "2013": "ꦥ꦳ꦼꦁ", "2014": "ꦥ꦳꧀ꦫꦺ", "2015": "ꦥ꧀ꦢ꧀ꦧ꧀", "2016": "ꦥ꧀ꦱꦺꦴ", "2017": "ꦩ꧀ꦠꦼ", "2018": "ꦩ꧀ꦥ꦳ꦼ", "2019": "ꦩ꧀ꦭ꧀ꦱ꧀", "2020": "ꦩ꧀ꦯꦶ", "2021": "ꦪ꧀ꦩꦺꦴ", "2022": "ꦪ꧀ꦭꦶ", "2023": "ꦪ꧀ꦭ꧀", "2024": "ꦮꦷ", "2025": "ꦯꦷ", "2026": "ꦱ꧀ꦏ꧀ꦮ", "2027": "ꦲꦺꦂ", "2028": "ꦏ꧀ꦒꦸ", "2029": "ꦏ꧀ꦤ꧀", "2030": "ꦏ꧀ꦧꦶ", "2031": "ꦏ꧀ꦫ꧀", "2032": "ꦏ꧀ꦱ꧀ꦭꦼ", "2033": "ꦒ꦳꧀ꦠꦼꦂ", "2034": "ꦔꦶꦂ", "2035": "ꦕ꧀ꦛ꧀ꦪꦺꦴ", "2036": "ꦗ꦳꧀ꦧꦸ", "2037": "ꦗ꧀ꦭꦼ", "2038": "ꦚꦸꦁ", "2039": "ꦢ꧀ꦤꦶ", "2040": "ꦤ꧀ꦧꦺ", "2041": "ꦤ꧀ꦱ꧀ꦏꦼꦂ", "2042": "ꦤ꧀ꦱ꧀ꦒꦺ", "2043": "ꦥ꦳꧀ꦥ꦳ꦼꦂ", "2044": "ꦥ꦳꧀ꦭ꧀", "2045": "ꦥ꧀ꦢ", "2046": "ꦥ꧀ꦭꦁ", "2047": "ꦩ꧀ꦱꦼ", "2048": "ꦪ꧀ꦪꦸ", "2049": "ꦫ꧀ꦫꦶ", "2050": "ꦭꦷ", "2051": "ꦭ꧀ꦧ꧀", "2052": "ꦮ꧀ꦠ", "2053": "ꦮ꧀ꦭꦶꦁ", "2054": "ꦱꦺꦃ", "2055": "ꦱ꧀ꦕ꧀ꦏ꧀", "2056": "ꦱ꧀ꦠ꧀ꦏ꧀", "2057": "ꦱ꧀ꦠ꧀ꦩ", "2058": "ꦱ꧀ꦧꦺꦴꦂ", "2059": "ꦱ꧀ꦧ꧀ꦱ꧀", "2060": "ꦱ꧀ꦫꦺꦴ", "2061": "ꦄꦴꦁ", "2062": "ꦏ꦳꧀ꦩꦼꦂ", "2063": "ꦏ꧀ꦥꦼ", "2064": "ꦏ꧀ꦱ꧀ꦥꦺꦴ", "2065": "ꦒ꦳꧀ꦠ꧀ꦱ꧀", "2066": "ꦒ꧀ꦫ꧀", "2067": "ꦔ꧀ꦒ꧀ꦭ", "2068": "ꦕ꧀ꦠ꧀ꦱ꧀", "2069": "ꦛꦼꦁ", "2070": "ꦠ꧀ꦥ꦳꧀ꦫꦶ", "2071": "ꦢ꧀ꦥꦸ", "2072": "ꦤ꧀ꦕꦶꦂ", "2073": "ꦤ꧀ꦢ꧀ꦭꦼꦂ", "2074": "ꦤ꧀ꦤꦻ", "2075": "ꦤ꧀ꦯ꧀", "2076": "ꦫ꧀ꦮ", "2077": "ꦭ꧀ꦗ꦳", "2078": "ꦭ꧀ꦫꦼ", "2079": "ꦭ꧀ꦮꦼ", "2080": "ꦮ꧀ꦮ", "2081": "ꦯ꧀ꦏꦼ", "2082": "ꦱ꧀ꦏ꧀ꦱꦺꦴ", "2083": "ꦱ꧀ꦒꦺꦴ", "2084": "ꦱ꧀ꦕꦼꦂ", "2085": "ꦱ꧀ꦗ꦳꧀ꦕ꧀", "2086": "ꦏꦺꦂ", "2087": "ꦏ꧀ꦕꦼ", "2088": "ꦏ꧀ꦗꦶ", "2089": "ꦏ꧀ꦭ꧀", "2090": "ꦏ꧀ꦱ꧀ꦢ꧀", "2091": "ꦒ꦳ꦻ", "2092": "ꦒ꧀ꦧ", "2093": "ꦕ꧀ꦏ꧀ꦧꦼꦂ", "2094": "ꦕ꧀ꦠ꧀ꦫꦼ", "2095": "ꦗ꧀ꦪ꧀ꦥ꧀", "2096": "ꦠ꧀ꦕ", "2097": "ꦠ꧀ꦧꦺꦴ", "2098": "ꦠ꧀ꦧ꧀ꦏ꧀", "2099": "ꦠ꧀ꦱꦶꦂ", "2100": "ꦢ꧀ꦢꦶꦁ", "2101": "ꦢ꧀ꦧ", "2102": "ꦤ꧀ꦗ꧀ꦭꦶ", "2103": "ꦤ꧀ꦛꦼꦂ", "2104": "ꦤ꧀ꦛ꧀ꦫꦺꦴ", "2105": "ꦤ꧀ꦠ꧀ꦏ꧀", "2106": "ꦤ꧀ꦱ꧀ꦥꦼ", "2107": "ꦤ꧀ꦱ꧀ꦧꦸꦂ", "2108": "ꦥ꦳꧀ꦗ꧀", "2109": "ꦥꦿ", "2110": "ꦧ꧀ꦏꦂ", "2111": "ꦧ꧀ꦢꦼ", "2112": "ꦧ꧀ꦢ꧀", "2113": "ꦧ꧀ꦪꦂ", "2114": "ꦩ꧀ꦧ꧀ꦫꦼ", "2115": "ꦩ꧀ꦧ꧀ꦭꦸꦁ", "2116": "ꦩ꧀ꦩꦂ", "2117": "ꦭ꧀ꦏ꧀ꦩꦼ", "2118": "ꦭ꧀ꦧꦸꦂ", "2119": "ꦭ꧀ꦪꦸ", "2120": "ꦮ꧀ꦫꦺꦴ", "2121": "ꦱꦁꦃ", "2122": "ꦱ꧀ꦗ꦳꧀ꦏ꧀", "2123": "ꦱ꧀ꦢꦺ", "2124": "ꦱ꧀ꦤꦺꦴꦂ", "2125": "ꦱ꧀ꦫꦼꦁ", "2126": "‌", "2127": "ꦏ꧀ꦏꦼꦂ", "2128": "ꦏ꧀ꦫꦺꦴꦁ", "2129": "ꦏ꧀ꦯꦺꦴ", "2130": "ꦏ꧀ꦱ꧀ꦫ꧀", "2131": "ꦏ꧀ꦱ꧀ꦱ꧀", "2132": "ꦒꦺꦴꦃ", "2133": "ꦒ꧀ꦫ꧀ꦏ꧀", "2134": "ꦒ꧀ꦮꦁ", "2135": "ꦒ꧀ꦱ", "2136": "ꦒ꧀ꦱ꧀ꦧꦼꦂ", "2137": "ꦔ꧀ꦒꦺ", "2138": "ꦔ꧀ꦒ꧀ꦫꦺꦴ", "2139": "ꦕꦶꦃ", "2140": "ꦕ꧀ꦤ", "2141": "ꦕ꧀ꦥ꦳꧀ꦕ꧀", "2142": "ꦕ꧀ꦧꦼ", "2143": "ꦕ꧀ꦧ꧀", "2144": "ꦗ꦳꧀ꦤ", "2145": "ꦗ꦳꧀ꦪ꧀ꦒꦺꦴ", "2146": "ꦠ꧀ꦠ꧀ꦒꦂ", "2147": "ꦠ꧀ꦱ꧀ꦥꦸꦂ", "2148": "ꦠ꧀ꦱ꧀ꦮ", "2149": "ꦢ꧀ꦏ", "2150": "ꦢ꧀ꦗꦼ", "2151": "ꦢ꧀ꦥ꦳ꦺꦴ", "2152": "ꦢ꧀ꦪ꧀ꦭ", "2153": "ꦤ꧀ꦔ", "2154": "ꦤ꧀ꦕ꧀ꦫꦼ", "2155": "ꦤ꧀ꦗ꧀", "2156": "ꦤ꧀ꦠ꧀ꦥ꦳꧀", "2157": "ꦤ꧀ꦥ꦳꧀", "2158": "ꦤ꧀ꦲꦶꦂ", "2159": "ꦥꦹ", "2160": "ꦥ꧀ꦗ꦳ꦶ", "2161": "ꦥ꧀ꦤ꧀", "2162": "ꦥ꧀ꦧꦸ", "2163": "ꦥ꧀ꦪ꧀ꦫꦶ", "2164": "ꦥ꧀ꦱꦷ", "2165": "ꦩ꧀ꦕ꧀ꦒ꧀", "2166": "ꦩ꧀ꦤꦺꦴ", "2167": "ꦩ꧀ꦧꦴ", "2168": "ꦩ꧀ꦭꦸꦁ", "2169": "ꦪ꧀ꦢꦼ", "2170": "ꦪ꧀ꦤꦺꦴ", "2171": "ꦫ꧀ꦩ꧀", "2172": "ꦭ꧀ꦠ꧀ꦢ꧀", "2173": "ꦭ꧀ꦤꦸ", "2174": "ꦭ꧀ꦥ꦳ꦸꦂ", "2175": "ꦭ꧀ꦩꦼꦂ", "2176": "ꦭ꧀ꦱ꧀ꦠꦺꦴ", "2177": "ꦮ꧀ꦲ", "2178": "ꦱ꧀ꦏ꧀ꦭꦼ", "2179": "ꦱ꧀ꦗ", "2180": "ꦱ꧀ꦥ꧀ꦫꦼ", "2181": "ꦱ꧀ꦥ꧀ꦭꦶ", "2182": "ꦱ꧀ꦧ꧀", "2183": "ꦲ꧀ꦮꦁ", "2184": "ꦏ꧀ꦥ꧀", "2185": "ꦏ꧀ꦩꦃ", "2186": "ꦏ꧀ꦱ꧀ꦗ꧀", "2187": "ꦐ꧀ꦫꦶ", "2188": "ꦒ꧀ꦒ꧀ꦭꦸ", "2189": "ꦔ꧀ꦲ", "2190": "ꦕ꧀ꦠ꧀ꦪ꧀", "2191": "ꦕ꧀ꦫꦺ", "2192": "ꦗ꦳꧀ꦧꦺ", "2193": "ꦗ꦳꧀ꦧꦼ", "2194": "ꦗ꦳꧀ꦩꦶ", "2195": "ꦗ꦳꧀ꦮꦶꦁ", "2196": "ꦗ꧀ꦩ", "2197": "ꦠ꧀ꦧꦼ", "2198": "ꦠ꧀ꦩꦷ", "2199": "ꦢ꧀ꦥ꦳꧀", "2200": "ꦤ꧀ꦏ꧀ꦱꦶ", "2201": "ꦤ꧀ꦕꦸꦁ", "2202": "ꦤ꧀ꦛꦃ", "2203": "ꦤ꧀ꦝꦶꦃ", "2204": "ꦤ꧀ꦢ꧀ꦫ꧀", "2205": "ꦤ꧀ꦯ", "2206": "ꦥ꦳꧀ꦪ", "2207": "ꦥ꦳꧀ꦫ꧀ꦏ꧀", "2208": "ꦥ꧀ꦏ꧀", "2209": "ꦥ꧀ꦪ꧀ꦠꦺꦴ", "2210": "ꦧ꧀ꦤꦼꦂ", "2211": "ꦧ꧀ꦪ꧀ꦗ꦳", "2212": "ꦩ꧀ꦤꦸ", "2213": "ꦩ꧀ꦥ꦳꧀", "2214": "ꦩ꧀ꦥ꧀ꦧꦼ", "2215": "ꦩ꧀ꦧ꧀ꦭꦸ", "2216": "ꦪ꧀ꦒꦼ", "2217": "ꦭ꧀ꦤꦺꦴ", "2218": "ꦭ꧀ꦧꦂ", "2219": "ꦭ꧀ꦱ꧀ꦩ꧀", "2220": "ꦯ꧀ꦕ", "2221": "ꦯ꧀ꦫꦼ", "2222": "ꦱ꧀ꦒ", "2223": "ꦱ꧀ꦕ꧀ꦩꦶ", "2224": "ꦱ꧀ꦕ꧀ꦮꦶ", "2225": "ꦲ꧀ꦕ꧀ꦭ꧀", "2226": "ꦏ꧀ꦫꦁ", "2227": "ꦐ꧀ꦮ", "2228": "ꦐ꧀ꦲ꧀", "2229": "ꦒ꧀ꦢꦼ", "2230": "ꦒ꧀ꦧ꧀", "2231": "ꦒ꧀ꦮꦂ", "2232": "ꦔ꧀ꦭꦸꦁ", "2233": "ꦕꦺꦁ", "2234": "ꦗ꦳꧀ꦲꦺꦴꦁ", "2235": "ꦚ꧀ꦭꦼ", "2236": "ꦛꦂ", "2237": "ꦛ꧀ꦒ", "2238": "ꦠꦴꦂ", "2239": "ꦢ꧀ꦕ", "2240": "ꦢ꧀ꦢꦸ", "2241": "ꦤ꧀ꦗꦺꦴꦂ", "2242": "ꦤ꧀ꦢ꧀ꦗꦶ", "2243": "ꦤ꧀ꦱ꧀ꦠꦺꦴ", "2244": "ꦥ꦳꧀ꦥ꦳꧀ꦫꦺꦴ", "2245": "ꦥ꧀ꦕ꧀ꦕ꧀", "2246": "ꦥ꧀ꦤ", "2247": "ꦥ꧀ꦤꦶ", "2248": "ꦥ꧀ꦥ꧀ꦫꦼ", "2249": "ꦥ꧀ꦪꦺꦴ", "2250": "ꦩ꧀ꦠ꧀", "2251": "ꦩ꧀ꦢ꧀ꦥ꧀", "2252": "ꦩ꧀ꦫꦁ", "2253": "ꦪ꧀ꦠꦺꦴ", "2254": "ꦪ꧀ꦢ꧀", "2255": "ꦪ꧀ꦭꦺꦴ", "2256": "ꦭ꧀ꦚ", "2257": "ꦭ꧀ꦠ꧀ꦱ꧀", "2258": "ꦭ꧀ꦢ꧀ꦮꦶ", "2259": "ꦭ꧀ꦩ꧀ꦪ꧀", "2260": "ꦭ꧀ꦭ꧀ꦭ꧀", "2261": "ꦮ꧀ꦏꦼ", "2262": "ꦮ꧀ꦫꦁ", "2263": "ꦯꦼꦃ", "2264": "ꦯ꧀ꦏ", "2265": "ꦯ꧀ꦥ꦳ꦶ", "2266": "ꦯ꧀ꦫ", "2267": "ꦯ꧀ꦱ꧀", "2268": "ꦱ꧀ꦗꦸ", "2269": "ꦱ꧀ꦠ꧀ꦩ꧀", "2270": "ꦱ꧀ꦥ꧀ꦫ", "2271": "ꦱ꧀ꦧꦼ", "2272": "ꦲ꧀ꦢ꧀", "2273": "꧅", "2274": "ꦏꦺꦁ", "2275": "ꦏ꧀ꦪ꧀ꦭꦼ", "2276": "ꦒ꦳꧀ꦢ", "2277": "ꦒ꧀ꦤꦼꦂ", "2278": "ꦒ꧀ꦪꦴ", "2279": "ꦔꦺꦂ", "2280": "ꦕ꧀ꦏ꧀ꦧꦸꦂ", "2281": "ꦕ꧀ꦭꦼꦂ", "2282": "ꦗ꦳꧀ꦲꦶ", "2283": "ꦗ꦳꧀ꦲ꧀", "2284": "ꦗ꧀ꦭꦶ", "2285": "ꦗ꧀ꦱ꧀", "2286": "ꦚ꧀ꦮ", "2287": "ꦛ꧀ꦤꦶ", "2288": "ꦠ꧀ꦏ꧀ꦫ꧀", "2289": "ꦠ꧀ꦤꦃ", "2290": "ꦠ꧀ꦥ꦳", "2291": "ꦠ꧀ꦩ꧀", "2292": "ꦠ꧀ꦫ꧀ꦏ꧀", "2293": "ꦠ꧀ꦭ꧀", "2294": "ꦢ꦳꧀ꦲ", "2295": "ꦢꦹ", "2296": "ꦢ꧀ꦚ", "2297": "ꦢ꧀ꦢꦂ", "2298": "ꦢ꧀ꦪ꧀ꦱ꧀", "2299": "ꦤ꧀ꦕ꧀ꦭꦺꦴ", "2300": "ꦤ꧀ꦠ꧀ꦗ꦳꧀", "2301": "ꦤ꧀ꦠ꧀ꦭꦶ", "2302": "ꦤ꧀ꦠ꧀ꦭꦼ", "2303": "ꦤ꧀ꦢꦶꦃ", "2304": "ꦤ꧀ꦧ꧀ꦕ꧀", "2305": "ꦥ꧀ꦭ꧀", "2306": "ꦥ꧀ꦯ꧀", "2307": "ꦧ꧀ꦥ꦳꧀", "2308": "ꦧ꧀ꦩ꧀", "2309": "ꦧ꧀ꦭꦼꦁ", "2310": "ꦧ꧀ꦮ", "2311": "ꦩ꧀ꦠꦶ", "2312": "ꦩ꧀ꦥ꧀ꦭꦺꦴꦁ", "2313": "ꦫ꧀ꦪ꧀", "2314": "ꦫ꧀ꦲ", "2315": "ꦭ꧀ꦥ꦳꧀ꦱ꧀", "2316": "ꦮ꧀ꦢꦺꦴ", "2317": "ꦮ꧀ꦱꦺꦴ", "2318": "ꦯ꧀ꦤ꧀ꦢ꧀", "2319": "ꦱ꧀ꦔ꧀", "2320": "ꦱ꧀ꦕ꧀ꦮꦂ", "2321": "ꦱ꧀ꦗ꦳", "2322": "ꦱ꧀ꦗ꦳꧀ꦪ꧀", "2323": "ꦱ꧀ꦗꦼ", "2324": "ꦱ꧀ꦠ꧀ꦩꦶ", "2325": "ꦱ꧀ꦠ꧀ꦫꦺ", "2326": "ꦱ꧀ꦠ꧀ꦫꦻ", "2327": "ꦱ꧀ꦭ꧀ꦪ꧀", "2328": "ꦱ꧀ꦱ꧀ꦕ꧀", "2329": "ꦲ꧀ꦏ꧀ꦠ꧀", "2330": "ꦲ꧀ꦱꦸ", "2331": "ꦏ꦳꧀ꦱ꧀ꦠ", "2332": "ꦏ꧀ꦔꦶ", "2333": "ꦏ꧀ꦢꦺꦴ", "2334": "ꦏ꧀ꦥ꧀ꦏ꧀", "2335": "ꦏ꧀ꦪꦸꦁ", "2336": "ꦏ꧀ꦱ꧀ꦭꦸ", "2337": "ꦒ꧀ꦠ꧀", "2338": "ꦔ꧀ꦭꦶꦁ", "2339": "ꦕꦹ", "2340": "ꦕ꧀ꦕꦼꦂ", "2341": "ꦗ꧀ꦤ", "2342": "ꦗ꧀ꦱ꧀ꦱꦼ", "2343": "ꦠ꧀ꦕꦸ", "2344": "ꦠ꧀ꦱꦸꦃ", "2345": "ꦠ꧀ꦱ꧀ꦕ", "2346": "ꦢ꧀ꦒꦼꦂ", "2347": "ꦢ꧀ꦗꦺꦴꦂ", "2348": "ꦢ꧀ꦮꦼ", "2349": "ꦤ꧀ꦝꦴ", "2350": "ꦤ꧀ꦝꦶꦂ", "2351": "ꦤ꧀ꦥ꦳ꦺꦂ", "2352": "ꦤ꧀ꦯꦺꦴ", "2353": "ꦤ꧀ꦱ꧀ꦕꦼ", "2354": "ꦤ꧀ꦱ꧀ꦥ꦳ꦸ", "2355": "ꦥ꦳꧀ꦠꦼ", "2356": "ꦥ꦳꧀ꦠꦼꦂ", "2357": "ꦥ꦳꧀ꦪꦼ", "2358": "ꦥꦺꦴꦃ", "2359": "ꦥ꧀ꦏ꧀ꦧ꧀", "2360": "ꦥ꧀ꦥ꧀ꦏꦶ", "2361": "ꦥ꧀ꦩ", "2362": "ꦥ꧀ꦩꦶ", "2363": "ꦧ꧀ꦗ꧀", "2364": "ꦧ꧀ꦠꦺꦴ", "2365": "ꦧ꧀ꦫꦂ", "2366": "ꦧ꧀ꦭꦻꦂ", "2367": "ꦩ꧀ꦧ꧀ꦪꦸꦂ", "2368": "ꦪ꧀ꦠꦶ", "2369": "ꦪ꧀ꦮ", "2370": "ꦫꦸꦂ", "2371": "ꦫ꧀ꦫ꧀ꦕ꧀", "2372": "ꦭ꧀ꦕꦸ", "2373": "ꦭ꧀ꦗ꦳꧀", "2374": "ꦭ꧀ꦪꦼ", "2375": "ꦭ꧀ꦪ꧀ꦕꦺꦴ", "2376": "ꦯ꧀ꦩꦶ", "2377": "ꦰ", "2378": "ꦱ꧀ꦒ꧀", "2379": "ꦱ꧀ꦗꦃ", "2380": "ꦱ꧀ꦭ꧀ꦠ꧀", "2381": "ꦲ꧀ꦪ", "2382": "ꦉ", "2383": "ꦏ꧀ꦠꦻ", "2384": "ꦏ꧀ꦠ꧀ꦠ꧀", "2385": "ꦏ꧀ꦤ꧀ꦏ꧀", "2386": "ꦏ꧀ꦭꦂ", "2387": "ꦏ꧀ꦮꦁ", "2388": "ꦏ꧀ꦮꦸ", "2389": "ꦐꦼ", "2390": "ꦒ꦳꧀ꦠꦶ", "2391": "ꦒ꧀ꦒꦂ", "2392": "ꦒ꧀ꦮ꧀ꦏ꧀", "2393": "ꦕ꧀ꦏ꦳ꦺꦴ", "2394": "ꦕ꧀ꦪ꧀ꦫꦶ", "2395": "ꦕ꧀ꦭ꧀ꦪ꧀", "2396": "ꦗ꦳꧀ꦢ꧀ꦫ꧀", "2397": "ꦚ꧀ꦭꦶ", "2398": "ꦠ꧀ꦒꦼ", "2399": "ꦠ꧀ꦗ꦳", "2400": "ꦠ꧀ꦱꦁ", "2401": "ꦠ꧀ꦱ꧀ꦤ", "2402": "ꦢ꧀ꦏ꧀ꦏ꧀", "2403": "ꦢ꧀ꦥ꧀ꦥ꧀", "2404": "ꦢ꧀ꦩꦸ", "2405": "ꦤ꧀ꦏꦁ", "2406": "ꦤ꧀ꦗ꧀ꦭꦺꦴ", "2407": "ꦤ꧀ꦝꦺꦴꦃ", "2408": "ꦤ꧀ꦠ꧀ꦥꦼ", "2409": "ꦤ꧀ꦢ꧀ꦩꦂ", "2410": "ꦤ꧀ꦢ꧀ꦭꦼ", "2411": "ꦤ꧀ꦥ꦳꧀ꦫꦼ", "2412": "ꦤ꧀ꦥꦸꦂ", "2413": "ꦤ꧀ꦱ꧀ꦕ", "2414": "ꦥ꧀ꦥ꦳", "2415": "ꦥ꧀ꦪ꧀ꦕꦼ", "2416": "ꦥ꧀ꦪ꧀ꦭꦺꦴ", "2417": "ꦧꦻꦂ", "2418": "ꦧ꧀ꦩꦶ", "2419": "ꦧ꧀ꦫꦻ", "2420": "ꦧ꧀ꦫ꧀ꦪ", "2421": "ꦩ꧀ꦏꦺꦴ", "2422": "ꦩ꧀ꦫ꧀ꦤ", "2423": "ꦪ꧀ꦏ꧀ꦗ", "2424": "ꦪ꧀ꦥ꦳ꦼ", "2425": "ꦭ꧀ꦪ꧀ꦤꦼ", "2426": "ꦭ꧀ꦫ", "2427": "ꦭ꧀ꦱꦶꦁ", "2428": "ꦮ꧀ꦩ", "2429": "ꦮ꧀ꦫ꧀", "2430": "ꦯꦴ", "2431": "ꦯ꧀ꦭꦼ", "2432": "ꦱ꧀ꦕ꧀ꦤꦼ", "2433": "ꦱ꧀ꦕ꧀ꦮꦼ", "2434": "ꦱ꧀ꦠꦴ", "2435": "ꦱ꧀ꦠ꧀ꦭꦶꦁ", "2436": "ꦱ꧀ꦢ꧀ꦩ꧀", "2437": "ꦱ꧀ꦧꦶꦃ", "2438": "ꦲꦺꦁ", "2439": "ꦲ꧀ꦏ꧀", "2440": "ꦲ꧀ꦪ꧀ꦥꦼꦂ", "2441": "ꦏ꦳꧀ꦫꦃ", "2442": "ꦏꦷ", "2443": "ꦏ꧀ꦝꦼ", "2444": "ꦏ꧀ꦭ꧀ꦩ꧀", "2445": "ꦏ꧀ꦱ꧀ꦠ", "2446": "ꦒ꦳꧀ꦫꦶ", "2447": "ꦒ꧀ꦚ꧀", "2448": "ꦒ꧀ꦢ꧀ꦥ꧀", "2449": "ꦒ꧀ꦥ꧀ꦱ꧀", "2450": "ꦒ꧀ꦪꦺꦴ", "2451": "ꦒ꧀ꦭ꧀", "2452": "ꦒ꧀ꦱ꧀ꦩ꧀", "2453": "ꦕ꧀ꦏ꧀ꦭꦶ", "2454": "ꦗ꦳꧀ꦗ꦳ꦸ", "2455": "ꦗ꦳꧀ꦤꦶ", "2456": "ꦗ꦳꧀ꦤꦼ", "2457": "ꦗ꦳꧀ꦭ", "2458": "ꦚ꧀ꦫ", "2459": "ꦛꦶꦂ", "2460": "ꦛ꧀ꦤꦺꦴ", "2461": "ꦝꦻ", "2462": "ꦠꦻꦂ", "2463": "ꦢ꧀ꦝꦂ", "2464": "ꦢ꧀ꦢꦃ", "2465": "ꦢ꧀ꦢꦺꦴ", "2466": "ꦢ꧀ꦢꦻ", "2467": "ꦤ꧀ꦏ꧀ꦱꦻ", "2468": "ꦤ꧀ꦔꦼ", "2469": "ꦤ꧀ꦢ꧀ꦭ", "2470": "ꦤ꧀ꦤꦻꦂ", "2471": "ꦤ꧀ꦥ꦳ꦂ", "2472": "ꦤ꧀ꦥ꦳꧀ꦭꦺꦴ", "2473": "ꦤ꧀ꦧꦁ", "2474": "ꦤ꧀ꦭꦻ", "2475": "ꦤ꧀ꦱ꧀ꦥ꦳ꦶ", "2476": "ꦥ꦳꧀ꦏꦶ", "2477": "ꦥ꦳꧀ꦒ꧀", "2478": "ꦥ꦳꧀ꦛ", "2479": "ꦥ꦳꧀ꦥ꦳꧀ꦠ꧀", "2480": "ꦥ꦳꧀ꦫ꧀ꦤ", "2481": "ꦥ꦳꧀ꦭ꧀ꦪꦼꦂ", "2482": "ꦥ꧀ꦠ꧀ꦪ꧀", "2483": "ꦥ꧀ꦠ꧀ꦱ꧀", "2484": "ꦥ꧀ꦪ꧀ꦒ꧀", "2485": "ꦥ꧀ꦪ꧀ꦕ", "2486": "ꦥ꧀ꦫ꧀ꦏ꧀", "2487": "ꦥ꧀ꦮ꧀", "2488": "ꦧ꧀ꦥ꧀ꦏ꧀", "2489": "ꦧ꧀ꦪ꧀ꦫ꧀", "2490": "ꦧ꧀ꦫ꧀", "2491": "ꦧ꧀ꦫ꧀ꦪ꧀", "2492": "ꦧ꧀ꦱꦸꦂ", "2493": "ꦧ꧀ꦱ꧀ꦢ꧀", "2494": "ꦩ꧀ꦕ꧀ꦏꦶ", "2495": "ꦩ꧀ꦪ꧀ꦫ꧀", "2496": "ꦩ꧀ꦱ꧀ꦠ꧀", "2497": "ꦪꦼꦃ", "2498": "ꦪ꧀ꦩꦂ", "2499": "ꦪ꧀ꦫꦶ", "2500": "ꦭ꧀ꦏ꧀ꦭꦺꦴꦂ", "2501": "ꦭ꧀ꦔ꧀", "2502": "ꦭ꧀ꦩ꧀ꦥ꦳", "2503": "ꦭ꧀ꦭ꧀ꦏ꧀", "2504": "ꦭ꧀ꦭ꧀ꦩ", "2505": "ꦭ꧀ꦯꦼ", "2506": "ꦯ꧀ꦏꦶ", "2507": "ꦯ꧀ꦩ꧀ꦥ꧀", "2508": "ꦱꦶꦁꦃ", "2509": "ꦱ꧀ꦏ꧀ꦏ꧀", "2510": "ꦱ꧀ꦏ꧀ꦠꦺꦴ", "2511": "ꦱ꧀ꦕ꧀ꦪ꧀", "2512": "ꦱ꧀ꦕ꧀ꦫ", "2513": "ꦱ꧀ꦠ꧀ꦩꦼ", "2514": "ꦱ꧀ꦤ꧀ꦱ꧀", "2515": "ꦱ꧀ꦫꦺ", "2516": "ꦱ꧀ꦱꦺ", "2517": "ꦱ꧀ꦱꦻ", "2518": "ꦱ꧀ꦱ꧀ꦕꦼꦂ", "2519": "ꦱ꧀ꦱ꧀ꦭꦼꦂ", "2520": "ꦲ꧀ꦪ꧀ꦧ꧀", "2521": "ꦏ꧀ꦠ꧀", "2522": "ꦏ꧀ꦥ꦳", "2523": "ꦏ꧀ꦥ꦳ꦶ", "2524": "ꦏ꧀ꦱꦂ", "2525": "ꦒ꧀ꦢꦺꦴ", "2526": "ꦒ꧀ꦧꦺꦴ", "2527": "ꦒ꧀ꦫ꧀ꦪ꧀", "2528": "ꦒ꧀ꦱ꧀ꦧꦸꦂ", "2529": "ꦕ꧀ꦩꦺꦴ", "2530": "ꦗ꦳꧀ꦠꦼ", "2531": "ꦗ꦳꧀ꦫ", "2532": "ꦗ꧀ꦠꦶ", "2533": "ꦗ꧀ꦤꦶꦁ", "2534": "ꦠ꧀ꦕ꧀ꦧ", "2535": "ꦠ꧀ꦪ꧀ꦤꦼ", "2536": "ꦠ꧀ꦱ꧀ꦠ꧀", "2537": "ꦢꦾ", "2538": "ꦢ꧀ꦢ꧀ꦫꦼ", "2539": "ꦢ꧀ꦥ꦳ꦺꦴꦂ", "2540": "ꦢ꧀ꦪꦺꦴ", "2541": "ꦢ꧀ꦭꦺꦴ", "2542": "ꦢ꧀ꦯꦶ", "2543": "ꦤꦺꦴꦃ", "2544": "ꦤ꧀ꦕꦺꦁ", "2545": "ꦤ꧀ꦕ꧀ꦭ", "2546": "ꦤ꧀ꦝ꧀ꦫ", "2547": "ꦤ꧀ꦥ꧀ꦫꦶ", "2548": "ꦤ꧀ꦫꦼꦁ", "2549": "ꦤ꧀ꦯꦸ", "2550": "ꦤ꧀ꦯꦸꦂ", "2551": "ꦥ꦳꧀ꦧ꧀", "2552": "ꦥꦻꦁ", "2553": "ꦥ꧀ꦫ꧀ꦥ꧀", "2554": "ꦥ꧀ꦭ꧀ꦪ꧀", "2555": "ꦧ꧀ꦏꦸ", "2556": "ꦧ꧀ꦏꦺ", "2557": "ꦧ꧀ꦏ꧀ꦫ꧀", "2558": "ꦧ꧀ꦒꦼ", "2559": "ꦩ꧀ꦕ꧀ꦕꦂ", "2560": "ꦩ꧀ꦗꦶ", "2561": "ꦩ꧀ꦤ꧀ꦕ꧀", "2562": "ꦩ꧀ꦥ꧀ꦪ", "2563": "ꦩ꧀ꦧ꧀ꦕ꧀", "2564": "ꦩ꧀ꦭꦼꦂ", "2565": "ꦪ꧀ꦕ꧀ꦏ꧀", "2566": "ꦪ꧀ꦤꦼꦂ", "2567": "ꦪ꧀ꦱꦼ", "2568": "ꦭ꧀ꦏ꧀ꦭꦺꦴ", "2569": "ꦭ꧀ꦠ꧀ꦪ꧀", "2570": "ꦭ꧀ꦢ꧀ꦫꦼ", "2571": "ꦭ꧀ꦲꦸ", "2572": "ꦮ꧀ꦤ꧀ꦱꦼ", "2573": "ꦮ꧀ꦥ꦳ꦶ", "2574": "ꦯ꧀ꦧ", "2575": "ꦱ꧀ꦐ꧀", "2576": "ꦱ꧀ꦒꦼ", "2577": "ꦱ꧀ꦠ꧀ꦥ꧀", "2578": "ꦱ꧀ꦥꦸꦂ", "2579": "ꦱ꧀ꦥ꧀ꦒ꧀", "2580": "ꦱ꧀ꦭ꧀ꦫ꧀", "2581": "ꦏ꧀ꦏꦻ", "2582": "ꦏ꧀ꦠ꧀ꦫ", "2583": "ꦏ꧀ꦥꦺ", "2584": "ꦏ꧀ꦥ꧀ꦠ꧀", "2585": "ꦏ꧀ꦧ꧀ꦱ꧀", "2586": "ꦏ꧀ꦫꦃ", "2587": "ꦏ꧀ꦭꦼꦂ", "2588": "ꦏ꧀ꦱꦶꦂ", "2589": "ꦏ꧀ꦱ꧀ꦏ", "2590": "ꦐ꧀ꦮꦼꦂ", "2591": "ꦒ꦳꧀ꦠꦺꦴ", "2592": "ꦒ꧀ꦒꦶꦃ", "2593": "ꦒ꧀ꦒꦸ", "2594": "ꦒ꧀ꦒ꧀ꦱ꧀", "2595": "ꦒ꧀ꦠꦶ", "2596": "ꦒ꧀ꦢ꧀", "2597": "ꦒ꧀ꦤ꧀ꦠꦶ", "2598": "ꦒ꧀ꦧ꧀ꦪ꧀", "2599": "ꦒ꧀ꦩꦻ", "2600": "ꦒ꧀ꦩ꧀ꦠ꧀", "2601": "ꦒ꧀ꦭꦺ", "2602": "ꦒ꧀ꦮꦼ", "2603": "ꦔ꧀ꦒ꧀ꦫꦼ", "2604": "ꦕꦺꦴꦃ", "2605": "ꦕ꧀ꦏ꦳ꦂ", "2606": "ꦕ꧀ꦏ꧀ꦮ", "2607": "ꦕ꧀ꦕ꧀ꦭꦼ", "2608": "ꦕ꧀ꦗ꦳꧀ꦪ꧀", "2609": "ꦕ꧀ꦤꦼ", "2610": "ꦕ꧀ꦪꦺꦴ", "2611": "ꦕ꧀ꦪ꧀ꦒ꧀", "2612": "ꦕ꧀ꦭꦺ", "2613": "ꦗ꦳ꦸꦂ", "2614": "ꦗ꦳꧀ꦕ", "2615": "ꦗ꦳꧀ꦪ꧀ꦠ꧀", "2616": "ꦗ꧀ꦤꦸ", "2617": "ꦛ꧀ꦮꦼ", "2618": "ꦝꦺꦁ", "2619": "ꦠ꧀ꦏꦸ", "2620": "ꦠ꧀ꦠ꧀ꦫ", "2621": "ꦠ꧀ꦠ꧀ꦫꦼ", "2622": "ꦠ꧀ꦧ꧀ꦕ꧀", "2623": "ꦠ꧀ꦮꦁ", "2624": "ꦢ꧀ꦢꦼꦂ", "2625": "ꦢ꧀ꦤꦺꦴꦂ", "2626": "ꦢ꧀ꦥ", "2627": "ꦢ꧀ꦱꦶ", "2628": "ꦢ꧀ꦱ꧀ꦭ꧀", "2629": "ꦤꦻꦂ", "2630": "ꦤ꧀ꦕ꧀ꦠꦶ", "2631": "ꦤ꧀ꦠ꧀ꦭꦼꦂ", "2632": "ꦤ꧀ꦢ꧀ꦱꦼ", "2633": "ꦤ꧀ꦥ꦳꧀ꦫꦺꦴ", "2634": "ꦤ꧀ꦩ꧀ꦧ꧀", "2635": "ꦤ꧀ꦩ꧀ꦪꦺꦴ", "2636": "ꦤ꧀ꦮꦁ", "2637": "ꦥ꦳꧀ꦠꦶ", "2638": "ꦥ꦳꧀ꦢꦼ", "2639": "ꦥ꦳꧀ꦤꦶ", "2640": "ꦥ꦳꧀ꦥ꦳꧀ꦧ꧀", "2641": "ꦥ꧀ꦒ꧀ꦫꦶ", "2642": "ꦥ꧀ꦕ꧀ꦫ꧀", "2643": "ꦥ꧀ꦥ꧀ꦩ", "2644": "ꦥ꧀ꦥ꧀ꦭꦶ", "2645": "ꦥ꧀ꦧ꧀ꦤ꧀", "2646": "ꦥ꧀ꦱ꧀ꦩ꧀", "2647": "ꦧ꧀ꦏ꧀ꦭ", "2648": "ꦧ꧀ꦒ", "2649": "ꦧ꧀ꦕ", "2650": "ꦧ꧀ꦤ", "2651": "ꦧ꧀ꦩ", "2652": "ꦧ꧀ꦱꦺ", "2653": "ꦧ꧀ꦱꦺꦴꦂ", "2654": "ꦩ꧀ꦏꦸ", "2655": "ꦩ꧀ꦏ꧀ꦱꦼ", "2656": "ꦩ꧀ꦢꦺꦴ", "2657": "ꦩ꧀ꦥ꧀ꦫꦸ", "2658": "ꦩ꧀ꦥ꧀ꦭꦶꦁ", "2659": "ꦩ꧀ꦥ꧀ꦯꦶ", "2660": "ꦩ꧀ꦧ꧀ꦏꦶ", "2661": "ꦩ꧀ꦩꦶꦁ", "2662": "ꦩ꧀ꦮ꧀", "2663": "ꦩ꧀ꦲ꧀ꦗ꦳꧀", "2664": "ꦪ꧀ꦤ", "2665": "ꦪ꧀ꦥ꦳꧀ꦥ꦳꧀", "2666": "ꦪ꧀ꦱꦼꦂ", "2667": "ꦫ꧀ꦲ꧀ꦪ꧀", "2668": "ꦭ꧀ꦥ꧀ꦫꦼ", "2669": "ꦭ꧀ꦧꦺꦴꦂ", "2670": "ꦭ꧀ꦪ꧀ꦕ", "2671": "ꦭ꧀ꦫ꧀", "2672": "ꦭ꧀ꦱꦂ", "2673": "ꦭ꧀ꦱ꧀ꦠꦼ", "2674": "ꦮ꧀ꦏ꧀", "2675": "ꦮ꧀ꦗꦶ", "2676": "ꦮ꧀ꦱ꧀ꦠꦺꦴ", "2677": "ꦯ꧀ꦠ꧀ꦫ", "2678": "ꦯ꧀ꦫꦺꦴ", "2679": "ꦱ꧀ꦠ꧀ꦱꦶ", "2680": "ꦱ꧀ꦢ꧀ꦤ꧀", "2681": "ꦱ꧀ꦭꦃ", "2682": "ꦲ꧀ꦧꦺꦴ", "2683": "ꦲ꧀ꦪ꧀ꦢꦼ", "2684": "ꦏꦻꦁ", "2685": "ꦏ꧀ꦏꦁ", "2686": "ꦏ꧀ꦒꦼ", "2687": "ꦏ꧀ꦗ꦳ꦶ", "2688": "ꦏ꧀ꦝꦺ", "2689": "ꦏ꧀ꦢꦺ", "2690": "ꦏ꧀ꦪꦸꦃ", "2691": "ꦏ꧀ꦫ꧀ꦪ꧀", "2692": "ꦏ꧀ꦯ", "2693": "ꦏ꧀ꦯꦼ", "2694": "ꦏ꧀ꦱ꧀ꦠꦺ", "2695": "ꦐꦴ", "2696": "ꦒ꧀ꦏꦺ", "2697": "ꦒ꧀ꦫꦁ", "2698": "ꦒ꧀ꦭ꧀ꦪ꧀", "2699": "ꦔꦶꦃ", "2700": "ꦔ꧀ꦲꦶ", "2701": "ꦔ꧀ꦲꦸ", "2702": "ꦕ꧀ꦏ꧀ꦢꦺꦴ", "2703": "ꦕ꧀ꦏ꧀ꦫ꧀", "2704": "ꦕ꧀ꦠ꧀ꦧꦺꦴ", "2705": "ꦕ꧀ꦤꦼꦂ", "2706": "ꦕ꧀ꦪ꧀ꦠꦺꦴ", "2707": "ꦕ꧀ꦪ꧀ꦠꦼ", "2708": "ꦕ꧀ꦮꦶ", "2709": "ꦗ꦳ꦺꦴꦃ", "2710": "ꦗ꦳꧀ꦏ", "2711": "ꦗ꦳꧀ꦏꦶ", "2712": "ꦗ꦳꧀ꦗ꦳ꦼ", "2713": "ꦗ꦳꧀ꦗ꦳꧀ꦭꦼ", "2714": "ꦗ꦳꧀ꦮꦶ", "2715": "ꦛ꧀ꦪ꧀ꦭ", "2716": "ꦛ꧀ꦱ꧀", "2717": "ꦝꦴ", "2718": "ꦠ꧀ꦕꦼꦂ", "2719": "ꦠ꧀ꦠ꧀ꦭꦼꦂ", "2720": "ꦠ꧀ꦢꦺꦴ", "2721": "ꦠ꧀ꦥ꦳ꦺꦴ", "2722": "ꦠ꧀ꦪ꧀ꦱꦺꦴ", "2723": "ꦢ꧀ꦤꦼꦂ", "2724": "ꦤ꧀ꦏ꦳", "2725": "ꦤ꧀ꦏꦶꦂ", "2726": "ꦤ꧀ꦏ꧀ꦭꦸ", "2727": "ꦤ꧀ꦏ꧀ꦱ", "2728": "ꦤ꧀ꦔꦺꦴ", "2729": "ꦤ꧀ꦗ꦳꧀ꦪ꧀", "2730": "ꦤ꧀ꦛ꧀ꦫ", "2731": "ꦤ꧀ꦠ꧀ꦗ", "2732": "ꦤ꧀ꦠ꧀ꦩꦼ", "2733": "ꦤ꧀ꦧꦸꦁ", "2734": "ꦤ꧀ꦩꦻ", "2735": "ꦤ꧀ꦫ꧀ꦗ꧀", "2736": "ꦤ꧀ꦭ꧀ꦪ꧀", "2737": "ꦤ꧀ꦮꦺꦴꦁ", "2738": "ꦥ꦳꧀ꦥ꦳ꦻꦂ", "2739": "ꦥ꧀ꦒ꧀ꦤ꧀", "2740": "ꦥ꧀ꦕ", "2741": "ꦥ꧀ꦪꦸ", "2742": "ꦥ꧀ꦪ꧀ꦕ꧀", "2743": "ꦥ꧀ꦭ꧀ꦠ", "2744": "ꦧ꧀ꦠ", "2745": "ꦧ꧀ꦩ꧀ꦱ꧀", "2746": "ꦧ꧀ꦪ꧀ꦠꦼ", "2747": "ꦧ꧀ꦪ꧀ꦭ꧀", "2748": "ꦧ꧀ꦮ꧀ꦥ꦳꧀", "2749": "ꦧ꧀ꦱ꧀ꦏ꧀", "2750": "ꦩ꧀ꦠ꧀ꦧ꧀", "2751": "ꦩ꧀ꦤꦺ", "2752": "ꦩ꧀ꦥ꧀ꦪꦁ", "2753": "ꦩ꧀ꦧ꧀ꦪ", "2754": "ꦩ꧀ꦧ꧀ꦭꦺꦴꦃ", "2755": "ꦩ꧀ꦪ꧀ꦫꦶ", "2756": "ꦩ꧀ꦫ꧀ꦱ꧀", "2757": "ꦩ꧀ꦱꦸꦁ", "2758": "ꦪ꧀ꦛꦶꦁ", "2759": "ꦪ꧀ꦠꦼ", "2760": "ꦪ꧀ꦠ꧀", "2761": "ꦪ꧀ꦫꦺꦴ", "2762": "ꦫ꧀ꦕ꧀ꦗ꦳꧀", "2763": "ꦭ꧀ꦏ꧀ꦪ꧀", "2764": "ꦭ꧀ꦏ꧀ꦯꦺꦴ", "2765": "ꦭ꧀ꦢ꧀ꦧꦼꦂ", "2766": "ꦭ꧀ꦤꦶ", "2767": "ꦭ꧀ꦥ꧀ꦫ", "2768": "ꦭ꧀ꦪ꧀ꦥ꧀", "2769": "ꦭ꧀ꦪ꧀ꦱꦶ", "2770": "ꦭ꧀ꦱ꧀ꦏ꧀", "2771": "ꦮꦺꦁ", "2772": "ꦮ꧀ꦕ꧀", "2773": "ꦮ꧀ꦠ꧀", "2774": "ꦮ꧀ꦥ꦳ꦺꦴ", "2775": "ꦮ꧀ꦧ", "2776": "ꦯꦸꦂ", "2777": "ꦯ꧀ꦥ꦳ꦺꦴꦂ", "2778": "ꦱ꧀ꦕ꧀ꦮ", "2779": "ꦱ꧀ꦠ꧀ꦠ꧀", "2780": "ꦱ꧀ꦠ꧀ꦤ꧀", "2781": "ꦱ꧀ꦢꦂ", "2782": "ꦱ꧀ꦤꦃ", "2783": "ꦱ꧀ꦥꦺꦂ", "2784": "ꦱ꧀ꦭꦶꦁ", "2785": "ꦱ꧀ꦯ꧀ꦫꦶ", "2786": "ꦲꦴꦂ", "2787": "ꦲ꧀ꦢ꧀ꦭ꧀", "2788": "ꦲ꧀ꦥꦻ", "2789": "ꦏ꦳ꦂ", "2790": "ꦏ꧀ꦠ꧀ꦱ꧀", "2791": "ꦏ꧀ꦥꦸꦁ", "2792": "ꦏ꧀ꦧꦶꦂ", "2793": "ꦏ꧀ꦪ꧀ꦫ꧀", "2794": "ꦏ꧀ꦫꦂ", "2795": "ꦏ꧀ꦫ꧀ꦠ꧀", "2796": "ꦏ꧀ꦮ꧀ꦫꦶ", "2797": "ꦏ꧀ꦱ꧀ꦔ꧀", "2798": "ꦐ꧀ꦪ꧀", "2799": "ꦒ꦳꧀ꦠ꧀ꦩ", "2800": "ꦒ꦳꧀ꦭ", "2801": "ꦒ꧀ꦗꦼ", "2802": "ꦒ꧀ꦩ꧀ꦧ꧀", "2803": "ꦒ꧀ꦫꦴ", "2804": "ꦒ꧀ꦭꦁ", "2805": "ꦔ꧀ꦮꦺ", "2806": "ꦕꦺꦂ", "2807": "ꦕ꧀ꦏ꧀ꦥ꦳ꦺꦴꦂ", "2808": "ꦕ꧀ꦏ꧀ꦩ", "2809": "ꦕ꧀ꦗ꧀", "2810": "ꦕ꧀ꦠꦶꦁ", "2811": "ꦕ꧀ꦤ꧀ꦤ꧀", "2812": "ꦕ꧀ꦥꦸ", "2813": "ꦕ꧀ꦧ꧀ꦤ꧀", "2814": "ꦕ꧀ꦩꦶ", "2815": "ꦕ꧀ꦪ꧀ꦫꦸ", "2816": "ꦕ꧀ꦱ", "2817": "ꦕ꧀ꦱꦶ", "2818": "ꦗ꦳ꦴꦂ", "2819": "ꦗ꦳꧀ꦠꦺ", "2820": "ꦗ꦳꧀ꦮꦂ", "2821": "ꦗꦹ", "2822": "ꦚꦸꦃ", "2823": "ꦝ꧀ꦏ꧀ꦱ꧀", "2824": "ꦠꦶꦁꦃ", "2825": "ꦠ꧀ꦤꦺ", "2826": "ꦠ꧀ꦥ", "2827": "ꦠ꧀ꦥ꦳ꦼ", "2828": "ꦠ꧀ꦩ꧀ꦭ꧀", "2829": "ꦠ꧀ꦪ꧀ꦭꦼ", "2830": "ꦠ꧀ꦯ", "2831": "ꦠ꧀ꦱ꧀ꦏꦶ", "2832": "ꦠ꧀ꦱ꧀ꦩꦺꦴ", "2833": "ꦢ꧀ꦏ꧀", "2834": "ꦢ꧀ꦧ꧀", "2835": "ꦢ꧀ꦫꦁ", "2836": "ꦢ꧀ꦮꦺꦴ", "2837": "ꦢ꧀ꦱ", "2838": "ꦤꦴꦂ", "2839": "ꦤꦻꦁ", "2840": "ꦤ꧀ꦏ꧀ꦫꦺꦴ", "2841": "ꦤ꧀ꦏ꧀ꦭꦼ", "2842": "ꦤ꧀ꦕꦻꦂ", "2843": "ꦤ꧀ꦗꦃ", "2844": "ꦤ꧀ꦗ꦳ꦁ", "2845": "ꦤ꧀ꦗ꦳꧀ꦲꦁ", "2846": "ꦤ꧀ꦝꦻ", "2847": "ꦤ꧀ꦢ꧀ꦪ", "2848": "ꦤ꧀ꦢ꧀ꦫꦶꦁ", "2849": "ꦤ꧀ꦢ꧀ꦱ", "2850": "ꦤ꧀ꦢ꧀ꦱꦺꦴꦂ", "2851": "ꦤ꧀ꦥ꧀ꦫꦼ", "2852": "ꦤ꧀ꦭꦺ", "2853": "ꦤ꧀ꦯꦂ", "2854": "ꦤ꧀ꦱ꧀ꦩꦼ", "2855": "ꦥ꦳꧀ꦠꦺꦴ", "2856": "ꦥ꦳꧀ꦲ꧀ꦩ꧀", "2857": "ꦥ꧀ꦕꦶ", "2858": "ꦥ꧀ꦠ꧀ꦠ꧀", "2859": "ꦥ꧀ꦤꦺ", "2860": "ꦥ꧀ꦥ꧀ꦱ", "2861": "ꦥ꧀ꦪ꧀ꦫꦼ", "2862": "ꦥ꧀ꦫꦻ", "2863": "ꦥ꧀ꦱ꧀ꦱ꧀", "2864": "ꦧ꧀ꦗꦺꦴ", "2865": "ꦧ꧀ꦧꦶꦁ", "2866": "ꦧ꧀ꦪꦸ", "2867": "ꦧ꧀ꦫ꧀ꦗ꦳ꦼ", "2868": "ꦧ꧀ꦱ꧀ꦧ꧀", "2869": "ꦩꦿꦶꦁ", "2870": "ꦩ꧀ꦥꦴ", "2871": "ꦩ꧀ꦥ꧀ꦥ꦳꧀", "2872": "ꦩ꧀ꦧꦺꦴꦃ", "2873": "ꦩ꧀ꦧ꧀ꦭꦶ", "2874": "ꦩ꧀ꦧ꧀ꦭꦺꦴꦁ", "2875": "ꦩ꧀ꦧ꧀ꦭ꧀", "2876": "ꦪ꧀ꦢ", "2877": "ꦪ꧀ꦱ", "2878": "ꦫ꧀ꦏ꧀", "2879": "ꦫ꧀ꦐꦸ", "2880": "ꦫ꧀ꦠ꧀ꦥ꦳꧀", "2881": "ꦭ꧀ꦐꦶ", "2882": "ꦭ꧀ꦗꦶꦂ", "2883": "ꦭ꧀ꦛ", "2884": "ꦭ꧀ꦢ꧀ꦫ", "2885": "ꦭ꧀ꦤꦼ", "2886": "ꦭ꧀ꦥ꧀ꦏ꧀", "2887": "ꦭ꧀ꦧ꧀ꦪ꧀", "2888": "ꦭ꧀ꦭꦻ", "2889": "ꦭ꧀ꦮꦸ", "2890": "ꦭ꧀ꦱ꧀ꦠꦼꦂ", "2891": "ꦭ꧀ꦱ꧀ꦠ꧀", "2892": "ꦮꦼꦃꦂ", "2893": "ꦮ꧀ꦗ꦳ꦶ", "2894": "ꦮ꧀ꦠꦶ", "2895": "ꦯꦼꦁ", "2896": "ꦯ꧀ꦠ", "2897": "ꦱꦹ", "2898": "ꦱ꧀ꦒ꧀ꦧ꧀", "2899": "ꦱ꧀ꦛꦼꦂ", "2900": "ꦱ꧀ꦠ꧀ꦥ꦳꧀", "2901": "ꦱ꧀ꦠ꧀ꦧ꧀", "2902": "ꦱ꧀ꦥ꧀ꦫꦺꦴ", "2903": "ꦱ꧀ꦫꦻ", "2904": "ꦱ꧀ꦮꦺꦴꦂ", "2905": "ꦲ꧀ꦪꦸꦁ", "2906": "ꦏ꦳꧀ꦠꦂ", "2907": "ꦏ꦳꧀ꦩ", "2908": "ꦏꦹ", "2909": "ꦏ꧀ꦕꦺꦴ", "2910": "ꦏ꧀ꦤ꧀ꦝꦸ", "2911": "ꦏ꧀ꦥꦺꦴ", "2912": "ꦏ꧀ꦭꦁ", "2913": "ꦏ꧀ꦭꦶꦁ", "2914": "ꦏ꧀ꦱ꧀ꦗ꦳ꦶ", "2915": "ꦏ꧀ꦱ꧀ꦩ꧀", "2916": "ꦏ꧀ꦱ꧀ꦫꦼ", "2917": "ꦐꦶꦂ", "2918": "ꦐ꧀ꦱ꧀", "2919": "ꦒ꦳꧀ꦠ꧀ꦪ꧀", "2920": "ꦒ꧀ꦏꦁ", "2921": "ꦒ꧀ꦢꦶ", "2922": "ꦒ꧀ꦥ꦳ꦼ", "2923": "ꦒ꧀ꦪ꧀ꦫ", "2924": "ꦒ꧀ꦮ꧀ꦪ꧀", "2925": "ꦒ꧀ꦱ꧀ꦮ", "2926": "ꦔ꧀ꦫꦶꦁ", "2927": "ꦔ꧀ꦭꦶꦂ", "2928": "ꦔ꧀ꦮꦼ", "2929": "ꦕ꧀ꦏ꧀ꦭꦼꦂ", "2930": "ꦕ꧀ꦢꦺꦴ", "2931": "ꦕ꧀ꦧ꧀ꦕ꧀", "2932": "ꦕ꧀ꦮ꧀", "2933": "ꦗ꦳꧀ꦒꦺꦴꦂ", "2934": "ꦗ꦳꧀ꦗ꦳꧀ꦪ꧀", "2935": "ꦗ꦳꧀ꦤ꧀", "2936": "ꦗ꧀ꦮ꧀", "2937": "ꦚ꧀ꦕ", "2938": "ꦚ꧀ꦭꦸ", "2939": "ꦛꦴ", "2940": "ꦝꦶꦂ", "2941": "ꦝ꧀ꦭ꧀", "2942": "ꦟ", "2943": "ꦠ꧀ꦗ꦳ꦶ", "2944": "ꦠ꧀ꦛ", "2945": "ꦠ꧀ꦠ꧀ꦥ꦳꧀", "2946": "ꦠ꧀ꦢ", "2947": "ꦠ꧀ꦤ꧀ꦥ꦳꧀", "2948": "ꦠ꧀ꦪꦸ", "2949": "ꦠ꧀ꦪ꧀ꦤ꧀", "2950": "ꦠ꧀ꦪ꧀ꦥꦸ", "2951": "ꦠ꧀ꦪ꧀ꦫ꧀", "2952": "ꦠ꧀ꦱꦸꦂ", "2953": "ꦢꦺꦃ", "2954": "ꦢ꧀ꦒ꧀ꦏꦶ", "2955": "ꦢ꧀ꦗꦁ", "2956": "ꦢ꧀ꦗꦺ", "2957": "ꦢ꧀ꦠꦶ", "2958": "ꦢ꧀ꦤ꧀", "2959": "ꦢ꧀ꦫ꧀ꦪ꧀", "2960": "ꦢ꧀ꦱꦼ", "2961": "ꦢ꧀ꦱ꧀ꦠ꧀", "2962": "ꦤ꧀ꦔ꧀ꦒ", "2963": "ꦤ꧀ꦕꦻ", "2964": "ꦤ꧀ꦕ꧀ꦠ", "2965": "ꦤ꧀ꦗ꦳꧀ꦏ꧀", "2966": "ꦤ꧀ꦠꦷ", "2967": "ꦤ꧀ꦠ꧀ꦢꦺꦴ", "2968": "ꦤ꧀ꦠ꧀ꦩ", "2969": "ꦤ꧀ꦠ꧀ꦭ", "2970": "ꦤ꧀ꦥꦴ", "2971": "ꦤ꧀ꦥ꧀ꦏ꧀", "2972": "ꦤ꧀ꦭꦃ", "2973": "ꦤ꧀ꦭꦺꦴꦁ", "2974": "ꦤ꧀ꦭ꧀", "2975": "ꦤ꧀ꦮꦃ", "2976": "ꦤ꧀ꦱꦶꦂ", "2977": "ꦤ꧀ꦲꦸꦂ", "2978": "ꦥ꦳꧀ꦢ", "2979": "ꦥ꦳꧀ꦥ꦳꧀ꦩ", "2980": "ꦥ꦳꧀ꦥ꦳꧀ꦪ꧀", "2981": "ꦥ꦳꧀ꦫ꧀ꦪ꧀", "2982": "ꦥ꦳꧀ꦭꦶꦁ", "2983": "ꦥ꦳꧀ꦮ꧀", "2984": "ꦥ꧀ꦠꦻ", "2985": "ꦥ꧀ꦥ꦳꧀ꦥ꦳ꦼꦂ", "2986": "ꦥ꧀ꦥ꧀ꦱ꧀", "2987": "ꦥ꧀ꦪ꧀ꦫ", "2988": "ꦥ꧀ꦪ꧀ꦭ", "2989": "ꦥ꧀ꦫ꧀ꦱ꧀", "2990": "ꦥ꧀ꦭ꧀ꦠ꧀", "2991": "ꦥ꧀ꦮꦶ", "2992": "ꦥ꧀ꦯ꧀ꦕꦺꦴ", "2993": "ꦥ꧀ꦯ꧀ꦕꦼ", "2994": "ꦥ꧀ꦱ꧀ꦠꦶ", "2995": "ꦧ꧀ꦝꦶ", "2996": "ꦧ꧀ꦥꦸ", "2997": "ꦧ꧀ꦥ꧀ꦥ꧀", "2998": "ꦧ꧀ꦧ꧀ꦧ꧀", "2999": "ꦧ꧀ꦩꦼ", "3000": "ꦧ꧀ꦫ꧀ꦪꦺꦴ", "3001": "ꦩꦴꦂ", "3002": "ꦩ꧀ꦒ", "3003": "ꦩ꧀ꦕꦺꦴ", "3004": "ꦩ꧀ꦕ꧀ꦕ", "3005": "ꦩ꧀ꦕ꧀ꦕ꧀", "3006": "ꦩ꧀ꦕ꧀ꦤ", "3007": "ꦩ꧀ꦗꦼ", "3008": "ꦩ꧀ꦢꦶ", "3009": "ꦩ꧀ꦥ꧀ꦏꦶ", "3010": "ꦩ꧀ꦧ꧀ꦭ", "3011": "ꦩ꧀ꦪꦸꦁ", "3012": "ꦩ꧀ꦫ꧀ꦠ꧀", "3013": "ꦩ꧀ꦱ꧀ꦏ꧀", "3014": "ꦩ꧀ꦱ꧀ꦕꦶ", "3015": "ꦪ꧀ꦤꦶ", "3016": "ꦪ꧀ꦤꦺ", "3017": "ꦪ꧀ꦥ", "3018": "ꦪ꧀ꦥ꦳ꦸ", "3019": "ꦪ꧀ꦫꦼ", "3020": "ꦫ꧀ꦒ꧀ꦧ꧀", "3021": "ꦫ꧀ꦠꦺ", "3022": "ꦫ꧀ꦱꦸ", "3023": "ꦫ꧀ꦲꦸ", "3024": "ꦭꦴꦃ", "3025": "ꦭ꧀ꦏ꧀ꦩ꧀", "3026": "ꦭ꧀ꦏ꧀ꦭ", "3027": "ꦭ꧀ꦗ꦳꧀ꦲꦼ", "3028": "ꦭ꧀ꦝꦸ", "3029": "ꦭ꧀ꦠ꧀ꦗ꦳꧀", "3030": "ꦭ꧀ꦢ꧀ꦭ꧀", "3031": "ꦭ꧀ꦥ꦳꧀ꦒꦁ", "3032": "ꦭ꧀ꦥ꦳꧀ꦥ꦳꧀", "3033": "ꦭ꧀ꦪ꧀ꦕꦼ", "3034": "ꦭ꧀ꦪ꧀ꦩꦼ", "3035": "ꦭ꧀ꦪ꧀ꦫꦶ", "3036": "ꦭ꧀ꦭꦺꦴꦂ", "3037": "ꦭ꧀ꦭꦺꦴꦃ", "3038": "ꦮꦿꦸꦃ", "3039": "ꦮ꧀ꦏꦺ", "3040": "ꦮ꧀ꦤ꧀ꦠꦺꦴ", "3041": "ꦮ꧀ꦤ꧀ꦱ꧀", "3042": "ꦮ꧀ꦤ꧀ꦲꦶ", "3043": "ꦮ꧀ꦧꦼꦂ", "3044": "ꦮ꧀ꦫ꧀ꦒ", "3045": "ꦮ꧀ꦯꦶ", "3046": "ꦮ꧀ꦱꦼꦂ", "3047": "ꦮ꧀ꦱ꧀ꦏ", "3048": "ꦮ꧀ꦱ꧀ꦠ꧀", "3049": "ꦯ꧀ꦧꦺꦴ", "3050": "ꦯ꧀ꦩꦸ", "3051": "ꦯ꧀ꦫꦸ", "3052": "ꦱ꧀ꦏ꧀ꦫꦺꦴ", "3053": "ꦱ꧀ꦕ꧀ꦭꦺꦴ", "3054": "ꦱ꧀ꦠ꧀ꦫꦺꦴꦁ", "3055": "ꦱ꧀ꦢ꧀ꦠ꧀", "3056": "ꦱ꧀ꦢ꧀ꦧ꧀", "3057": "ꦱ꧀ꦥ꦳ꦶꦂ", "3058": "ꦱ꧀ꦧꦃ", "3059": "ꦱ꧀ꦧꦸ", "3060": "ꦱ꧀ꦧꦼꦂ", "3061": "ꦱ꧀ꦱ꧀ꦠ꧀", "3062": "ꦱ꧀ꦱ꧀ꦥ꧀", "3063": "ꦲ꧀ꦩ꧀", "3064": "ꦲ꧀ꦪ꧀ꦩꦼ", "3065": "ꦲ꧀ꦫ꧀", "3066": "‍", "3067": "ꦊ", "3068": "ꦏ꦳꧀ꦪꦼ", "3069": "ꦏ꦳꧀ꦮ", "3070": "ꦏ꧀ꦒ꧀ꦥꦴ", "3071": "ꦏ꧀ꦤ꧀ꦥ꦳꧀", "3072": "ꦏ꧀ꦥꦶꦁ", "3073": "ꦏ꧀ꦩꦺ", "3074": "ꦏ꧀ꦭꦺꦁ", "3075": "ꦏ꧀ꦱꦶꦁ", "3076": "ꦐꦹ", "3077": "ꦐ꧀ꦢꦶ", "3078": "ꦒ꦳ꦂ", "3079": "ꦒ꦳ꦶꦂ", "3080": "ꦒ꦳꧀ꦱ꧀", "3081": "ꦒꦺꦃ", "3082": "ꦒ꧀ꦏ꧀ꦪꦼ", "3083": "ꦒ꧀ꦒꦶꦁ", "3084": "ꦒ꧀ꦕ꧀", "3085": "ꦒ꧀ꦥ꦳꧀ꦫꦶ", "3086": "ꦒ꧀ꦥꦶ", "3087": "ꦒ꧀ꦱꦶ", "3088": "ꦒ꧀ꦱꦺꦴ", "3089": "ꦒ꧀ꦱꦼ", "3090": "ꦔ꧀ꦒ꧀ꦭꦼ", "3091": "ꦕ꧀ꦏ꦳ꦼ", "3092": "ꦕ꧀ꦏ꧀ꦭꦺꦴ", "3093": "ꦕ꧀ꦕ꧀ꦫ꧀", "3094": "ꦕ꧀ꦗ꦳꧀ꦏ꧀", "3095": "ꦕ꧀ꦧ꧀ꦱ꧀", "3096": "ꦕ꧀ꦪꦼ", "3097": "ꦕ꧀ꦪ꧀ꦥꦼ", "3098": "ꦕ꧀ꦪ꧀ꦭꦶ", "3099": "ꦗ꦳ꦺꦴꦁ", "3100": "ꦗ꦳꧀ꦫꦼ", "3101": "ꦗ꦳꧀ꦮ", "3102": "ꦗꦻꦂ", "3103": "ꦗ꧀ꦏ꧀ꦱ", "3104": "ꦗ꧀ꦠ꧀ꦭ꧀", "3105": "ꦗ꧀ꦢꦸ", "3106": "ꦗ꧀ꦤꦶ", "3107": "ꦗ꧀ꦥꦼ", "3108": "ꦗ꧀ꦧ꧀", "3109": "ꦛ꧀ꦛ", "3110": "ꦛ꧀ꦠ", "3111": "ꦝꦺꦃ", "3112": "ꦝ꧀ꦪ꧀", "3113": "ꦠ꧀ꦏ꧀ꦱꦶ", "3114": "ꦠ꧀ꦐ꧀ꦩ꧀", "3115": "ꦠ꧀ꦒ꧀", "3116": "ꦠ꧀ꦕꦶꦁ", "3117": "ꦠ꧀ꦗꦃ", "3118": "ꦠ꧀ꦗ꦳꧀ꦱ꧀", "3119": "ꦠ꧀ꦠ꧀ꦥ꦳", "3120": "ꦠ꧀ꦧꦁ", "3121": "ꦠ꧀ꦧ꧀ꦩ꧀", "3122": "ꦠ꧀ꦫ꧀ꦤ", "3123": "ꦠ꧀ꦱꦻ", "3124": "ꦠ꧀ꦱ꧀ꦠ", "3125": "ꦢ꦳ꦼ", "3126": "ꦢ꧀ꦏꦼ", "3127": "ꦢ꧀ꦒꦶ", "3128": "ꦢ꧀ꦭꦶꦁ", "3129": "ꦢ꧀ꦭ꧀ꦤ꧀", "3130": "ꦢ꧀ꦱ꧀ꦏ꧀", "3131": "ꦤ꧀ꦏ꧀ꦏ꧀", "3132": "ꦤ꧀ꦏ꧀ꦠꦼꦂ", "3133": "ꦤ꧀ꦐ꧀ꦥ꦳ꦶ", "3134": "ꦤ꧀ꦕ꧀ꦫꦶ", "3135": "ꦤ꧀ꦕ꧀ꦭꦼ", "3136": "ꦤ꧀ꦗ꦳ꦺꦴꦁ", "3137": "ꦤ꧀ꦗ꦳꧀ꦲꦼ", "3138": "ꦤ꧀ꦛꦶꦂ", "3139": "ꦤ꧀ꦛꦸꦁ", "3140": "ꦤ꧀ꦝ꧀", "3141": "ꦤ꧀ꦠ꧀ꦪꦺꦴ", "3142": "ꦤ꧀ꦢ꧀ꦗꦂ", "3143": "ꦤ꧀ꦢ꧀ꦯꦶ", "3144": "ꦤ꧀ꦤ꧀ꦱ꧀", "3145": "ꦤ꧀ꦥꦺꦴꦂ", "3146": "ꦤ꧀ꦫ꧀", "3147": "ꦤ꧀ꦱꦺꦁ", "3148": "ꦤ꧀ꦱ꧀ꦕꦺꦴ", "3149": "ꦤ꧀ꦱ꧀ꦱꦺꦴ", "3150": "ꦥ꦳ꦁ", "3151": "ꦥ꦳꧀ꦏ꧀", "3152": "ꦥ꦳꧀ꦠꦶꦁ", "3153": "ꦥ꦳꧀ꦤ", "3154": "ꦥ꦳꧀ꦥꦶ", "3155": "ꦥ꦳꧀ꦭ꧀ꦤ꧀", "3156": "ꦥ꦳꧀ꦯ꧀", "3157": "ꦥ꦳꧀ꦲ꧀ꦱ꧀", "3158": "ꦥꦻꦂ", "3159": "ꦥ꧀ꦏ꧀ꦠ꧀", "3160": "ꦥ꧀ꦛꦺꦴ", "3161": "ꦥ꧀ꦥ꧀ꦫꦺꦴ", "3162": "ꦥ꧀ꦧ꧀ꦢ꧀", "3163": "ꦥ꧀ꦩ꧀ꦱ꧀", "3164": "ꦥ꧀ꦪꦶ", "3165": "ꦥ꧀ꦪ꧀ꦫ꧀", "3166": "ꦥ꧀ꦫ꧀ꦫꦶ", "3167": "ꦥ꧀ꦭ꧀ꦤ꧀", "3168": "ꦧ꧀ꦤ꧀ꦥ꧀", "3169": "ꦧ꧀ꦧ꧀ꦱ꧀", "3170": "ꦧ꧀ꦪ꧀ꦫꦺꦴ", "3171": "ꦧ꧀ꦭ꧀ꦢ꧀", "3172": "ꦧ꧀ꦱ꧀ꦕ꧀", "3173": "ꦧ꧀ꦱ꧀ꦤ꧀", "3174": "ꦩꦷ", "3175": "ꦩ꧀ꦒꦸ", "3176": "ꦩ꧀ꦥ꦳꧀ꦧ꧀", "3177": "ꦩ꧀ꦥ꦳꧀ꦭꦺ", "3178": "ꦩ꧀ꦥ꧀ꦢꦺꦴ", "3179": "ꦩ꧀ꦥ꧀ꦫꦺꦴꦁ", "3180": "ꦩ꧀ꦧ꧀ꦱ꧀", "3181": "ꦩ꧀ꦩꦺꦴꦂ", "3182": "ꦩ꧀ꦪꦶ", "3183": "ꦩ꧀ꦫ꧀ꦪ꧀", "3184": "ꦪ꧀ꦕ", "3185": "ꦪ꧀ꦢꦶ", "3186": "ꦪ꧀ꦢꦼꦂ", "3187": "ꦪ꧀ꦢ꧀ꦫꦺꦴ", "3188": "ꦪ꧀ꦤꦺꦴꦂ", "3189": "ꦪ꧀ꦥ꧀ꦫꦼ", "3190": "ꦪ꧀ꦩꦶ", "3191": "ꦪ꧀ꦫ꧀", "3192": "ꦫ꧀ꦏ꧀ꦭꦶ", "3193": "ꦫ꧀ꦒꦼ", "3194": "ꦫ꧀ꦠ꧀ꦠꦼ", "3195": "ꦫ꧀ꦧ꧀ꦠ꧀", "3196": "ꦫ꧀ꦩ꧀ꦱ꧀", "3197": "ꦭ꧀ꦗꦶ", "3198": "ꦭ꧀ꦗꦺꦴ", "3199": "ꦭ꧀ꦗꦼ", "3200": "ꦭ꧀ꦛ꧀ꦪ꧀", "3201": "ꦭ꧀ꦠꦺ", "3202": "ꦭ꧀ꦢꦼꦃ", "3203": "ꦭ꧀ꦥ꦳ꦺꦴꦂ", "3204": "ꦭ꧀ꦥ꦳꧀ꦪ꧀", "3205": "ꦭ꧀ꦥꦺ", "3206": "ꦭ꧀ꦥ꧀ꦤ꧀", "3207": "ꦭ꧀ꦧ꧀ꦭ", "3208": "ꦭ꧀ꦪ꧀ꦭꦼ", "3209": "ꦭ꧀ꦭ꧀ꦩꦺꦴ", "3210": "ꦭ꧀ꦲꦂ", "3211": "ꦮ꧀ꦧꦺꦴ", "3212": "ꦮ꧀ꦭꦼꦂ", "3213": "ꦮ꧀ꦱ꧀ꦠꦼꦂ", "3214": "ꦯ꧀ꦗ꦳꧀ꦪ꧀", "3215": "ꦯ꧀ꦠꦶ", "3216": "ꦯ꧀ꦠꦺꦴ", "3217": "ꦯ꧀ꦩꦼ", "3218": "ꦯ꧀ꦩ꧀ꦧꦺꦴ", "3219": "ꦯ꧀ꦫ꧀", "3220": "ꦯ꧀ꦭ꧀ꦥ꦳ꦶ", "3221": "ꦯ꧀ꦭ꧀ꦲꦼ", "3222": "ꦱ꧀ꦏ꧀ꦭꦶ", "3223": "ꦱ꧀ꦕ꧀ꦩꦼ", "3224": "ꦱ꧀ꦕ꧀ꦭ", "3225": "ꦱ꧀ꦗ꦳ꦺꦴ", "3226": "ꦱ꧀ꦠꦶꦂ", "3227": "ꦱ꧀ꦠꦻꦂ", "3228": "ꦱ꧀ꦠ꧀ꦭ", "3229": "ꦱ꧀ꦠ꧀ꦮꦺꦴ", "3230": "ꦱ꧀ꦤꦺ", "3231": "ꦱ꧀ꦤꦼꦂ", "3232": "ꦱ꧀ꦤ꧀ꦕ꧀", "3233": "ꦱ꧀ꦩꦸꦂ", "3234": "ꦱ꧀ꦭꦶꦃ", "3235": "ꦲꦷ", "3236": "ꦲ꧀ꦠ꧀", "3237": "ꦲ꧀ꦩꦶ", "3238": "ꦲ꧀ꦪ꧀ꦒꦶ", "3239": "ꦌꦃ", "3240": "ꦍꦁ", "3241": "ꦏ꦳꧀ꦠꦶ", "3242": "ꦏꦴꦂ", "3243": "ꦏꦴꦃ", "3244": "ꦏ꧀ꦔ", "3245": "ꦏ꧀ꦔꦶꦁ", "3246": "ꦏ꧀ꦕꦸ", "3247": "ꦏ꧀ꦪꦶ", "3248": "ꦏ꧀ꦱ꧀ꦕ", "3249": "ꦐꦂ", "3250": "ꦐꦺꦴꦂ", "3251": "ꦐ꧀ꦧ", "3252": "ꦒꦸꦁꦃ", "3253": "ꦒ꧀ꦏꦃ", "3254": "ꦒ꧀ꦏꦺꦴ", "3255": "ꦒ꧀ꦏꦼ", "3256": "ꦒ꧀ꦒ꧀ꦩ", "3257": "ꦒ꧀ꦥ꧀ꦭ꧀", "3258": "ꦒ꧀ꦧꦼꦂ", "3259": "ꦒ꧀ꦫꦼꦁ", "3260": "ꦔ꧀ꦏꦁ", "3261": "ꦔ꧀ꦒꦸꦁ", "3262": "ꦔ꧀ꦢ", "3263": "ꦔ꧀ꦭꦻꦂ", "3264": "ꦕ꧀ꦏꦸ", "3265": "ꦕ꧀ꦏ꧀ꦧꦺꦴ", "3266": "ꦕ꧀ꦏ꧀ꦭ", "3267": "ꦕ꧀ꦏ꧀ꦱ", "3268": "ꦕ꧀ꦏ꧀ꦱꦼ", "3269": "ꦕ꧀ꦢꦶ", "3270": "ꦕ꧀ꦪꦸ", "3271": "ꦕ꧀ꦪ꧀ꦱ꧀", "3272": "ꦕ꧀ꦫꦃ", "3273": "ꦕ꧀ꦱ꧀ꦠ", "3274": "ꦗ꦳ꦸꦃꦂ", "3275": "ꦗ꦳꧀ꦠ", "3276": "ꦗ꦳꧀ꦩ", "3277": "ꦗꦶꦂ", "3278": "ꦗ꧀ꦏꦼ", "3279": "ꦗ꧀ꦗꦸ", "3280": "ꦚꦴ", "3281": "ꦚ꧀ꦩꦶ", "3282": "ꦚ꧀ꦭ꧀", "3283": "ꦚ꧀ꦲꦶ", "3284": "ꦛꦶꦃ", "3285": "ꦛ꧀ꦕ꧀", "3286": "ꦛ꧀ꦪꦶ", "3287": "ꦛ꧀ꦪ꧀ꦭ꧀", "3288": "ꦛ꧀ꦱꦺꦴ", "3289": "ꦛ꧀ꦱ꧀ꦫ꧀", "3290": "ꦝ꧀ꦮꦼ", "3291": "ꦠꦹ", "3292": "ꦠ꧀ꦏ꧀ꦱꦺꦴ", "3293": "ꦠ꧀ꦒ꧀ꦥ꦳꧀", "3294": "ꦠ꧀ꦕ꧀ꦩ꧀", "3295": "ꦠ꧀ꦗ꦳꧀ꦒꦼ", "3296": "ꦠ꧀ꦗꦸ", "3297": "ꦠ꧀ꦢꦶ", "3298": "ꦠ꧀ꦥ꦳꧀ꦭꦶ", "3299": "ꦠ꧀ꦫ꧀ꦪ", "3300": "ꦢ꦳ꦂ", "3301": "ꦢ꧀ꦏꦸ", "3302": "ꦢ꧀ꦏ꧀ꦗ꧀", "3303": "ꦢ꧀ꦝ꧀", "3304": "ꦢ꧀ꦥꦂ", "3305": "ꦢ꧀ꦥ꧀ꦫꦼ", "3306": "ꦢ꧀ꦧꦼ", "3307": "ꦢ꧀ꦪꦼ", "3308": "ꦢ꧀ꦫ꧀ꦒ꧀", "3309": "ꦢ꧀ꦱ꧀ꦐꦸ", "3310": "ꦢ꧀ꦱ꧀ꦠꦺꦴ", "3311": "ꦤ꧀ꦏ꦳ꦶ", "3312": "ꦤ꧀ꦏꦻ", "3313": "ꦤ꧀ꦕ꧀ꦭꦺꦴꦁ", "3314": "ꦤ꧀ꦝ꧀ꦫꦶ", "3315": "ꦤ꧀ꦠ꧀ꦒꦼ", "3316": "ꦤ꧀ꦠ꧀ꦗꦼ", "3317": "ꦤ꧀ꦠ꧀ꦠ꧀", "3318": "ꦤ꧀ꦠ꧀ꦢ꧀", "3319": "ꦤ꧀ꦠ꧀ꦫꦸꦁ", "3320": "ꦤ꧀ꦢꦷ", "3321": "ꦤ꧀ꦢ꧀ꦏ꧀", "3322": "ꦤ꧀ꦢ꧀ꦗ", "3323": "ꦤ꧀ꦢ꧀ꦗꦻ", "3324": "ꦤ꧀ꦢ꧀ꦗꦼ", "3325": "ꦤ꧀ꦢ꧀ꦥ꧀", "3326": "ꦤ꧀ꦢ꧀ꦧꦺꦴ", "3327": "ꦤ꧀ꦥ꧀ꦭ", "3328": "ꦤ꧀ꦱ꧀ꦕꦶ", "3329": "ꦤ꧀ꦱ꧀ꦥꦺꦴ", "3330": "ꦤ꧀ꦱ꧀ꦧꦼꦂ", "3331": "ꦤ꧀ꦱ꧀ꦩ", "3332": "ꦤ꧀ꦱ꧀ꦱꦼ", "3333": "ꦤ꧀ꦲꦶꦁ", "3334": "ꦤ꧀ꦲ꧀ꦏ꧀", "3335": "ꦤ꧀ꦲ꧀ꦪꦸ", "3336": "ꦥ꦳꧀ꦢ꧀", "3337": "ꦥ꦳꧀ꦥ꦳ꦂ", "3338": "ꦥ꦳꧀ꦥ꦳꧀ꦱ꧀", "3339": "ꦥ꦳꧀ꦩ", "3340": "ꦥ꦳꧀ꦪꦺꦴꦂ", "3341": "ꦥ꦳꧀ꦭ꧀ꦏ꧀", "3342": "ꦥ꧀ꦏꦸ", "3343": "ꦥ꧀ꦗꦼ", "3344": "ꦥ꧀ꦥꦂ", "3345": "ꦥ꧀ꦥ꦳ꦼ", "3346": "ꦥ꧀ꦥꦺ", "3347": "ꦥ꧀ꦥ꧀ꦤ꧀", "3348": "ꦥ꧀ꦥ꧀ꦩ꧀", "3349": "ꦥ꧀ꦧ꧀ꦱꦶ", "3350": "ꦥ꧀ꦪꦺꦴꦁ", "3351": "ꦥ꧀ꦫ꧀ꦪ꧀", "3352": "ꦥ꧀ꦭꦸꦁ", "3353": "ꦥ꧀ꦭꦼꦁ", "3354": "ꦥ꧀ꦱ꧀ꦏ꧀", "3355": "ꦧꦴꦂ", "3356": "ꦧ꧀ꦕꦺꦴ", "3357": "ꦧ꧀ꦠ꧀ꦱ꧀", "3358": "ꦧ꧀ꦤ꧀ꦱ꧀", "3359": "ꦧ꧀ꦥ꧀ꦕ꧀", "3360": "ꦧ꧀ꦧ꧀ꦩ꧀", "3361": "ꦧ꧀ꦩ꧀ꦮ꧀", "3362": "ꦧ꧀ꦫꦺꦴꦁ", "3363": "ꦧ꧀ꦫ꧀ꦗ꦳꧀", "3364": "ꦧ꧀ꦭ꧀ꦕ꧀", "3365": "ꦧ꧀ꦮꦼ", "3366": "ꦩ꧀ꦏ꧀", "3367": "ꦩ꧀ꦕ꧀ꦏ", "3368": "ꦩ꧀ꦠ꧀ꦐ꧀", "3369": "ꦩ꧀ꦧ꧀ꦫꦼꦁ", "3370": "ꦩ꧀ꦩ꧀ꦱ꧀", "3371": "ꦩ꧀ꦭ꧀ꦪ꧀", "3372": "ꦩ꧀ꦮꦺꦴꦂ", "3373": "ꦩ꧀ꦱ꧀ꦕ꧀", "3374": "ꦪꦺꦃ", "3375": "ꦪ꧀ꦏꦺꦴ", "3376": "ꦪ꧀ꦕꦺꦴ", "3377": "ꦪ꧀ꦗ꦳", "3378": "ꦪ꧀ꦢ꧀ꦤ꧀", "3379": "ꦪ꧀ꦥ꦳ꦶ", "3380": "ꦪ꧀ꦧ꧀", "3381": "ꦪ꧀ꦪꦼ", "3382": "ꦪ꧀ꦱ꧀ꦠ", "3383": "ꦫ꧀ꦢꦺꦴ", "3384": "ꦫ꧀ꦢ꧀", "3385": "ꦫ꧀ꦤ꧀ꦧꦼꦂ", "3386": "ꦫ꧀ꦧ꧀", "3387": "ꦭ꧀ꦒꦂ", "3388": "ꦭ꧀ꦒ꧀ꦫꦼ", "3389": "ꦭ꧀ꦝꦺꦴ", "3390": "ꦭ꧀ꦠꦻꦂ", "3391": "ꦭ꧀ꦠ꧀ꦫꦶ", "3392": "ꦭ꧀ꦢꦺꦴꦂ", "3393": "ꦭ꧀ꦢ꧀ꦩ", "3394": "ꦭ꧀ꦤꦺ", "3395": "ꦭ꧀ꦤ꧀ꦱ꧀", "3396": "ꦭ꧀ꦪ꧀ꦠꦶ", "3397": "ꦭ꧀ꦪ꧀ꦱ", "3398": "ꦭ꧀ꦭ꧀ꦪꦸ", "3399": "ꦭ꧀ꦭ꧀ꦪꦼ", "3400": "ꦭ꧀ꦱ꧀ꦢ꧀", "3401": "ꦭ꧀ꦱ꧀ꦫꦸ", "3402": "ꦭ꧀ꦲ꧀ꦏ꧀", "3403": "ꦮ꧀ꦤꦺꦴ", "3404": "ꦮ꧀ꦤ꧀ꦭꦺꦴ", "3405": "ꦮ꧀ꦭꦼꦃ", "3406": "ꦮ꧀ꦮꦶ", "3407": "ꦮ꧀ꦮ꧀ꦮ꧀", "3408": "ꦰ꧀ꦛꦶ", "3409": "ꦱ꧀ꦒ꦳ꦂ", "3410": "ꦱ꧀ꦠꦹꦂ", "3411": "ꦱ꧀ꦠ꧀ꦪꦺꦴ", "3412": "ꦱ꧀ꦠ꧀ꦮ", "3413": "ꦱ꧀ꦡꦶ", "3414": "ꦱ꧀ꦢꦺꦴ", "3415": "ꦱ꧀ꦢꦺꦴꦂ", "3416": "ꦱ꧀ꦢ꧀ꦠꦼ", "3417": "ꦱ꧀ꦥ꧀ꦏ꧀", "3418": "ꦱ꧀ꦥ꧀ꦤ꧀", "3419": "ꦱ꧀ꦩꦴ", "3420": "ꦱ꧀ꦫ꧀ꦥ꧀", "3421": "ꦱ꧀ꦭꦼꦂ", "3422": "ꦱ꧀ꦭ꧀ꦱ꧀", "3423": "ꦱ꧀ꦮꦶꦁ", "3424": "ꦱ꧀ꦯꦸ", "3425": "ꦱ꧀ꦱ꧀ꦗ꧀", "3426": "ꦱ꧀ꦱ꧀ꦭꦼ", "3427": "ꦲꦺꦴꦃ", "3428": "ꦲꦻꦂ", "3429": "ꦲ꧀ꦤ꧀ꦥ꦳꧀", "3430": "ꦲ꧀ꦪ꧀ꦥꦼ", "3431": "ꦲ꧀ꦱꦶ", "3432": "ꦏ꦳ꦸꦂ", "3433": "ꦏ꦳ꦺꦴꦁ", "3434": "ꦏ꦳꧀ꦩꦼ", "3435": "ꦏ꦳꧀ꦫ", "3436": "ꦏ꦳꧀ꦫꦸ", "3437": "ꦏ꧀ꦏ꦳ꦸ", "3438": "ꦏ꧀ꦒ", "3439": "ꦏ꧀ꦕ꧀ꦭ꧀", "3440": "ꦏ꧀ꦗꦁ", "3441": "ꦏ꧀ꦤ꧀ꦢꦸ", "3442": "ꦏ꧀ꦧ꧀ꦧꦶ", "3443": "ꦏ꧀ꦩ꧀ꦏ꧀", "3444": "ꦏ꧀ꦩ꧀ꦧ꧀", "3445": "ꦏ꧀ꦩ꧀ꦱ꧀", "3446": "ꦏ꧀ꦫ꧀ꦏ꧀", "3447": "ꦏ꧀ꦫ꧀ꦗ꦳꧀", "3448": "ꦏ꧀ꦫ꧀ꦭ꧀", "3449": "ꦏ꧀ꦭꦼꦁ", "3450": "ꦏ꧀ꦱ꧀ꦕꦺꦴ", "3451": "ꦏ꧀ꦱ꧀ꦛꦼ", "3452": "ꦏ꧀ꦱ꧀ꦢ", "3453": "ꦏ꧀ꦱ꧀ꦥ꦳꧀", "3454": "ꦏ꧀ꦱ꧀ꦧꦼꦂ", "3455": "ꦏ꧀ꦱ꧀ꦮ", "3456": "ꦏ꧀ꦱ꧀ꦲ꧀", "3457": "ꦐꦺꦴꦃ", "3458": "ꦐ꧀ꦩ", "3459": "ꦐ꧀ꦭ", "3460": "ꦒ꦳꧀ꦠꦼ", "3461": "ꦒ꦳꧀ꦫ", "3462": "ꦒ꦳꧀ꦭꦶ", "3463": "ꦒ꦳꧀ꦮ", "3464": "ꦒꦷ", "3465": "ꦒ꧀ꦔ꧀ꦒꦺꦴ", "3466": "ꦒ꧀ꦠ꧀ꦥ꧀", "3467": "ꦒ꧀ꦢꦺ", "3468": "ꦒ꧀ꦧꦶ", "3469": "ꦒ꧀ꦩꦺꦴ", "3470": "ꦒ꧀ꦮꦺꦴꦂ", "3471": "ꦒ꧀ꦮ꧀", "3472": "ꦓꦸ", "3473": "ꦔ꧀ꦏ꧀ꦭꦻ", "3474": "ꦔ꧀ꦮꦶ", "3475": "ꦕ꧀ꦏ꧀ꦒ", "3476": "ꦕ꧀ꦒꦶ", "3477": "ꦕ꧀ꦕ꧀ꦠ꧀", "3478": "ꦕ꧀ꦗ꦳", "3479": "ꦕ꧀ꦗ꦳꧀ꦤꦺꦴ", "3480": "ꦕ꧀ꦢ꧀ꦩ", "3481": "ꦕ꧀ꦮ", "3482": "ꦕ꧀ꦱꦺꦴ", "3483": "ꦕ꧀ꦱ꧀ꦱ꧀", "3484": "ꦗ꦳ꦹꦂ", "3485": "ꦗ꦳ꦺꦴꦂ", "3486": "ꦗ꦳꧀ꦐꦸ", "3487": "ꦗ꦳꧀ꦗ", "3488": "ꦗ꦳꧀ꦗ꦳ꦃ", "3489": "ꦗ꦳꧀ꦥ꦳ꦼ", "3490": "ꦗ꦳꧀ꦩꦶꦂ", "3491": "ꦗ꦳꧀ꦪ꧀ꦤ", "3492": "ꦗ꦳꧀ꦪ꧀ꦤ꧀", "3493": "ꦗ꦳꧀ꦲꦶꦂ", "3494": "ꦗꦷꦁ", "3495": "ꦗ꧀ꦗ꧀", "3496": "ꦗ꧀ꦠ", "3497": "ꦗ꧀ꦢꦃ", "3498": "ꦗ꧀ꦥ꦳ꦺꦴ", "3499": "ꦗ꧀ꦮ", "3500": "ꦚꦺꦁ", "3501": "ꦚ꧀ꦕꦶ", "3502": "ꦚ꧀ꦩꦼ", "3503": "ꦛ꧀ꦪ꧀ꦱ꧀", "3504": "ꦛ꧀ꦫ", "3505": "ꦠꦹꦂ", "3506": "ꦠ꧀ꦕ꧀ꦥ꧀", "3507": "ꦠ꧀ꦗ꦳꧀ꦩ", "3508": "ꦠ꧀ꦠꦸꦂ", "3509": "ꦠ꧀ꦠ꧀ꦒꦼ", "3510": "ꦠ꧀ꦠ꧀ꦫꦶ", "3511": "ꦠ꧀ꦠ꧀ꦭꦶ", "3512": "ꦠ꧀ꦢ꧀", "3513": "ꦠ꧀ꦧꦸꦂ", "3514": "ꦠ꧀ꦩ꧀ꦥ꧀", "3515": "ꦠ꧀ꦪ꧀ꦥ꦳꧀", "3516": "ꦠ꧀ꦪ꧀ꦩꦺꦴ", "3517": "ꦠ꧀ꦪ꧀ꦫꦺꦴ", "3518": "ꦠ꧀ꦫꦁ", "3519": "ꦠ꧀ꦮꦂ", "3520": "ꦠ꧀ꦱꦶꦁ", "3521": "ꦠ꧀ꦱ꧀ꦧ꧀", "3522": "ꦠ꧀ꦱ꧀ꦱ꧀", "3523": "ꦢꦻꦂ", "3524": "ꦢ꧀ꦒꦂ", "3525": "ꦢ꧀ꦤꦶꦁ", "3526": "ꦢ꧀ꦧꦺꦴ", "3527": "ꦢ꧀ꦩ꧀", "3528": "ꦢ꧀ꦩ꧀ꦒ꧀", "3529": "ꦢ꧀ꦭ꧀ꦭ꧀", "3530": "ꦢ꧀ꦱ꧀ꦧ꧀", "3531": "ꦢ꧀ꦱ꧀ꦩ꧀", "3532": "ꦤꦹ", "3533": "ꦤ꧀ꦏꦸꦂ", "3534": "ꦤ꧀ꦏ꧀ꦫꦺ", "3535": "ꦤ꧀ꦕ꧀ꦭꦁ", "3536": "ꦤ꧀ꦕ꧀ꦱ꧀", "3537": "ꦤ꧀ꦗꦴ", "3538": "ꦤ꧀ꦝꦺꦴꦂ", "3539": "ꦤ꧀ꦠ꧀ꦧ꧀", "3540": "ꦤ꧀ꦠ꧀ꦮꦼꦂ", "3541": "ꦤ꧀ꦢ꧀ꦫꦺꦴꦁ", "3542": "ꦤ꧀ꦢ꧀ꦮ", "3543": "ꦤ꧀ꦤꦺꦴꦁ", "3544": "ꦤ꧀ꦥ꧀", "3545": "ꦤ꧀ꦧ꧀ꦫꦺꦴ", "3546": "ꦤ꧀ꦩꦁ", "3547": "ꦤ꧀ꦫꦻꦃ", "3548": "ꦤ꧀ꦮꦺꦴꦂ", "3549": "ꦤ꧀ꦯꦃꦂ", "3550": "ꦤ꧀ꦱꦂ", "3551": "ꦤ꧀ꦱꦷ", "3552": "ꦤ꧀ꦱꦸꦁ", "3553": "ꦤ꧀ꦱ꧀ꦏꦼ", "3554": "ꦤ꧀ꦱ꧀ꦒꦼ", "3555": "ꦤ꧀ꦱ꧀ꦢ", "3556": "ꦤ꧀ꦱ꧀ꦭꦼ", "3557": "ꦤ꧀ꦲ꧀ꦮ", "3558": "ꦥ꦳ꦴꦂ", "3559": "ꦥ꦳꧀ꦏꦃ", "3560": "ꦥ꦳꧀ꦕ꧀ꦢ꧀", "3561": "ꦥ꦳꧀ꦠꦸ", "3562": "ꦥ꦳꧀ꦠ꧀ꦱ꧀", "3563": "ꦥ꦳꧀ꦢ꧀ꦭ꧀", "3564": "ꦥ꦳꧀ꦤꦼ", "3565": "ꦥ꦳꧀ꦧꦶ", "3566": "ꦥ꦳꧀ꦧ꧀ꦱ꧀", "3567": "ꦥ꦳꧀ꦩꦼ", "3568": "ꦥ꦳꧀ꦭ꧀ꦥ꧀", "3569": "ꦥ꧀ꦏ꧀ꦏ꧀", "3570": "ꦥ꧀ꦏ꧀ꦭ꧀", "3571": "ꦥ꧀ꦒ꧀ꦫ", "3572": "ꦥ꧀ꦕꦼ", "3573": "ꦥ꧀ꦕ꧀ꦭꦶ", "3574": "ꦥ꧀ꦗ", "3575": "ꦥ꧀ꦝ", "3576": "ꦥ꧀ꦢ꧀ꦥ꦳꧀", "3577": "ꦥ꧀ꦥꦁ", "3578": "ꦥ꧀ꦥ꦳꧀", "3579": "ꦥ꧀ꦧ꧀ꦱ꧀", "3580": "ꦥ꧀ꦪ꧀ꦕꦺꦴ", "3581": "ꦥ꧀ꦫꦺꦴꦁ", "3582": "ꦥ꧀ꦫ꧀ꦗ꦳ꦼ", "3583": "ꦥ꧀ꦭꦃ", "3584": "ꦥ꧀ꦭꦶꦁ", "3585": "ꦥ꧀ꦭ꧀ꦗꦼ", "3586": "ꦧꦷ", "3587": "ꦧꦺꦴꦃꦂ", "3588": "ꦧ꧀ꦏ꧀ꦏ꧀", "3589": "ꦧ꧀ꦕ꧀ꦭ꧀", "3590": "ꦧ꧀ꦗ꧀ꦏ꧀", "3591": "ꦧ꧀ꦠꦼ", "3592": "ꦧ꧀ꦥ꦳", "3593": "ꦧ꧀ꦥ꦳ꦶ", "3594": "ꦧ꧀ꦧꦸ", "3595": "ꦧ꧀ꦩ꧀ꦒ꧀", "3596": "ꦧ꧀ꦭꦃ", "3597": "ꦧ꧀ꦭꦶꦁ", "3598": "ꦧ꧀ꦭꦻ", "3599": "ꦧ꧀ꦱꦃ", "3600": "ꦧ꧀ꦱ꧀ꦥ꧀", "3601": "ꦩꦹ", "3602": "ꦩꦿꦶꦃ", "3603": "ꦩ꧀ꦔ", "3604": "ꦩ꧀ꦕ꧀ꦏꦼ", "3605": "ꦩ꧀ꦥ꧀ꦫꦁ", "3606": "ꦩ꧀ꦧ꧀ꦪꦃ", "3607": "ꦩ꧀ꦧ꧀ꦫꦁ", "3608": "ꦩ꧀ꦧ꧀ꦫꦺꦴꦁ", "3609": "ꦩ꧀ꦧ꧀ꦭꦼꦁ", "3610": "ꦩ꧀ꦪ꧀ꦏꦼ", "3611": "ꦩ꧀ꦪ꧀ꦕꦺꦴꦂ", "3612": "ꦩ꧀ꦪ꧀ꦢ", "3613": "ꦩ꧀ꦪ꧀ꦱꦺꦴ", "3614": "ꦩ꧀ꦮꦶ", "3615": "ꦩ꧀ꦯꦃ", "3616": "ꦩ꧀ꦱ꧀ꦏ", "3617": "ꦩ꧀ꦱ꧀ꦏꦶ", "3618": "ꦩ꧀ꦱ꧀ꦠ", "3619": "ꦩ꧀ꦱ꧀ꦢ꧀", "3620": "ꦪꦶꦂ", "3621": "ꦪꦹ", "3622": "ꦪ꧀ꦗ꦳꧀", "3623": "ꦪ꧀ꦥ꦳꧀", "3624": "ꦪ꧀ꦫꦺ", "3625": "ꦪ꧀ꦲ", "3626": "ꦪ꧀ꦲꦺꦴ", "3627": "ꦫ꧀ꦏ꧀ꦱꦺꦴ", "3628": "ꦫ꧀ꦒ꧀ꦮꦺ", "3629": "ꦫ꧀ꦗ꧀", "3630": "ꦫ꧀ꦢ", "3631": "ꦫ꧀ꦥ꦳ꦶ", "3632": "ꦫ꧀ꦪꦺꦴ", "3633": "ꦭ꧀ꦐꦸ", "3634": "ꦭ꧀ꦒ꧀", "3635": "ꦭ꧀ꦗ꦳ꦼꦂ", "3636": "ꦭ꧀ꦛꦸ", "3637": "ꦭ꧀ꦛꦼ", "3638": "ꦭ꧀ꦢ꧀ꦧ꧀", "3639": "ꦭ꧀ꦢ꧀ꦪ꧀", "3640": "ꦭ꧀ꦢ꧀ꦫꦶ", "3641": "ꦭ꧀ꦢ꧀ꦭꦺꦴ", "3642": "ꦭ꧀ꦤꦁ", "3643": "ꦭ꧀ꦥ꧀ꦠꦺꦴꦂ", "3644": "ꦭ꧀ꦧ꧀ꦫꦶ", "3645": "ꦭ꧀ꦧ꧀ꦫꦺꦴ", "3646": "ꦭ꧀ꦩꦴ", "3647": "ꦭ꧀ꦪꦼꦂ", "3648": "ꦭ꧀ꦭꦺ", "3649": "ꦭ꧀ꦭ꧀ꦤꦼꦂ", "3650": "ꦭ꧀ꦭ꧀ꦮ", "3651": "ꦭ꧀ꦮꦺꦴ", "3652": "ꦭ꧀ꦱ꧀ꦗ꦳꧀", "3653": "ꦭ꧀ꦱ꧀ꦠ", "3654": "ꦭ꧀ꦱ꧀ꦩꦼ", "3655": "ꦮꦴꦂ", "3656": "ꦮ꧀ꦏꦶꦁ", "3657": "ꦮ꧀ꦕꦺꦴ", "3658": "ꦮ꧀ꦢ꧀", "3659": "ꦮ꧀ꦤꦶꦁ", "3660": "ꦮ꧀ꦤꦺ", "3661": "ꦮ꧀ꦩꦶ", "3662": "ꦮ꧀ꦪ꧀ꦤ꧀", "3663": "ꦮ꧀ꦫ꧀ꦪ꧀", "3664": "ꦯꦺ", "3665": "ꦯ꧀ꦤꦃ", "3666": "ꦯ꧀ꦤ꧀", "3667": "ꦯ꧀ꦩꦶꦂ", "3668": "ꦯ꧀ꦫꦃ", "3669": "ꦯ꧀ꦮꦶ", "3670": "ꦱꦴꦁ", "3671": "ꦱ꧀ꦏꦶꦁ", "3672": "ꦱ꧀ꦏ꧀ꦭ", "3673": "ꦱ꧀ꦕꦷ", "3674": "ꦱ꧀ꦕ꧀ꦩ", "3675": "ꦱ꧀ꦕ꧀ꦮ꧀", "3676": "ꦱ꧀ꦗ꧀ꦫꦺꦴ", "3677": "ꦱ꧀ꦠꦸꦁ", "3678": "ꦱ꧀ꦠ꧀ꦥ", "3679": "ꦱ꧀ꦠ꧀ꦥ꦳", "3680": "ꦱ꧀ꦢꦸ", "3681": "ꦱ꧀ꦢꦼꦁ", "3682": "ꦱ꧀ꦤ꧀ꦤ꧀", "3683": "ꦱ꧀ꦩ꧀ꦏꦶ", "3684": "ꦱ꧀ꦫꦸꦃ", "3685": "ꦱ꧀ꦫ꧀ꦏ꧀", "3686": "ꦱ꧀ꦭꦁ", "3687": "ꦱ꧀ꦱꦁ", "3688": "ꦱ꧀ꦱ꧀ꦤ꧀", "3689": "ꦱ꧀ꦱ꧀ꦩ", "3690": "ꦱ꧀ꦱ꧀ꦫ꧀", "3691": "ꦱ꧀ꦱ꧀ꦮꦺꦴꦂ", "3692": "ꦲꦹ", "3693": "ꦲ꧀ꦗ꦳꧀", "3694": "ꦲ꧀ꦤꦺꦴ", "3695": "ꦲ꧀ꦪ꧀ꦩ꧀", "3696": "ꦲ꧀ꦪ꧀ꦱ꧀", "3697": "ꦲ꧀ꦫ", "3698": "ꦲ꧀ꦭ", "3699": "ꦄꦴꦂ", "3700": "ꦆꦁꦃ", "3701": "ꦆꦷꦁ", "3702": "ꦏ꦳ꦼꦂ", "3703": "ꦏ꦳꧀ꦤꦶ", "3704": "ꦏ꦳꧀ꦫꦼ", "3705": "ꦏ꦳꧀ꦮꦼ", "3706": "ꦏ꧀ꦕ", "3707": "ꦏ꧀ꦕ꧀", "3708": "ꦏ꧀ꦗꦸ", "3709": "ꦏ꧀ꦗꦺꦴ", "3710": "ꦏ꧀ꦗꦺꦴꦁ", "3711": "ꦏ꧀ꦝ", "3712": "ꦏ꧀ꦤ꧀ꦗ", "3713": "ꦏ꧀ꦥ꦳꧀ꦕ꧀", "3714": "ꦏ꧀ꦩ꧀ꦧꦸ", "3715": "ꦏ꧀ꦪꦼ", "3716": "ꦏ꧀ꦫꦸꦃ", "3717": "ꦏ꧀ꦭꦴ", "3718": "ꦏ꧀ꦭ꧀ꦲ꧀", "3719": "ꦏ꧀ꦮꦴ", "3720": "ꦏ꧀ꦱ꧀ꦕ꧀", "3721": "ꦏ꧀ꦱ꧀ꦧ꧀", "3722": "ꦐ꧀ꦐ", "3723": "ꦐ꧀ꦧꦴ", "3724": "ꦒ꦳ꦼꦂ", "3725": "ꦒ꦳꧀ꦤꦼ", "3726": "ꦒ꦳꧀ꦤ꧀", "3727": "ꦒ꦳꧀ꦧꦺꦴꦂ", "3728": "ꦒ꧀ꦒ꧀ꦭꦼ", "3729": "ꦒ꧀ꦚ", "3730": "ꦒ꧀ꦚꦺꦴ", "3731": "ꦒ꧀ꦩꦸ", "3732": "ꦒ꧀ꦪ꧀ꦗ꦳꧀", "3733": "ꦒ꧀ꦪ꧀ꦫꦺꦴ", "3734": "ꦒ꧀ꦭ꧀ꦏ꧀", "3735": "ꦒ꧀ꦱ꧀ꦠ꧀", "3736": "ꦔꦷ", "3737": "ꦔꦼꦃ", "3738": "ꦔꦿ", "3739": "ꦔ꧀ꦒ꧀ꦒ", "3740": "ꦔ꧀ꦒ꧀ꦫ", "3741": "ꦔ꧀ꦤ", "3742": "ꦔ꧀ꦤ꧀ꦢꦸ", "3743": "ꦔ꧀ꦫꦃ", "3744": "ꦕ꧀ꦏ꧀ꦕꦺꦴ", "3745": "ꦕ꧀ꦏ꧀ꦫꦺꦴ", "3746": "ꦕ꧀ꦏ꧀ꦭꦶꦁ", "3747": "ꦕ꧀ꦏ꧀ꦭ꧀", "3748": "ꦕ꧀ꦏ꧀ꦮꦼ", "3749": "ꦕ꧀ꦏ꧀ꦮ꧀", "3750": "ꦕ꧀ꦒ꧀", "3751": "ꦕ꧀ꦕꦂ", "3752": "ꦕ꧀ꦕ꧀ꦫ", "3753": "ꦕ꧀ꦕ꧀ꦱ꧀", "3754": "ꦕ꧀ꦕ꧀ꦲꦶ", "3755": "ꦕ꧀ꦗ꦳ꦂ", "3756": "ꦕ꧀ꦗ꦳ꦼꦂ", "3757": "ꦕ꧀ꦗ꧀ꦏ꧀", "3758": "ꦕ꧀ꦚ", "3759": "ꦕ꧀ꦠ꧀ꦫ", "3760": "ꦕ꧀ꦢꦸ", "3761": "ꦕ꧀ꦥ꦳ꦼ", "3762": "ꦕ꧀ꦪ꧀ꦕꦂ", "3763": "ꦕ꧀ꦪ꧀ꦤꦼ", "3764": "ꦕ꧀ꦪ꧀ꦫꦼ", "3765": "ꦕ꧀ꦭꦻꦂ", "3766": "ꦕ꧀ꦭ꧀ꦕ꧀", "3767": "ꦕ꧀ꦮ꧀ꦩ꧀", "3768": "ꦕ꧀ꦱ꧀ꦏ", "3769": "ꦗ꦳ꦶꦁ", "3770": "ꦗ꦳꧀ꦕꦺꦴ", "3771": "ꦗ꦳꧀ꦫ꧀", "3772": "ꦗꦺꦃ", "3773": "ꦗ꧀ꦏ", "3774": "ꦗ꧀ꦢ", "3775": "ꦗ꧀ꦢꦺꦴ", "3776": "ꦗ꧀ꦥꦸ", "3777": "ꦗ꧀ꦥ꧀ꦠ꧀", "3778": "ꦗ꧀ꦭ꧀ꦤ꧀", "3779": "ꦚꦹ", "3780": "ꦚꦺꦴꦂ", "3781": "ꦚ꧀ꦕꦸ", "3782": "ꦛ꧀ꦥ꦳ꦶ", "3783": "ꦛ꧀ꦪ꧀ꦭꦼ", "3784": "ꦛ꧀ꦫ꧀ꦪ꧀", "3785": "ꦛ꧀ꦲ", "3786": "ꦟ꧀ꦢꦿ", "3787": "ꦠ꧀ꦒꦸ", "3788": "ꦠ꧀ꦕ꧀ꦭ꧀", "3789": "ꦠ꧀ꦗ꦳ꦺꦴ", "3790": "ꦠ꧀ꦗ꦳꧀ꦲ", "3791": "ꦠ꧀ꦛꦂ", "3792": "ꦠ꧀ꦠꦃ", "3793": "ꦠ꧀ꦤꦁ", "3794": "ꦠ꧀ꦤ꧀ꦠ꧀", "3795": "ꦠ꧀ꦥ꦳ꦃ", "3796": "ꦠ꧀ꦥ꦳꧀ꦤ꧀", "3797": "ꦠ꧀ꦥ꦳꧀ꦧ꧀", "3798": "ꦠ꧀ꦥꦺꦴ", "3799": "ꦠ꧀ꦧꦶ", "3800": "ꦠ꧀ꦧ꧀ꦫꦼ", "3801": "ꦠ꧀ꦧ꧀ꦭ", "3802": "ꦠ꧀ꦩꦂ", "3803": "ꦠ꧀ꦩ꧀ꦕ꧀", "3804": "ꦠ꧀ꦪ꧀ꦏ꧀", "3805": "ꦠ꧀ꦪ꧀ꦧ", "3806": "ꦠ꧀ꦫꦸꦃ", "3807": "ꦠ꧀ꦫ꧀ꦗ꦳꧀", "3808": "ꦠ꧀ꦮꦻ", "3809": "ꦠ꧀ꦮ꧀", "3810": "ꦠ꧀ꦯꦼ", "3811": "ꦠ꧀ꦱ꧀ꦕꦼꦂ", "3812": "ꦠ꧀ꦱ꧀ꦮꦺꦴꦂ", "3813": "ꦢ꦳꧀ꦏꦶ", "3814": "ꦢꦴꦃ", "3815": "ꦢ꧀ꦏ꧀ꦥ꧀", "3816": "ꦢ꧀ꦕ꧀ꦭꦶ", "3817": "ꦢ꧀ꦠ꧀ꦥ", "3818": "ꦢ꧀ꦥ꦳ꦼꦂ", "3819": "ꦢ꧀ꦥ꦳꧀ꦫꦼ", "3820": "ꦢ꧀ꦥꦺꦴ", "3821": "ꦢ꧀ꦧꦸꦂ", "3822": "ꦢ꧀ꦪꦸ", "3823": "ꦢ꧀ꦪ꧀ꦭꦶ", "3824": "ꦢ꧀ꦫ꧀ꦪ", "3825": "ꦢ꧀ꦮ꧀ꦏ꧀", "3826": "ꦢ꧀ꦯꦼ", "3827": "ꦢ꧀ꦱ꧀ꦕ", "3828": "ꦢ꧀ꦱ꧀ꦥ꧀", "3829": "ꦤ꧀ꦏ꧀ꦤꦺꦴ", "3830": "ꦤ꧀ꦏ꧀ꦭꦺꦴ", "3831": "ꦤ꧀ꦐ", "3832": "ꦤ꧀ꦒꦸ", "3833": "ꦤ꧀ꦔꦶ", "3834": "ꦤ꧀ꦕꦴ", "3835": "ꦤ꧀ꦕ꧀ꦏꦼ", "3836": "ꦤ꧀ꦕ꧀ꦠꦸ", "3837": "ꦤ꧀ꦗ꦳ꦼꦂ", "3838": "ꦤ꧀ꦗ꦳꧀ꦲ", "3839": "ꦤ꧀ꦗ꦳꧀ꦲꦶ", "3840": "ꦤ꧀ꦗ꧀ꦫꦼ", "3841": "ꦤ꧀ꦠ꧀ꦒꦺꦴ", "3842": "ꦤ꧀ꦠ꧀ꦤ꧀", "3843": "ꦤ꧀ꦠ꧀ꦥ", "3844": "ꦤ꧀ꦢꦺꦁ", "3845": "ꦤ꧀ꦢ꧀ꦥ꦳", "3846": "ꦤ꧀ꦢ꧀ꦩ", "3847": "ꦤ꧀ꦢ꧀ꦪꦸ", "3848": "ꦤ꧀ꦤꦹ", "3849": "ꦤ꧀ꦥ꦳꧀ꦭꦺ", "3850": "ꦤ꧀ꦥ꦳꧀ꦭꦼ", "3851": "ꦤ꧀ꦥꦼꦁ", "3852": "ꦤ꧀ꦥꦿ", "3853": "ꦤ꧀ꦧ꧀ꦭꦺꦴ", "3854": "ꦤ꧀ꦩꦺ", "3855": "ꦤ꧀ꦭꦶꦁ", "3856": "ꦤ꧀ꦮꦸꦁ", "3857": "ꦤ꧀ꦱꦺꦴꦁ", "3858": "ꦤ꧀ꦱ꧀ꦥ꦳ꦼ", "3859": "ꦤ꧀ꦱ꧀ꦧ", "3860": "ꦤ꧀ꦲꦺꦴꦂ", "3861": "ꦤ꧀ꦲꦻ", "3862": "ꦤ꧀ꦲ꧀ꦕ꧀", "3863": "ꦥ꦳꧀ꦏꦺꦴ", "3864": "ꦥ꦳꧀ꦛ꧀", "3865": "ꦥ꦳꧀ꦤ꧀ꦠ꧀", "3866": "ꦥ꦳꧀ꦭꦺꦴꦂ", "3867": "ꦥ꦳꧀ꦱꦼ", "3868": "ꦥ꦳꧀ꦱ꧀ꦥ꦳꧀", "3869": "ꦥꦿꦶ", "3870": "ꦥ꧀ꦒꦶ", "3871": "ꦥ꧀ꦛ", "3872": "ꦥ꧀ꦠꦃ", "3873": "ꦥ꧀ꦠ꧀ꦤ꧀", "3874": "ꦥ꧀ꦥ꦳ꦺꦴꦂ", "3875": "ꦥ꧀ꦥ꦳꧀ꦕ꧀", "3876": "ꦥ꧀ꦪ꧀ꦛꦶ", "3877": "ꦥ꧀ꦪ꧀ꦠ꧀", "3878": "ꦥ꧀ꦯ꧀ꦕꦸ", "3879": "ꦥ꧀ꦱꦺ", "3880": "ꦥ꧀ꦱ꧀ꦠ", "3881": "ꦥ꧀ꦱ꧀ꦠꦼ", "3882": "ꦧ꧀ꦏ꦳", "3883": "ꦧ꧀ꦏꦶ", "3884": "ꦧ꧀ꦏ꧀ꦭꦺꦴ", "3885": "ꦧ꧀ꦗꦸ", "3886": "ꦧ꧀ꦤꦼ", "3887": "ꦧ꧀ꦤ꧀ꦤ꧀", "3888": "ꦧ꧀ꦥ꦳ꦼꦂ", "3889": "ꦧ꧀ꦥ꧀ꦠ꧀", "3890": "ꦧ꧀ꦥ꧀ꦫ꧀", "3891": "ꦧ꧀ꦧ꧀ꦐ꧀", "3892": "ꦧ꧀ꦪꦸꦁ", "3893": "ꦧ꧀ꦪꦸꦂ", "3894": "ꦧ꧀ꦪꦺꦴꦁ", "3895": "ꦧ꧀ꦪ꧀ꦏ꦳꧀", "3896": "ꦧ꧀ꦪ꧀ꦧ꧀", "3897": "ꦧ꧀ꦭ꧀ꦗ", "3898": "ꦧ꧀ꦭ꧀ꦧ꧀", "3899": "ꦧ꧀ꦱꦸ", "3900": "ꦩ꧀ꦕ꧀ꦒꦶ", "3901": "ꦩ꧀ꦕ꧀ꦒꦺꦴ", "3902": "ꦩ꧀ꦗ꦳", "3903": "ꦩ꧀ꦠꦼꦁ", "3904": "ꦩ꧀ꦠꦼꦂ", "3905": "ꦩ꧀ꦢꦸ", "3906": "ꦩ꧀ꦥ꦳ꦼꦂ", "3907": "ꦩ꧀ꦥꦼꦃ", "3908": "ꦩ꧀ꦥ꧀ꦠꦶ", "3909": "ꦩ꧀ꦥ꧀ꦪꦸꦃ", "3910": "ꦩ꧀ꦧ꧀ꦏ꧀", "3911": "ꦩ꧀ꦧ꧀ꦠꦼ", "3912": "ꦩ꧀ꦧ꧀ꦪꦂ", "3913": "ꦩ꧀ꦪ꧀ꦛ꧀", "3914": "ꦩ꧀ꦭꦁ", "3915": "ꦩ꧀ꦭ꧀ꦗ", "3916": "ꦩ꧀ꦮꦺꦴ", "3917": "ꦩ꧀ꦱ꧀ꦠꦼ", "3918": "ꦩ꧀ꦱ꧀ꦥ꦳꧀", "3919": "ꦩ꧀ꦲꦶ", "3920": "ꦩ꧀ꦲꦸ", "3921": "ꦪꦺꦴꦁꦃ", "3922": "ꦪ꧀ꦏꦼ", "3923": "ꦪ꧀ꦏ꧀", "3924": "ꦪ꧀ꦧꦸ", "3925": "ꦪ꧀ꦩꦸꦂ", "3926": "ꦪ꧀ꦩꦼ", "3927": "ꦪ꧀ꦫ", "3928": "ꦫ꧀ꦗ꦳ꦼ", "3929": "ꦫ꧀ꦪ꧀ꦢꦼꦂ", "3930": "ꦫ꧀ꦪ꧀ꦭ", "3931": "ꦫ꧀ꦱꦶ", "3932": "ꦫ꧀ꦱ꧀ꦠ꧀", "3933": "ꦫ꧀ꦱ꧀ꦥ꧀", "3934": "ꦭ꧀ꦏ꧀ꦥ꧀", "3935": "ꦭ꧀ꦒ꧀ꦧ꧀", "3936": "ꦭ꧀ꦗ꦳ꦺꦴ", "3937": "ꦭ꧀ꦗ꦳꧀ꦧꦸꦂ", "3938": "ꦭ꧀ꦠꦺꦴꦁ", "3939": "ꦭ꧀ꦠ꧀ꦏ꧀", "3940": "ꦭ꧀ꦢ꧀ꦥ꧀", "3941": "ꦭ꧀ꦢ꧀ꦫꦺꦴ", "3942": "ꦭ꧀ꦥ꦳꧀ꦫ", "3943": "ꦭ꧀ꦥ꧀ꦠꦸ", "3944": "ꦭ꧀ꦧ꧀ꦫꦸ", "3945": "ꦭ꧀ꦧ꧀ꦱ꧀", "3946": "ꦭ꧀ꦪ꧀ꦠꦼ", "3947": "ꦭ꧀ꦭꦴ", "3948": "ꦭ꧀ꦭ꧀ꦠꦺꦴ", "3949": "ꦭ꧀ꦭ꧀ꦫꦺꦴ", "3950": "ꦭ꧀ꦱ꧀ꦧ꧀", "3951": "ꦮ꧀ꦤ꧀ꦯꦶ", "3952": "ꦮ꧀ꦧꦶ", "3953": "ꦮ꧀ꦧꦼ", "3954": "ꦮ꧀ꦩꦺꦴ", "3955": "ꦮ꧀ꦩ꧀", "3956": "ꦮ꧀ꦪꦺꦴ", "3957": "ꦮ꧀ꦪ꧀ꦕ꧀", "3958": "ꦮ꧀ꦪ꧀ꦭꦼꦂ", "3959": "ꦮ꧀ꦭꦶ", "3960": "ꦮ꧀ꦭ꧀ꦱ꧀", "3961": "ꦮ꧀ꦲꦂ", "3962": "ꦯ꧀ꦢꦺꦴ", "3963": "ꦯ꧀ꦤꦶ", "3964": "ꦯ꧀ꦤꦸ", "3965": "ꦯ꧀ꦤ꧀ꦕ꧀", "3966": "ꦯ꧀ꦤ꧀ꦛꦼ", "3967": "ꦯ꧀ꦤ꧀ꦢꦶ", "3968": "ꦯ꧀ꦪ꧀", "3969": "ꦯ꧀ꦲꦸꦂ", "3970": "ꦱ꧀ꦏꦻ", "3971": "ꦱ꧀ꦏ꧀ꦫ꧀", "3972": "ꦱ꧀ꦐ", "3973": "ꦱ꧀ꦒꦶ", "3974": "ꦱ꧀ꦒꦸ", "3975": "ꦱ꧀ꦕ꧀ꦏ", "3976": "ꦱ꧀ꦕ꧀ꦭꦸ", "3977": "ꦱ꧀ꦛꦺꦴ", "3978": "ꦱ꧀ꦠꦶꦃ", "3979": "ꦱ꧀ꦠ꧀ꦕꦼ", "3980": "ꦱ꧀ꦠ꧀ꦪꦼ", "3981": "ꦱ꧀ꦥ꦳ꦂ", "3982": "ꦱ꧀ꦥ꦳ꦸ", "3983": "ꦱ꧀ꦥꦶꦁ", "3984": "ꦱ꧀ꦥꦻ", "3985": "ꦱ꧀ꦩ꧀ꦩ꧀", "3986": "ꦱ꧀ꦩ꧀ꦪ꧀", "3987": "ꦱ꧀ꦩ꧀ꦫ꧀", "3988": "ꦱ꧀ꦭ꧀ꦠ", "3989": "ꦱ꧀ꦮꦸꦂ", "3990": "ꦱ꧀ꦮꦼꦃꦂ", "3991": "ꦱ꧀ꦯ꧀ꦕ", "3992": "ꦱ꧀ꦱ꧀ꦕ", "3993": "ꦱ꧀ꦱ꧀ꦧ꧀", "3994": "ꦱ꧀ꦱ꧀ꦮ", "3995": "ꦱ꧀ꦱ꧀ꦱ꧀", "3996": "ꦲꦸꦁꦂ", "3997": "ꦲ꧀ꦏ꧀ꦧ꧀", "3998": "ꦲ꧀ꦏ꧀ꦱ", "3999": "ꦲ꧀ꦥ꧀ꦭ꧀", "4000": "ꦲ꧀ꦫꦶ", "4001": "ꦲ꧀ꦱ꧀ꦏ꧀", "4002": "ꦏ꦳ꦃ", "4003": "ꦏ꦳꧀ꦢꦸ", "4004": "ꦏ꦳꧀ꦤꦸ", "4005": "ꦏ꦳꧀ꦤꦺꦴ", "4006": "ꦏ꦳꧀ꦪꦸ", "4007": "ꦏ꧀ꦒꦶ", "4008": "ꦏ꧀ꦕꦶ", "4009": "ꦏ꧀ꦗꦶꦁ", "4010": "ꦏ꧀ꦠꦶꦂ", "4011": "ꦏ꧀ꦠꦺꦂ", "4012": "ꦏ꧀ꦠ꧀ꦥ꦳ꦶ", "4013": "ꦏ꧀ꦠ꧀ꦥ꦳꧀", "4014": "ꦏ꧀ꦠ꧀ꦥ꧀", "4015": "ꦏ꧀ꦢꦸꦂ", "4016": "ꦏ꧀ꦢꦺꦴꦁ", "4017": "ꦏ꧀ꦤꦻ", "4018": "ꦏ꧀ꦤ꧀ꦛꦶ", "4019": "ꦏ꧀ꦥ꦳ꦸ", "4020": "ꦏ꧀ꦥ꧀ꦩ꧀", "4021": "ꦏ꧀ꦧꦼꦂ", "4022": "ꦏ꧀ꦪ꧀ꦫ", "4023": "ꦏ꧀ꦫꦸꦁ", "4024": "ꦏ꧀ꦫ꧀ꦗ꦳ꦼ", "4025": "ꦏ꧀ꦭꦶꦃ", "4026": "ꦏ꧀ꦭꦺꦴꦂ", "4027": "ꦏ꧀ꦯ꧀ꦮ", "4028": "ꦏ꧀ꦱ꧀ꦏꦸ", "4029": "ꦏ꧀ꦱ꧀ꦒ꧀", "4030": "ꦏ꧀ꦱ꧀ꦠꦺꦴ", "4031": "ꦏ꧀ꦱ꧀ꦤꦺꦴ", "4032": "ꦏ꧀ꦱ꧀ꦥꦶ", "4033": "ꦏ꧀ꦱ꧀ꦩꦶ", "4034": "ꦏ꧀ꦱ꧀ꦱꦺ", "4035": "ꦐꦻ", "4036": "ꦐ꧀ꦐꦃ", "4037": "ꦐ꧀ꦫ꧀", "4038": "ꦐ꧀ꦫ꧀ꦥꦼ", "4039": "ꦒ꦳ꦷ", "4040": "ꦒ꦳꧀ꦠ꧀ꦕ꧀", "4041": "ꦒ꦳꧀ꦤ", "4042": "ꦒ꦳꧀ꦤꦶ", "4043": "ꦒ꦳꧀ꦧꦸꦂ", "4044": "ꦒ꦳꧀ꦪ", "4045": "ꦒ꧀ꦏ꧀ꦫ꧀", "4046": "ꦒ꧀ꦐ꧀", "4047": "ꦒ꧀ꦝ", "4048": "ꦒ꧀ꦝꦺ", "4049": "ꦒ꧀ꦢꦸ", "4050": "ꦒ꧀ꦩ꧀ꦏꦶ", "4051": "ꦒ꧀ꦪꦂ", "4052": "ꦒ꧀ꦪ꧀ꦢ", "4053": "ꦒ꧀ꦪ꧀ꦭ꧀", "4054": "ꦒ꧀ꦭꦺꦁ", "4055": "ꦒ꧀ꦭꦺꦴꦁ", "4056": "ꦒ꧀ꦭꦼꦂ", "4057": "ꦒ꧀ꦮꦶ", "4058": "ꦒ꧀ꦮꦻ", "4059": "ꦔ꧀ꦏ", "4060": "ꦔ꧀ꦒ꧀ꦫꦸ", "4061": "ꦔ꧀ꦒ꧀ꦭꦶ", "4062": "ꦔ꧀ꦒ꧀ꦭꦸ", "4063": "ꦔ꧀ꦒ꧀ꦭꦺ", "4064": "ꦔ꧀ꦒ꧀ꦭꦺꦴ", "4065": "ꦔ꧀ꦚ", "4066": "ꦔ꧀ꦤ꧀ꦠꦶ", "4067": "ꦔ꧀ꦫꦸꦁ", "4068": "ꦔ꧀ꦭꦺꦁ", "4069": "ꦔ꧀ꦭ꧀ꦏꦺꦴ", "4070": "ꦕ꧀ꦏ꧀ꦗ", "4071": "ꦕ꧀ꦏ꧀ꦤꦼꦂ", "4072": "ꦕ꧀ꦏ꧀ꦥ꦳ꦶ", "4073": "ꦕ꧀ꦏ꧀ꦥꦺꦴ", "4074": "ꦕ꧀ꦏ꧀ꦮꦶ", "4075": "ꦕ꧀ꦏ꧀ꦮꦺꦴ", "4076": "ꦕ꧀ꦐ꧀", "4077": "ꦕ꧀ꦛꦺꦴ", "4078": "ꦕ꧀ꦛ꧀ꦪꦼ", "4079": "ꦕ꧀ꦠ꧀ꦫꦸ", "4080": "ꦕ꧀ꦢ꧀ꦕ꧀", "4081": "ꦕ꧀ꦥ꦳꧀ꦠ꧀", "4082": "ꦕ꧀ꦩꦼ", "4083": "ꦕ꧀ꦪ꧀ꦠꦶ", "4084": "ꦕ꧀ꦪ꧀ꦠ꧀", "4085": "ꦕ꧀ꦪ꧀ꦩ꧀", "4086": "ꦕ꧀ꦫ꧀ꦪꦶꦁ", "4087": "ꦕ꧀ꦮꦼ", "4088": "ꦕ꧀ꦱꦼꦂ", "4089": "ꦕ꧀ꦱ꧀ꦥ꦳ꦶ", "4090": "ꦕ꧀ꦱ꧀ꦧꦃ", "4091": "ꦕ꧀ꦱ꧀ꦮꦼꦃꦂ", "4092": "ꦕ꧀ꦲꦶ", "4093": "ꦕ꧀ꦲꦼ", "4094": "ꦗ꦳ꦸꦃ", "4095": "ꦗ꦳꧀ꦏ꧀", "4096": "ꦗ꦳꧀ꦗ꦳꧀ꦗ꦳꧀", "4097": "ꦗ꦳꧀ꦤ꧀ꦕ꧀", "4098": "ꦗ꦳꧀ꦩ꧀", "4099": "ꦗ꦳꧀ꦭꦼ", "4100": "ꦗ꦳꧀ꦱ꧀ꦠ", "4101": "ꦗꦷ", "4102": "ꦗ꧀ꦗꦂ", "4103": "ꦗ꧀ꦠ꧀ꦥ꦳꧀", "4104": "ꦗ꧀ꦢꦼ", "4105": "ꦗ꧀ꦢ꧀", "4106": "ꦗ꧀ꦤꦺꦴ", "4107": "ꦗ꧀ꦤꦼ", "4108": "ꦗ꧀ꦤ꧀ꦱ꧀", "4109": "ꦗ꧀ꦥ꧀ꦒ꧀", "4110": "ꦗ꧀ꦧꦼ", "4111": "ꦗ꧀ꦩ꧀", "4112": "ꦗ꧀ꦪ", "4113": "ꦗ꧀ꦱ꧀ꦠꦼꦂ", "4114": "ꦗ꧀ꦱ꧀ꦱ꧀", "4115": "ꦚ꧀ꦏꦶ", "4116": "ꦚ꧀ꦗꦸꦂ", "4117": "ꦚ꧀ꦠ", "4118": "ꦚ꧀ꦠꦻ", "4119": "ꦚ꧀ꦧ", "4120": "ꦚ꧀ꦩ꧀ꦥ", "4121": "ꦚ꧀ꦭꦺꦴ", "4122": "ꦚ꧀ꦱꦼ", "4123": "ꦛ꧀ꦩ꧀", "4124": "ꦛ꧀ꦱ꧀ꦕꦶ", "4125": "ꦝ꧀ꦫꦼ", "4126": "ꦝ꧀ꦮ", "4127": "ꦟ꧀ꦝ", "4128": "ꦠꦿ", "4129": "ꦠ꧀ꦕꦺꦴ", "4130": "ꦠ꧀ꦕꦻ", "4131": "ꦠ꧀ꦕ꧀ꦩꦼ", "4132": "ꦠ꧀ꦕ꧀ꦫꦼ", "4133": "ꦠ꧀ꦗ꦳ꦸ", "4134": "ꦠ꧀ꦗ꦳꧀ꦏꦺꦴ", "4135": "ꦠ꧀ꦗ꦳꧀ꦏꦼꦂ", "4136": "ꦠ꧀ꦗ꦳꧀ꦩꦼ", "4137": "ꦠ꧀ꦠꦁ", "4138": "ꦠ꧀ꦠ꧀ꦥ꧀", "4139": "ꦠ꧀ꦠ꧀ꦫꦺꦴ", "4140": "ꦠ꧀ꦩꦻ", "4141": "ꦠ꧀ꦪꦁ", "4142": "ꦠ꧀ꦪꦺꦴꦁꦃ", "4143": "ꦠ꧀ꦪ꧀ꦥꦶ", "4144": "ꦠ꧀ꦪ꧀ꦫꦼ", "4145": "ꦠ꧀ꦪ꧀ꦱ꧀", "4146": "ꦠ꧀ꦪ꧀ꦲꦺꦴ", "4147": "ꦠ꧀ꦪ꧀ꦲꦼ", "4148": "ꦠ꧀ꦭꦃ", "4149": "ꦠ꧀ꦭ꧀ꦪ꧀", "4150": "ꦠ꧀ꦮ꧀ꦫꦶ", "4151": "ꦠ꧀ꦱ꧀ꦏ", "4152": "ꦠ꧀ꦱ꧀ꦏꦃ", "4153": "ꦠ꧀ꦱ꧀ꦕꦶ", "4154": "ꦠ꧀ꦱ꧀ꦢꦶ", "4155": "ꦢꦁꦃ", "4156": "ꦢ꦳꧀ꦏ", "4157": "ꦢꦻꦁ", "4158": "ꦢ꧀ꦐꦶ", "4159": "ꦢ꧀ꦗꦴꦂ", "4160": "ꦢ꧀ꦠ", "4161": "ꦢ꧀ꦠ꧀ꦱ꧀", "4162": "ꦢ꧀ꦤꦸ", "4163": "ꦢ꧀ꦥ꦳꧀ꦭ꧀", "4164": "ꦢ꧀ꦥꦶ", "4165": "ꦢ꧀ꦥ꧀ꦗ꧀", "4166": "ꦢ꧀ꦧ꧀ꦫꦻ", "4167": "ꦢ꧀ꦪꦂ", "4168": "ꦢ꧀ꦫ꧀ꦏ꧀", "4169": "ꦢ꧀ꦫ꧀ꦲꦼ", "4170": "ꦢ꧀ꦮꦺꦴꦂ", "4171": "ꦢ꧀ꦱꦸ", "4172": "ꦤ꧀ꦏꦸꦁ", "4173": "ꦤ꧀ꦏꦺꦴꦂ", "4174": "ꦤ꧀ꦏ꧀ꦗ꦳꧀", "4175": "ꦤ꧀ꦏ꧀ꦭ꧀", "4176": "ꦤ꧀ꦐ꧀", "4177": "ꦤ꧀ꦔ꧀ꦏ", "4178": "ꦤ꧀ꦕ꧀ꦠꦺꦴ", "4179": "ꦤ꧀ꦕ꧀ꦫꦺꦴ", "4180": "ꦤ꧀ꦕ꧀ꦭꦸ", "4181": "ꦤ꧀ꦕ꧀ꦭꦻꦂ", "4182": "ꦤ꧀ꦗ꦳ꦸ", "4183": "ꦤ꧀ꦗꦺꦂ", "4184": "ꦤ꧀ꦗ꧀ꦫꦺꦴ", "4185": "ꦤ꧀ꦛ꧀ꦪ", "4186": "ꦤ꧀ꦠ꧀ꦫꦻꦂ", "4187": "ꦤ꧀ꦠ꧀ꦫꦼꦃ", "4188": "ꦤ꧀ꦠ꧀ꦱꦸ", "4189": "ꦤ꧀ꦢ꦳ꦶ", "4190": "ꦤ꧀ꦢ꦳ꦺꦴ", "4191": "ꦤ꧀ꦢ꧀ꦗꦁ", "4192": "ꦤ꧀ꦢ꧀ꦥ", "4193": "ꦤ꧀ꦢ꧀ꦥ꦳ꦶ", "4194": "ꦤ꧀ꦢ꧀ꦫꦴ", "4195": "ꦤ꧀ꦢ꧀ꦯꦸ", "4196": "ꦤ꧀ꦢ꧀ꦱꦺꦴ", "4197": "ꦤ꧀ꦤꦂ", "4198": "ꦤ꧀ꦥ꦳ꦸꦂ", "4199": "ꦤ꧀ꦥ꦳ꦻꦂ", "4200": "ꦤ꧀ꦥ꦳꧀ꦥ", "4201": "ꦤ꧀ꦥ꧀ꦪꦼ", "4202": "ꦤ꧀ꦧꦶꦂ", "4203": "ꦤ꧀ꦧ꧀ꦭ", "4204": "ꦤ꧀ꦩꦸꦁ", "4205": "ꦤ꧀ꦩ꧀ꦒ꧀", "4206": "ꦤ꧀ꦭꦼꦁ", "4207": "ꦤ꧀ꦮ꧀ꦪ꧀", "4208": "ꦤ꧀ꦯꦴ", "4209": "ꦤ꧀ꦯꦼ", "4210": "ꦤ꧀ꦯ꧀ꦭ꧀", "4211": "ꦤ꧀ꦱ꧀ꦠꦺ", "4212": "ꦤ꧀ꦱ꧀ꦭꦺꦴ", "4213": "ꦤ꧀ꦱ꧀ꦮ", "4214": "ꦤ꧀ꦱ꧀ꦮꦺꦴꦂ", "4215": "ꦤ꧀ꦲꦴ", "4216": "ꦤ꧀ꦲ꧀ꦠꦶ", "4217": "ꦤ꧀ꦲ꧀ꦭ꧀", "4218": "ꦥ꦳ꦼꦃ", "4219": "ꦥ꦳꧀ꦏ꧀ꦪ꧀", "4220": "ꦥ꦳꧀ꦗ", "4221": "ꦥ꦳꧀ꦠ꧀ꦪ꧀", "4222": "ꦥ꦳꧀ꦤ꧀ꦕ꧀", "4223": "ꦥ꦳꧀ꦥ꦳ꦶꦁ", "4224": "ꦥ꦳꧀ꦥ꦳꧀ꦫ", "4225": "ꦥ꦳꧀ꦥ꦳꧀ꦭ꧀", "4226": "ꦥ꦳꧀ꦥ꦳꧀ꦲ꧀", "4227": "ꦥ꦳꧀ꦥ꧀", "4228": "ꦥ꦳꧀ꦫꦻ", "4229": "ꦥ꦳꧀ꦫ꧀ꦱ꧀", "4230": "ꦥ꦳꧀ꦭꦂ", "4231": "ꦥ꦳꧀ꦭ꧀ꦪꦺꦴ", "4232": "ꦥ꦳꧀ꦮ", "4233": "ꦥ꦳꧀ꦱ꧀ꦠꦼ", "4234": "ꦥ꦳꧀ꦱ꧀ꦠ꧀", "4235": "ꦥꦺꦃ", "4236": "ꦥ꧀ꦛꦶ", "4237": "ꦥ꧀ꦠ꧀ꦥ꧀", "4238": "ꦥ꧀ꦢ꧀ꦫ꧀", "4239": "ꦥ꧀ꦤ꧀ꦗ꧀", "4240": "ꦥ꧀ꦤ꧀ꦩ꧀", "4241": "ꦥ꧀ꦥꦸꦂ", "4242": "ꦥ꧀ꦥ꧀ꦢ꧀", "4243": "ꦥ꧀ꦥ꧀ꦭ꧀", "4244": "ꦥ꧀ꦧ", "4245": "ꦥ꧀ꦧ꧀ꦗ꧀", "4246": "ꦥ꧀ꦪꦺꦴꦂ", "4247": "ꦥ꧀ꦪ꧀ꦫꦸ", "4248": "ꦥ꧀ꦪ꧀ꦫꦺ", "4249": "ꦥ꧀ꦪ꧀ꦭꦼ", "4250": "ꦥ꧀ꦪ꧀ꦱ", "4251": "ꦥ꧀ꦫ꧀ꦗ꦳꧀", "4252": "ꦥ꧀ꦫ꧀ꦢ꧀", "4253": "ꦥ꧀ꦮ", "4254": "ꦥ꧀ꦯꦶ", "4255": "ꦥ꧀ꦱ꧀ꦏꦺꦴ", "4256": "ꦥ꧀ꦱ꧀ꦒ꧀", "4257": "ꦥ꧀ꦱ꧀ꦠ꧀", "4258": "ꦧꦺꦴꦁꦃ", "4259": "ꦧ꧀ꦏ꧀", "4260": "ꦧ꧀ꦕꦼ", "4261": "ꦧ꧀ꦠꦼꦂ", "4262": "ꦧ꧀ꦤꦺ", "4263": "ꦧ꧀ꦤ꧀ꦗꦸꦂ", "4264": "ꦧ꧀ꦥ꦳ꦺꦂ", "4265": "ꦧ꧀ꦥꦺꦴ", "4266": "ꦧ꧀ꦥ꧀ꦤ꧀", "4267": "ꦧ꧀ꦪꦸꦃ", "4268": "ꦧ꧀ꦪ꧀ꦭꦺꦴ", "4269": "ꦧ꧀ꦪ꧀ꦱ꧀", "4270": "ꦧ꧀ꦫꦴ", "4271": "ꦧ꧀ꦫꦼꦃ", "4272": "ꦧ꧀ꦫ꧀ꦠꦶ", "4273": "ꦧ꧀ꦫ꧀ꦱ꧀", "4274": "ꦧ꧀ꦭꦼꦂ", "4275": "ꦧ꧀ꦮ꧀ꦭ꧀", "4276": "ꦧ꧀ꦱ꧀ꦕꦺꦴ", "4277": "ꦧ꧀ꦱ꧀ꦥꦺ", "4278": "ꦩꦻꦂ", "4279": "ꦩ꧀ꦏ꧀ꦥ꧀", "4280": "ꦩ꧀ꦒꦁ", "4281": "ꦩ꧀ꦒꦼ", "4282": "ꦩ꧀ꦒ꧀ꦪꦼ", "4283": "ꦩ꧀ꦔꦶ", "4284": "ꦩ꧀ꦕ꧀ꦏ꧀", "4285": "ꦩ꧀ꦕ꧀ꦕꦸ", "4286": "ꦩ꧀ꦕ꧀ꦕꦺꦴ", "4287": "ꦩ꧀ꦕ꧀ꦕꦺꦴꦂ", "4288": "ꦩ꧀ꦕ꧀ꦢꦼꦂ", "4289": "ꦩ꧀ꦕ꧀ꦥ꦳ꦶ", "4290": "ꦩ꧀ꦕ꧀ꦩ", "4291": "ꦩ꧀ꦕ꧀ꦩꦶ", "4292": "ꦩ꧀ꦗ꦳꧀", "4293": "ꦩ꧀ꦗ꧀", "4294": "ꦩ꧀ꦝ", "4295": "ꦩ꧀ꦢ꧀ꦏ꧀", "4296": "ꦩ꧀ꦤꦸꦁ", "4297": "ꦩ꧀ꦥꦹ", "4298": "ꦩ꧀ꦥ꧀ꦠ꧀", "4299": "ꦩ꧀ꦥ꧀ꦥ꧀", "4300": "ꦩ꧀ꦥ꧀ꦪꦼ", "4301": "ꦩ꧀ꦥ꧀ꦪ꧀", "4302": "ꦩ꧀ꦥ꧀ꦭꦁ", "4303": "ꦩ꧀ꦥ꧀ꦭꦼꦁ", "4304": "ꦩ꧀ꦧꦺꦁ", "4305": "ꦩ꧀ꦧ꧀ꦠ꧀", "4306": "ꦩ꧀ꦧ꧀ꦧ꧀", "4307": "ꦩ꧀ꦧ꧀ꦪꦁ", "4308": "ꦩ꧀ꦧ꧀ꦫꦻ", "4309": "ꦩ꧀ꦩꦃ", "4310": "ꦩ꧀ꦩ꧀ꦱꦼ", "4311": "ꦩ꧀ꦪꦁ", "4312": "ꦩ꧀ꦪ꧀ꦛꦺꦴ", "4313": "ꦩ꧀ꦪ꧀ꦫ", "4314": "ꦩ꧀ꦮꦼ", "4315": "ꦩ꧀ꦱꦶꦂ", "4316": "ꦩ꧀ꦱ꧀ꦧꦼꦂ", "4317": "ꦩ꧀ꦱ꧀ꦮ",
[...]
